{
  "version": "1.0",
  "truncation": null,
  "padding": null,
  "added_tokens": [
    {
      "id": 0,
      "content": "[UNK]",
      "single_word": false,
      "lstrip": false,
      "rstrip": false,
      "normalized": false,
      "special": true
    },
    {
      "id": 1,
      "content": "[CLS]",
      "single_word": false,
      "lstrip": false,
      "rstrip": false,
      "normalized": false,
      "special": true
    },
    {
      "id": 2,
      "content": "[SEP]",
      "single_word": false,
      "lstrip": false,
      "rstrip": false,
      "normalized": false,
      "special": true
    },
    {
      "id": 3,
      "content": "[PAD]",
      "single_word": false,
      "lstrip": false,
      "rstrip": false,
      "normalized": false,
      "special": true
    },
    {
      "id": 4,
      "content": "[MASK]",
      "single_word": false,
      "lstrip": false,
      "rstrip": false,
      "normalized": false,
      "special": true
    }
  ],
  "normalizer": null,
  "pre_tokenizer": {
    "type": "Whitespace"
  },
  "post_processor": null,
  "decoder": null,
  "model": {
    "type": "BPE",
    "dropout": null,
    "unk_token": "[UNK]",
    "continuing_subword_prefix": null,
    "end_of_word_suffix": null,
    "fuse_unk": false,
    "byte_fallback": false,
    "vocab": {
      "[UNK]": 0,
      "[CLS]": 1,
      "[SEP]": 2,
      "[PAD]": 3,
      "[MASK]": 4,
      "!": 5,
      "\"": 6,
      "&": 7,
      "'": 8,
      "(": 9,
      ")": 10,
      "*": 11,
      ",": 12,
      "-": 13,
      ".": 14,
      "/": 15,
      "0": 16,
      "1": 17,
      "2": 18,
      "3": 19,
      "4": 20,
      "5": 21,
      "6": 22,
      "7": 23,
      "8": 24,
      "9": 25,
      ":": 26,
      ";": 27,
      "?": 28,
      "A": 29,
      "B": 30,
      "C": 31,
      "D": 32,
      "E": 33,
      "F": 34,
      "G": 35,
      "H": 36,
      "I": 37,
      "J": 38,
      "K": 39,
      "L": 40,
      "M": 41,
      "N": 42,
      "O": 43,
      "P": 44,
      "Q": 45,
      "R": 46,
      "S": 47,
      "T": 48,
      "U": 49,
      "V": 50,
      "W": 51,
      "X": 52,
      "Y": 53,
      "Z": 54,
      "[": 55,
      "]": 56,
      "_": 57,
      "a": 58,
      "b": 59,
      "c": 60,
      "d": 61,
      "e": 62,
      "f": 63,
      "g": 64,
      "h": 65,
      "i": 66,
      "j": 67,
      "k": 68,
      "l": 69,
      "m": 70,
      "n": 71,
      "o": 72,
      "p": 73,
      "q": 74,
      "r": 75,
      "s": 76,
      "t": 77,
      "u": 78,
      "v": 79,
      "w": 80,
      "x": 81,
      "y": 82,
      "z": 83,
      "|": 84,
      "}": 85,
      "©": 86,
      "é": 87,
      "‘": 88,
      "’": 89,
      "“": 90,
      "”": 91,
      "th": 92,
      "in": 93,
      "the": 94,
      "an": 95,
      "er": 96,
      "on": 97,
      "re": 98,
      "ou": 99,
      "at": 100,
      "en": 101,
      "is": 102,
      "to": 103,
      "ed": 104,
      "ing": 105,
      "as": 106,
      "and": 107,
      "or": 108,
      "it": 109,
      "es": 110,
      "al": 111,
      "of": 112,
      "ar": 113,
      "he": 114,
      "le": 115,
      "ly": 116,
      "st": 117,
      "no": 118,
      "se": 119,
      "me": 120,
      "ch": 121,
      "be": 122,
      "ha": 123,
      "ro": 124,
      "wh": 125,
      "ld": 126,
      "that": 127,
      "ce": 128,
      "ve": 129,
      "ti": 130,
      "ver": 131,
      "gh": 132,
      "his": 133,
      "wi": 134,
      "for": 135,
      "ll": 136,
      "ut": 137,
      "im": 138,
      "ag": 139,
      "ow": 140,
      "id": 141,
      "was": 142,
      "ay": 143,
      "so": 144,
      "ent": 145,
      "ir": 146,
      "all": 147,
      "my": 148,
      "ad": 149,
      "with": 150,
      "un": 151,
      "not": 152,
      "li": 153,
      "you": 154,
      "ould": 155,
      "om": 156,
      "ac": 157,
      "ri": 158,
      "ere": 159,
      "one": 160,
      "ter": 161,
      "ab": 162,
      "ain": 163,
      "ther": 164,
      "su": 165,
      "mo": 166,
      "out": 167,
      "ion": 168,
      "ke": 169,
      "ght": 170,
      "had": 171,
      "him": 172,
      "ne": 173,
      "pe": 174,
      "ur": 175,
      "do": 176,
      "fe": 177,
      "us": 178,
      "are": 179,
      "nd": 180,
      "lo": 181,
      "et": 182,
      "have": 183,
      "but": 184,
      "ess": 185,
      "con": 186,
      "am": 187,
      "rom": 188,
      "ic": 189,
      "de": 190,
      "whi": 191,
      "by": 192,
      "--": 193,
      "sel": 194,
      "we": 195,
      "ex": 196,
      "sh": 197,
      "age": 198,
      "The": 199,
      "qu": 200,
      "from": 201,
      "this": 202,
      "if": 203,
      "thing": 204,
      "now": 205,
      "up": 206,
      "tr": 207,
      "co": 208,
      "our": 209,
      "ap": 210,
      "way": 211,
      "they": 212,
      "od": 213,
      "po": 214,
      "sa": 215,
      "tion": 216,
      "ind": 217,
      "self": 218,
      "ven": 219,
      "very": 220,
      "man": 221,
      "ist": 222,
      "ant": 223,
      "her": 224,
      "ong": 225,
      "ul": 226,
      "per": 227,
      "which": 228,
      "ust": 229,
      "ast": 230,
      "ard": 231,
      "go": 232,
      "il": 233,
      "fo": 234,
      "op": 235,
      "can": 236,
      "ough": 237,
      "af": 238,
      "com": 239,
      "res": 240,
      "pl": 241,
      "would": 242,
      "could": 243,
      "te": 244,
      "them": 245,
      "ation": 246,
      "were": 247,
      "ound": 248,
      "ally": 249,
      "ill": 250,
      "wor": 251,
      "only": 252,
      "some": 253,
      "there": 254,
      "own": 255,
      "ra": 256,
      "ep": 257,
      "even": 258,
      "their": 259,
      "Page": 260,
      "who": 261,
      "ct": 262,
      "der": 263,
      "any": 264,
      "pro": 265,
      "au": 266,
      "ate": 267,
      "king": 268,
      "itt": 269,
      "end": 270,
      "she": 271,
      "other": 272,
      "um": 273,
      "ight": 274,
      "ous": 275,
      "But": 276,
      "see": 277,
      "fa": 278,
      "ran": 279,
      "into": 280,
      "ite": 281,
      "est": 282,
      "ck": 283,
      "time": 284,
      "row": 285,
      "ack": 286,
      "has": 287,
      "able": 288,
      "more": 289,
      "19": 290,
      "again": 291,
      "ment": 292,
      "when": 293,
      "long": 294,
      "And": 295,
      "ish": 296,
      "been": 297,
      "ble": 298,
      "si": 299,
      "pp": 300,
      ",\"": 301,
      "ho": 302,
      "ok": 303,
      "ach": 304,
      "then": 305,
      "ence": 306,
      "art": 307,
      "el": 308,
      "said": 309,
      ".\"": 310,
      "hand": 311,
      "what": 312,
      "pos": 313,
      "ge": 314,
      "over": 315,
      "ers": 316,
      "ass": 317,
      "fore": 318,
      "how": 319,
      "reat": 320,
      "Th": 321,
      "sto": 322,
      "ie": 323,
      "know": 324,
      "He": 325,
      "ake": 326,
      "ide": 327,
      "ance": 328,
      "ine": 329,
      "every": 330,
      "ure": 331,
      "pre": 332,
      "like": 333,
      "ity": 334,
      "ol": 335,
      "off": 336,
      "bl": 337,
      "ak": 338,
      "most": 339,
      "reg": 340,
      "down": 341,
      "fir": 342,
      "your": 343,
      "ful": 344,
      "than": 345,
      "ear": 346,
      "ten": 347,
      "cl": 348,
      "stand": 349,
      "too": 350,
      "tain": 351,
      "its": 352,
      "gr": 353,
      "read": 354,
      "ps": 355,
      "bo": 356,
      "under": 357,
      "ittle": 358,
      "sp": 359,
      "act": 360,
      "about": 361,
      "did": 362,
      "little": 363,
      "sc": 364,
      "dis": 365,
      "ive": 366,
      "pt": 367,
      "ated": 368,
      "oun": 369,
      "room": 370,
      "urn": 371,
      "door": 372,
      "ple": 373,
      "such": 374,
      "Wh": 375,
      "will": 376,
      "still": 377,
      "less": 378,
      "ves": 379,
      "back": 380,
      "day": 381,
      "med": 382,
      "ig": 383,
      "It": 384,
      "afk": 385,
      "Kafk": 386,
      "ry": 387,
      "ever": 388,
      "pres": 389,
      "first": 390,
      "In": 391,
      "must": 392,
      "wo": 393,
      "himself": 394,
      "red": 395,
      "let": 396,
      "though": 397,
      "cer": 398,
      "quite": 399,
      "come": 400,
      "cour": 401,
      "ue": 402,
      "ved": 403,
      "ary": 404,
      "Kafka": 405,
      "ving": 406,
      "ople": 407,
      "head": 408,
      "where": 409,
      "ade": 410,
      "ame": 411,
      "mu": 412,
      "thr": 413,
      "str": 414,
      "here": 415,
      "ted": 416,
      "great": 417,
      "turn": 418,
      "myself": 419,
      "stre": 420,
      "ey": 421,
      "before": 422,
      "people": 423,
      "should": 424,
      "beg": 425,
      "just": 426,
      "Greg": 427,
      "Gregor": 428,
      "fl": 429,
      "pr": 430,
      "yet": 431,
      "ob": 432,
      "ought": 433,
      "never": 434,
      "cau": 435,
      "ans": 436,
      "once": 437,
      "right": 438,
      "say": 439,
      "thin": 440,
      "ition": 441,
      "sm": 442,
      "di": 443,
      "get": 444,
      "these": 445,
      "air": 446,
      "ince": 447,
      "ose": 448,
      "much": 449,
      "ild": 450,
      "ise": 451,
      "ward": 452,
      "look": 453,
      "ily": 454,
      "ts": 455,
      "cho": 456,
      "after": 457,
      "sl": 458,
      "while": 459,
      "away": 460,
      "gl": 461,
      "ways": 462,
      "through": 463,
      "ction": 464,
      "ness": 465,
      "well": 466,
      "open": 467,
      "ace": 468,
      "des": 469,
      "ked": 470,
      "arm": 471,
      "happ": 472,
      "ung": 473,
      "ting": 474,
      "ser": 475,
      "without": 476,
      "aw": 477,
      "ase": 478,
      "ning": 479,
      "rem": 480,
      "nothing": 481,
      "new": 482,
      "ies": 483,
      "imp": 484,
      "light": 485,
      "bur": 486,
      "tic": 487,
      "ph": 488,
      "made": 489,
      "want": 490,
      "ber": 491,
      "bed": 492,
      "work": 493,
      "ready": 494,
      "course": 495,
      "far": 496,
      "dist": 497,
      "sing": 498,
      "clo": 499,
      "spe": 500,
      "haps": 501,
      "certain": 502,
      "par": 503,
      "expl": 504,
      "br": 505,
      "ious": 506,
      "ort": 507,
      "bet": 508,
      "ice": 509,
      "old": 510,
      "pass": 511,
      "make": 512,
      "cause": 513,
      "side": 514,
      "ang": 515,
      "tim": 516,
      "No": 517,
      "em": 518,
      "around": 519,
      "lie": 520,
      "dog": 521,
      "father": 522,
      "You": 523,
      "inter": 524,
      "ree": 525,
      "ried": 526,
      "So": 527,
      "bod": 528,
      "cor": 529,
      "always": 530,
      "Bl": 531,
      "fer": 532,
      "ave": 533,
      "sed": 534,
      "hel": 535,
      "sible": 536,
      "almost": 537,
      "eyes": 538,
      "came": 539,
      "feld": 540,
      "ush": 541,
      "pu": 542,
      "umfeld": 543,
      "Blumfeld": 544,
      "cle": 545,
      "anc": 546,
      "already": 547,
      "bre": 548,
      "really": 549,
      "ably": 550,
      "need": 551,
      "against": 552,
      "might": 553,
      "atch": 554,
      "does": 555,
      "iz": 556,
      "since": 557,
      "being": 558,
      "life": 559,
      "don": 560,
      "everything": 561,
      "?\"": 562,
      "thought": 563,
      "ft": 564,
      "igh": 565,
      "appe": 566,
      "cannot": 567,
      "think": 568,
      "small": 569,
      "aking": 570,
      "mom": 571,
      "wind": 572,
      "ick": 573,
      "moment": 574,
      "try": 575,
      "ished": 576,
      "led": 577,
      "feel": 578,
      "car": 579,
      "two": 580,
      "good": 581,
      "body": 582,
      "den": 583,
      "ark": 584,
      "vo": 585,
      "wr": 586,
      "child": 587,
      "enough": 588,
      "cess": 589,
      "fic": 590,
      "ng": 591,
      "because": 592,
      "llow": 593,
      "last": 594,
      "ud": 595,
      "ater": 596,
      "fin": 597,
      "raw": 598,
      "hind": 599,
      "ened": 600,
      ").": 601,
      "ren": 602,
      "ations": 603,
      "ath": 604,
      "perhaps": 605,
      "fort": 606,
      "cont": 607,
      "ci": 608,
      "coun": 609,
      "put": 610,
      "atter": 611,
      "times": 612,
      "We": 613,
      "men": 614,
      "lic": 615,
      "lt": 616,
      "qui": 617,
      "whole": 618,
      "dif": 619,
      "fr": 620,
      "night": 621,
      "ually": 622,
      "wall": 623,
      "int": 624,
      "things": 625,
      "may": 626,
      "sis": 627,
      "take": 628,
      "ouse": 629,
      "keep": 630,
      "word": 631,
      "sil": 632,
      "part": 633,
      "hands": 634,
      "IN": 635,
      "also": 636,
      "possible": 637,
      "tor": 638,
      "ently": 639,
      "same": 640,
      "cted": 641,
      "left": 642,
      "something": 643,
      "offic": 644,
      "burrow": 645,
      "!\"": 646,
      "sen": 647,
      "real": 648,
      "understand": 649,
      "ings": 650,
      "hear": 651,
      "ef": 652,
      "Scho": 653,
      "fri": 654,
      "year": 655,
      "reas": 656,
      "find": 657,
      "ms": 658,
      "estion": 659,
      "hard": 660,
      "sur": 661,
      "question": 662,
      "case": 663,
      "house": 664,
      "inst": 665,
      "leg": 666,
      "fast": 667,
      "ner": 668,
      "wa": 669,
      "iness": 670,
      "mother": 671,
      "ared": 672,
      "face": 673,
      "friend": 674,
      "mere": 675,
      "kind": 676,
      "list": 677,
      "run": 678,
      "ty": 679,
      "wal": 680,
      "step": 681,
      "behind": 682,
      "form": 683,
      "stood": 684,
      "sion": 685,
      "leep": 686,
      "Fran": 687,
      "mand": 688,
      "mor": 689,
      "ned": 690,
      "ors": 691,
      "why": 692,
      "used": 693,
      "however": 694,
      "On": 695,
      "ced": 696,
      "cken": 697,
      "window": 698,
      "pi": 699,
      "sk": 700,
      "What": 701,
      "help": 702,
      "Schocken": 703,
      "bu": 704,
      "ga": 705,
      "wom": 706,
      "least": 707,
      "got": 708,
      "world": 709,
      "explor": 710,
      "ew": 711,
      "eas": 712,
      "many": 713,
      "explorer": 714,
      "gi": 715,
      "nat": 716,
      "ss": 717,
      "ug": 718,
      "set": 719,
      "und": 720,
      "going": 721,
      "For": 722,
      "sid": 723,
      "often": 724,
      "ched": 725,
      "selves": 726,
      "comple": 727,
      "If": 728,
      "low": 729,
      "inde": 730,
      "adm": 731,
      "cond": 732,
      "cover": 733,
      "cu": 734,
      "les": 735,
      "wer": 736,
      "rest": 737,
      "seemed": 738,
      "gn": 739,
      "tem": 740,
      "That": 741,
      "fully": 742,
      "bus": 743,
      "call": 744,
      "care": 745,
      "ier": 746,
      "ween": 747,
      "serv": 748,
      "oc": 749,
      "itself": 750,
      "belie": 751,
      "place": 752,
      "inc": 753,
      "ries": 754,
      "They": 755,
      "tell": 756,
      "ground": 757,
      "officer": 758,
      "draw": 759,
      "fact": 760,
      "high": 761,
      "sister": 762,
      "toward": 763,
      "Then": 764,
      "At": 765,
      "tak": 766,
      "ask": 767,
      "This": 768,
      "upon": 769,
      "between": 770,
      "My": 771,
      "found": 772,
      "ither": 773,
      "til": 774,
      "food": 775,
      "longer": 776,
      "fam": 777,
      "jo": 778,
      "enti": 779,
      "hold": 780,
      "began": 781,
      "fron": 782,
      "indeed": 783,
      "bes": 784,
      "mon": 785,
      "ption": 786,
      "sat": 787,
      "tal": 788,
      "vi": 789,
      "toge": 790,
      "ars": 791,
      "ages": 792,
      "felt": 793,
      "prob": 794,
      "tention": 795,
      "remain": 796,
      "together": 797,
      "ping": 798,
      "soon": 799,
      "col": 800,
      "turned": 801,
      "begin": 802,
      "Tran": 803,
      "give": 804,
      "ped": 805,
      "years": 806,
      "Jose": 807,
      "att": 808,
      "arrow": 809,
      "rod": 810,
      "ular": 811,
      "follow": 812,
      "rather": 813,
      "Transl": 814,
      "cr": 815,
      "conf": 816,
      "complete": 817,
      "Joseph": 818,
      "Translated": 819,
      "fall": 820,
      "gu": 821,
      "vis": 822,
      "went": 823,
      "asked": 824,
      "order": 825,
      "sure": 826,
      "cur": 827,
      "sha": 828,
      "another": 829,
      "Franz": 830,
      "ling": 831,
      "ately": 832,
      "street": 833,
      "probably": 834,
      "Josephine": 835,
      "ball": 836,
      "dre": 837,
      "son": 838,
      "watch": 839,
      "else": 840,
      "listen": 841,
      "ze": 842,
      "themselves": 843,
      "each": 844,
      "ered": 845,
      "until": 846,
      "Now": 847,
      "WA": 848,
      "fur": 849,
      "ged": 850,
      "hu": 851,
      "hal": 852,
      "sleep": 853,
      "ref": 854,
      "oud": 855,
      "dec": 856,
      "anything": 857,
      "191": 858,
      "happen": 859,
      "dogs": 860,
      "clear": 861,
      "reason": 862,
      "ied": 863,
      "lay": 864,
      "mis": 865,
      "mber": 866,
      "matter": 867,
      "whe": 868,
      "seen": 869,
      "show": 870,
      "195": 871,
      "ments": 872,
      "better": 873,
      "near": 874,
      "There": 875,
      "actually": 876,
      "answer": 877,
      "New": 878,
      "gen": 879,
      "gir": 880,
      "took": 881,
      "aren": 882,
      "both": 883,
      "looked": 884,
      "certainly": 885,
      "RD": 886,
      "cal": 887,
      "ev": 888,
      "ience": 889,
      "nor": 890,
      "ual": 891,
      "those": 892,
      "erl": 893,
      "front": 894,
      "half": 895,
      "),": 896,
      "CE": 897,
      "done": 898,
      "ith": 899,
      "inv": 900,
      "ating": 901,
      "heard": 902,
      "consid": 903,
      "ult": 904,
      "comp": 905,
      "PR": 906,
      "Rab": 907,
      "ces": 908,
      "win": 909,
      "having": 910,
      "present": 911,
      "wanted": 912,
      "woman": 913,
      "cap": 914,
      "gent": 915,
      "hour": 916,
      "aster": 917,
      "ork": 918,
      "ited": 919,
      "young": 920,
      "suf": 921,
      "loo": 922,
      "others": 923,
      "rown": 924,
      "WARD": 925,
      "girl": 926,
      "Raban": 927,
      "His": 928,
      "mer": 929,
      "mind": 930,
      "simp": 931,
      "usu": 932,
      "ides": 933,
      "INCE": 934,
      "PRINCE": 935,
      "ail": 936,
      "je": 937,
      "reach": 938,
      "ord": 939,
      "iting": 940,
      "als": 941,
      "vers": 942,
      "point": 943,
      "seems": 944,
      "Ed": 945,
      "ead": 946,
      "free": 947,
      "ger": 948,
      "ks": 949,
      "push": 950,
      "uck": 951,
      "won": 952,
      "xt": 953,
      "move": 954,
      "saw": 955,
      "hardly": 956,
      "business": 957,
      "Mu": 958,
      "lit": 959,
      "sound": 960,
      "ief": 961,
      "When": 962,
      "quiet": 963,
      "words": 964,
      "merely": 965,
      "cent": 966,
      "cir": 967,
      "flo": 968,
      "use": 969,
      "ond": 970,
      "along": 971,
      "stay": 972,
      "noise": 973,
      "chief": 974,
      "aint": 975,
      "among": 976,
      "itting": 977,
      "artist": 978,
      "simply": 979,
      "To": 980,
      "blic": 981,
      "ire": 982,
      "lab": 983,
      "outh": 984,
      "alone": 985,
      "suc": 986,
      "expe": 987,
      "play": 988,
      "standing": 989,
      "Be": 990,
      "cus": 991,
      "dark": 992,
      "mus": 993,
      "rag": 994,
      "ret": 995,
      "although": 996,
      "sold": 997,
      "ket": 998,
      "few": 999,
      "ical": 1000,
      "home": 1001,
      "legs": 1002,
      "family": 1003,
      "Com": 1004,
      "Will": 1005,
      "York": 1006,
      "paren": 1007,
      "reme": 1008,
      "next": 1009,
      "appear": 1010,
      "balls": 1011,
      "gentle": 1012,
      "Muir": 1013,
      "As": 1014,
      "How": 1015,
      "table": 1016,
      "road": 1017,
      "shall": 1018,
      "quick": 1019,
      "ility": 1020,
      "position": 1021,
      "pleas": 1022,
      "EN": 1023,
      "av": 1024,
      "ax": 1025,
      "che": 1026,
      "ones": 1027,
      "tom": 1028,
      "lying": 1029,
      "cord": 1030,
      "human": 1031,
      "bor": 1032,
      "ip": 1033,
      "ove": 1034,
      "ins": 1035,
      "kept": 1036,
      "short": 1037,
      "days": 1038,
      "distance": 1039,
      "morning": 1040,
      "Brod": 1041,
      "mouth": 1042,
      "spo": 1043,
      "ull": 1044,
      "stran": 1045,
      "uring": 1046,
      "stret": 1047,
      "children": 1048,
      "diffic": 1049,
      "occ": 1050,
      "looking": 1051,
      "An": 1052,
      "All": 1053,
      "Yet": 1054,
      "hung": 1055,
      "ile": 1056,
      "start": 1057,
      "live": 1058,
      "ters": 1059,
      "tra": 1060,
      "coat": 1061,
      "anyone": 1062,
      "augh": 1063,
      "dire": 1064,
      "ized": 1065,
      "differ": 1066,
      "taken": 1067,
      "Edwin": 1068,
      "Willa": 1069,
      "dri": 1070,
      "ot": 1071,
      "aring": 1072,
      "char": 1073,
      "fair": 1074,
      "achie": 1075,
      "slow": 1076,
      "close": 1077,
      "ances": 1078,
      "best": 1079,
      "attention": 1080,
      "true": 1081,
      "evening": 1082,
      "pped": 1083,
      "iously": 1084,
      "tempt": 1085,
      "ordin": 1086,
      ".,": 1087,
      "ible": 1088,
      "pri": 1089,
      "eng": 1090,
      "doing": 1091,
      "ext": 1092,
      "aws": 1093,
      "Well": 1094,
      "fill": 1095,
      "gre": 1096,
      "ial": 1097,
      "past": 1098,
      "rid": 1099,
      "today": 1100,
      "sol": 1101,
      "fect": 1102,
      "dem": 1103,
      "exce": 1104,
      "exper": 1105,
      "shut": 1106,
      "itten": 1107,
      "assist": 1108,
      "public": 1109,
      "Yes": 1110,
      "cri": 1111,
      "lad": 1112,
      "pow": 1113,
      "tried": 1114,
      "mean": 1115,
      "necess": 1116,
      "tru": 1117,
      "hope": 1118,
      "earth": 1119,
      "streng": 1120,
      "arms": 1121,
      "voice": 1122,
      "believe": 1123,
      "gener": 1124,
      "ER": 1125,
      "One": 1126,
      "fing": 1127,
      "making": 1128,
      "sent": 1129,
      "become": 1130,
      "ions": 1131,
      "ress": 1132,
      "196": 1133,
      "written": 1134,
      "consider": 1135,
      "aid": 1136,
      "dden": 1137,
      "gle": 1138,
      "rin": 1139,
      "sit": 1140,
      "sever": 1141,
      "adv": 1142,
      "sudden": 1143,
      "amp": 1144,
      "exist": 1145,
      "coming": 1146,
      "yourself": 1147,
      "happened": 1148,
      "Ch": 1149,
      "ient": 1150,
      "ures": 1151,
      "oub": 1152,
      "ised": 1153,
      "ash": 1154,
      "lean": 1155,
      "stair": 1156,
      "ained": 1157,
      "sib": 1158,
      "silence": 1159,
      "servant": 1160,
      "completely": 1161,
      "music": 1162,
      "Ge": 1163,
      "hor": 1164,
      "min": 1165,
      "sight": 1166,
      "water": 1167,
      "rel": 1168,
      "tow": 1169,
      "chair": 1170,
      "ross": 1171,
      "feet": 1172,
      "astle": 1173,
      "mandant": 1174,
      "Commandant": 1175,
      "jum": 1176,
      "later": 1177,
      "master": 1178,
      "sitting": 1179,
      "erk": 1180,
      "rep": 1181,
      "org": 1182,
      "arch": 1183,
      "above": 1184,
      "sum": 1185,
      "trou": 1186,
      "joy": 1187,
      "soldier": 1188,
      "ordinary": 1189,
      "moun": 1190,
      "ony": 1191,
      "means": 1192,
      "tern": 1193,
      "194": 1194,
      "firm": 1195,
      "contin": 1196,
      "questions": 1197,
      "WARDEN": 1198,
      "floor": 1199,
      "bad": 1200,
      "eep": 1201,
      "slight": 1202,
      "val": 1203,
      "tive": 1204,
      "peace": 1205,
      "comes": 1206,
      "itted": 1207,
      "sign": 1208,
      "eye": 1209,
      "interest": 1210,
      "steps": 1211,
      "build": 1212,
      "called": 1213,
      "colle": 1214,
      "assistant": 1215,
      "Max": 1216,
      "kne": 1217,
      "pain": 1218,
      "tri": 1219,
      "taking": 1220,
      "vill": 1221,
      "second": 1222,
      "whom": 1223,
      "ident": 1224,
      "fell": 1225,
      "sometimes": 1226,
      "medi": 1227,
      "count": 1228,
      "covered": 1229,
      "Of": 1230,
      "bit": 1231,
      "creat": 1232,
      "fre": 1233,
      "laugh": 1234,
      "uni": 1235,
      "lock": 1236,
      "arden": 1237,
      "singing": 1238,
      "slowly": 1239,
      "aus": 1240,
      "bro": 1241,
      "leave": 1242,
      "bey": 1243,
      "forward": 1244,
      "supp": 1245,
      "pet": 1246,
      "ending": 1247,
      "story": 1248,
      "Al": 1249,
      "eper": 1250,
      "ib": 1251,
      "mak": 1252,
      "pur": 1253,
      "ris": 1254,
      "three": 1255,
      "top": 1256,
      "held": 1257,
      "notic": 1258,
      "chan": 1259,
      "living": 1260,
      "sub": 1261,
      "ously": 1262,
      "boy": 1263,
      "appeared": 1264,
      "beside": 1265,
      "dream": 1266,
      "whether": 1267,
      "necessary": 1268,
      "strength": 1269,
      "Bes": 1270,
      "Castle": 1271,
      "Do": 1272,
      "Des": 1273,
      "Per": 1274,
      "With": 1275,
      "during": 1276,
      "doub": 1277,
      "gra": 1278,
      "name": 1279,
      "ru": 1280,
      "sim": 1281,
      "vent": 1282,
      "anim": 1283,
      "lead": 1284,
      "immedi": 1285,
      "owed": 1286,
      "lif": 1287,
      "concer": 1288,
      "shout": 1289,
      "appro": 1290,
      "iled": 1291,
      "rance": 1292,
      "preh": 1293,
      "Why": 1294,
      "strong": 1295,
      "partic": 1296,
      "publ": 1297,
      "silent": 1298,
      "natur": 1299,
      "quickly": 1300,
      "town": 1301,
      "full": 1302,
      "ring": 1303,
      "rush": 1304,
      "beau": 1305,
      "ute": 1306,
      "add": 1307,
      "accord": 1308,
      "resp": 1309,
      "prov": 1310,
      "fortun": 1311,
      "easy": 1312,
      "given": 1313,
      "remember": 1314,
      "Georg": 1315,
      "makes": 1316,
      "Perhaps": 1317,
      "particular": 1318,
      "beauti": 1319,
      "fac": 1320,
      "knew": 1321,
      "pen": 1322,
      "pie": 1323,
      "sor": 1324,
      "tly": 1325,
      "ese": 1326,
      "arri": 1327,
      "wide": 1328,
      "ided": 1329,
      "acqu": 1330,
      "sup": 1331,
      "condem": 1332,
      "opin": 1333,
      "compl": 1334,
      "192": 1335,
      "stru": 1336,
      "trying": 1337,
      "usual": 1338,
      "several": 1339,
      "jour": 1340,
      "ken": 1341,
      "vol": 1342,
      "ingly": 1343,
      "tice": 1344,
      "book": 1345,
      "didn": 1346,
      "import": 1347,
      "surpr": 1348,
      "walk": 1349,
      "condemned": 1350,
      "She": 1351,
      "mid": 1352,
      "mine": 1353,
      "sy": 1354,
      "tou": 1355,
      "utter": 1356,
      "sole": 1357,
      "quar": 1358,
      "teach": 1359,
      "iew": 1360,
      "bled": 1361,
      "obje": 1362,
      "ctions": 1363,
      "country": 1364,
      "nature": 1365,
      "decis": 1366,
      "Con": 1367,
      "Just": 1368,
      "dang": 1369,
      "either": 1370,
      "fle": 1371,
      "hur": 1372,
      "narrow": 1373,
      "van": 1374,
      "ates": 1375,
      "chang": 1376,
      "bear": 1377,
      "lled": 1378,
      "deep": 1379,
      "herself": 1380,
      "comfort": 1381,
      "someone": 1382,
      "posed": 1383,
      "Not": 1384,
      "brea": 1385,
      "ledge": 1386,
      "instead": 1387,
      "erlag": 1388,
      "published": 1389,
      "LA": 1390,
      "Tr": 1391,
      "Verlag": 1392,
      "ben": 1393,
      "cut": 1394,
      "ined": 1395,
      "ines": 1396,
      "reco": 1397,
      "lea": 1398,
      "till": 1399,
      "impossible": 1400,
      "ager": 1401,
      "ict": 1402,
      "sho": 1403,
      "aps": 1404,
      "atever": 1405,
      "known": 1406,
      "bling": 1407,
      "speak": 1408,
      "sense": 1409,
      "suddenly": 1410,
      "village": 1411,
      "noticed": 1412,
      "prehen": 1413,
      "HA": 1414,
      "II": 1415,
      "Keep": 1416,
      "Oh": 1417,
      "big": 1418,
      "eth": 1419,
      "land": 1420,
      "late": 1421,
      "pal": 1422,
      "scho": 1423,
      "zed": 1424,
      "theless": 1425,
      "told": 1426,
      "tired": 1427,
      "forgot": 1428,
      "outside": 1429,
      "fear": 1430,
      "lost": 1431,
      "cold": 1432,
      "poin": 1433,
      "ended": 1434,
      "seem": 1435,
      "stands": 1436,
      "scr": 1437,
      "science": 1438,
      "pressed": 1439,
      "pression": 1440,
      "getting": 1441,
      "feeling": 1442,
      "carry": 1443,
      "Only": 1444,
      "expected": 1445,
      "hunger": 1446,
      "school": 1447,
      "Sam": 1448,
      "ah": 1449,
      "cre": 1450,
      "grown": 1451,
      "ler": 1452,
      "lar": 1453,
      "squ": 1454,
      "var": 1455,
      "stra": 1456,
      "ceed": 1457,
      "ago": 1458,
      "ows": 1459,
      "ney": 1460,
      "lod": 1461,
      "death": 1462,
      "comm": 1463,
      "knows": 1464,
      "desire": 1465,
      "instance": 1466,
      "sky": 1467,
      "easily": 1468,
      "mountain": 1469,
      "opinion": 1470,
      "recogn": 1471,
      "straight": 1472,
      "Pro": 1473,
      "ca": 1474,
      "dest": 1475,
      "hon": 1476,
      "main": 1477,
      "num": 1478,
      "prom": 1479,
      "rain": 1480,
      "round": 1481,
      "ann": 1482,
      "itation": 1483,
      "state": 1484,
      "cei": 1485,
      "lips": 1486,
      "weak": 1487,
      "ship": 1488,
      "trave": 1489,
      "knowledge": 1490,
      "pret": 1491,
      "office": 1492,
      "prof": 1493,
      "distur": 1494,
      "brought": 1495,
      "ize": 1496,
      "holding": 1497,
      "beginning": 1498,
      "doubt": 1499,
      "beautiful": 1500,
      "acquaint": 1501,
      "Is": 1502,
      "Le": 1503,
      "aim": 1504,
      "bing": 1505,
      "blo": 1506,
      "cket": 1507,
      "du": 1508,
      "dle": 1509,
      "ff": 1510,
      "ging": 1511,
      "hun": 1512,
      "resu": 1513,
      "attempt": 1514,
      "irt": 1515,
      "rich": 1516,
      "super": 1517,
      "pect": 1518,
      "person": 1519,
      "goes": 1520,
      "iling": 1521,
      "affair": 1522,
      "stop": 1523,
      "stories": 1524,
      "everyone": 1525,
      "likely": 1526,
      "regard": 1527,
      "thinking": 1528,
      "glass": 1529,
      "carri": 1530,
      "carried": 1531,
      "walls": 1532,
      "fasting": 1533,
      "condition": 1534,
      "stretched": 1535,
      "occas": 1536,
      "truth": 1537,
      "stairs": 1538,
      "bent": 1539,
      "bri": 1540,
      "mper": 1541,
      "return": 1542,
      "lear": 1543,
      "nobody": 1544,
      "meet": 1545,
      "aged": 1546,
      "ents": 1547,
      "teeth": 1548,
      "whose": 1549,
      "posite": 1550,
      "scri": 1551,
      "spect": 1552,
      "doesn": 1553,
      "labor": 1554,
      "power": 1555,
      "beyond": 1556,
      "immediately": 1557,
      "Berl": 1558,
      "Di": 1559,
      "Er": 1560,
      "ST": 1561,
      "jud": 1562,
      "loud": 1563,
      "mar": 1564,
      "mach": 1565,
      "sof": 1566,
      "smo": 1567,
      "sess": 1568,
      "view": 1569,
      "whatever": 1570,
      "imag": 1571,
      "contr": 1572,
      "exe": 1573,
      "apart": 1574,
      "apparen": 1575,
      "post": 1576,
      "pose": 1577,
      "clerk": 1578,
      "understood": 1579,
      "remark": 1580,
      "explan": 1581,
      "breath": 1582,
      "cially": 1583,
      "wait": 1584,
      "friends": 1585,
      "entire": 1586,
      "hours": 1587,
      "liter": 1588,
      "success": 1589,
      "different": 1590,
      "danger": 1591,
      "Samsa": 1592,
      "Berlin": 1593,
      "BER": 1594,
      "MBER": 1595,
      "catch": 1596,
      "five": 1597,
      "hall": 1598,
      "rit": 1599,
      "swe": 1600,
      "tt": 1601,
      "trem": 1602,
      "warm": 1603,
      "yed": 1604,
      "tory": 1605,
      "itch": 1606,
      "vel": 1607,
      "key": 1608,
      "usion": 1609,
      "seless": 1610,
      "aper": 1611,
      "tions": 1612,
      "idea": 1613,
      "spite": 1614,
      "wood": 1615,
      "empt": 1616,
      "Some": 1617,
      "content": 1618,
      "calm": 1619,
      "difficult": 1620,
      "journey": 1621,
      "CHA": 1622,
      "Every": 1623,
      "Mr": 1624,
      "Sch": 1625,
      "Un": 1626,
      "Warden": 1627,
      "grow": 1628,
      "hat": 1629,
      "plo": 1630,
      "ying": 1631,
      "thes": 1632,
      "onto": 1633,
      "beast": 1634,
      "suit": 1635,
      "neck": 1636,
      "train": 1637,
      "opposite": 1638,
      "sive": 1639,
      "obv": 1640,
      "opened": 1641,
      "happy": 1642,
      "ungen": 1643,
      "passed": 1644,
      "former": 1645,
      "admit": 1646,
      "drew": 1647,
      "versation": 1648,
      "finger": 1649,
      "existence": 1650,
      "building": 1651,
      "change": 1652,
      "LAIN": 1653,
      "MBERLAIN": 1654,
      "empty": 1655,
      "CHAMBERLAIN": 1656,
      "18": 1657,
      "Ar": 1658,
      "Harrow": 1659,
      "Prag": 1660,
      "cage": 1661,
      "fine": 1662,
      "ia": 1663,
      "laid": 1664,
      "task": 1665,
      "wish": 1666,
      "ison": 1667,
      "heart": 1668,
      "sec": 1669,
      "sem": 1670,
      "chest": 1671,
      "idence": 1672,
      "liar": 1673,
      "across": 1674,
      "account": 1675,
      "ames": 1676,
      "respect": 1677,
      "worth": 1678,
      "193": 1679,
      "scar": 1680,
      "ign": 1681,
      "says": 1682,
      "saying": 1683,
      "aware": 1684,
      "bring": 1685,
      "needed": 1686,
      "effort": 1687,
      "viol": 1688,
      "suffer": 1689,
      "except": 1690,
      "trouble": 1691,
      "important": 1692,
      "True": 1693,
      "acquaintance": 1694,
      "execu": 1695,
      "\";": 1696,
      "Bau": 1697,
      "avo": 1698,
      "ded": 1699,
      "gers": 1700,
      "hang": 1701,
      "kno": 1702,
      "lim": 1703,
      "law": 1704,
      "ome": 1705,
      "pam": 1706,
      "rac": 1707,
      "sch": 1708,
      "ude": 1709,
      "incl": 1710,
      "ank": 1711,
      "ities": 1712,
      "stri": 1713,
      "stick": 1714,
      "notice": 1715,
      "entrance": 1716,
      "neither": 1717,
      "fee": 1718,
      "love": 1719,
      "exact": 1720,
      "ards": 1721,
      "raid": 1722,
      "possess": 1723,
      "ured": 1724,
      "clim": 1725,
      "finally": 1726,
      "keeping": 1727,
      "running": 1728,
      "piping": 1729,
      "uggle": 1730,
      "drawn": 1731,
      "suffic": 1732,
      "quietly": 1733,
      "circ": 1734,
      "parents": 1735,
      "charwoman": 1736,
      "general": 1737,
      "apparently": 1738,
      "):": 1739,
      "Fe": 1740,
      "From": 1741,
      "hum": 1742,
      "hors": 1743,
      "song": 1744,
      "intention": 1745,
      "ery": 1746,
      "nod": 1747,
      "hair": 1748,
      "whis": 1749,
      "wild": 1750,
      "allowed": 1751,
      "river": 1752,
      "foot": 1753,
      "afraid": 1754,
      "rank": 1755,
      "six": 1756,
      "possib": 1757,
      "stopped": 1758,
      "prevent": 1759,
      "glad": 1760,
      "passages": 1761,
      "corner": 1762,
      "thoughts": 1763,
      "understanding": 1764,
      "women": 1765,
      "takes": 1766,
      "besides": 1767,
      "further": 1768,
      "refle": 1769,
      "pushed": 1770,
      "succeed": 1771,
      "gentleman": 1772,
      "direction": 1773,
      "achieve": 1774,
      "lifted": 1775,
      "Prague": 1776,
      "horses": 1777,
      "Af": 1778,
      "Bo": 1779,
      "Col": 1780,
      "Don": 1781,
      "bar": 1782,
      "cried": 1783,
      "dro": 1784,
      "ek": 1785,
      "shad": 1786,
      "ats": 1787,
      "iss": 1788,
      "isch": 1789,
      "espe": 1790,
      "aries": 1791,
      "meth": 1792,
      "uty": 1793,
      "lies": 1794,
      "doc": 1795,
      "def": 1796,
      "deal": 1797,
      "trans": 1798,
      "couldn": 1799,
      "somewhat": 1800,
      "ield": 1801,
      "black": 1802,
      "ively": 1803,
      "rooms": 1804,
      "greater": 1805,
      "turning": 1806,
      "flu": 1807,
      "parat": 1808,
      "cial": 1809,
      "walked": 1810,
      "pipe": 1811,
      "talking": 1812,
      "wheel": 1813,
      "filled": 1814,
      "natural": 1815,
      "piece": 1816,
      "forgotten": 1817,
      "large": 1818,
      "blood": 1819,
      "execution": 1820,
      "Par": 1821,
      "St": 1822,
      "Str": 1823,
      "fat": 1824,
      "hy": 1825,
      "path": 1826,
      "ror": 1827,
      "rup": 1828,
      "sn": 1829,
      "vic": 1830,
      "wise": 1831,
      "enjoy": 1832,
      "asleep": 1833,
      "heav": 1834,
      "search": 1835,
      "forget": 1836,
      "motion": 1837,
      "ically": 1838,
      "dead": 1839,
      "ific": 1840,
      "coll": 1841,
      "perfor": 1842,
      "command": 1843,
      "prote": 1844,
      "ends": 1845,
      "These": 1846,
      "cloud": 1847,
      "vesti": 1848,
      "caught": 1849,
      "smile": 1850,
      "desp": 1851,
      "phlet": 1852,
      "single": 1853,
      "clock": 1854,
      "break": 1855,
      "finite": 1856,
      "satis": 1857,
      "talk": 1858,
      "followed": 1859,
      "usually": 1860,
      "playing": 1861,
      "difficul": 1862,
      "continu": 1863,
      "teacher": 1864,
      "occasion": 1865,
      "machine": 1866,
      "pamphlet": 1867,
      "After": 1868,
      "especially": 1869,
      "method": 1870,
      ",”": 1871,
      "Ac": 1872,
      "Go": 1873,
      "Great": 1874,
      "det": 1875,
      "hast": 1876,
      "pay": 1877,
      "pho": 1878,
      "zing": 1879,
      "thous": 1880,
      "ert": 1881,
      "ons": 1882,
      "ches": 1883,
      "rose": 1884,
      "white": 1885,
      "ties": 1886,
      "youth": 1887,
      "moon": 1888,
      "tract": 1889,
      "rail": 1890,
      "cked": 1891,
      "lessly": 1892,
      "flat": 1893,
      "nevertheless": 1894,
      "walking": 1895,
      "lower": 1896,
      "expect": 1897,
      "gentlemen": 1898,
      "strange": 1899,
      "leaning": 1900,
      "horse": 1901,
      "fortunately": 1902,
      "whisper": 1903,
      "thousand": 1904,
      "14": 1905,
      "De": 1906,
      "Die": 1907,
      "Hun": 1908,
      "crow": 1909,
      "city": 1910,
      "dare": 1911,
      "fi": 1912,
      "gone": 1913,
      "gave": 1914,
      "harm": 1915,
      "ien": 1916,
      "ior": 1917,
      "ich": 1918,
      "pit": 1919,
      "sin": 1920,
      "sun": 1921,
      "ye": 1922,
      "yes": 1923,
      "thus": 1924,
      "ina": 1925,
      "inqu": 1926,
      "rete": 1927,
      "resol": 1928,
      "ense": 1929,
      "edition": 1930,
      "ching": 1931,
      "roll": 1932,
      "force": 1933,
      "iment": 1934,
      "within": 1935,
      "conversation": 1936,
      "comprehen": 1937,
      "plan": 1938,
      "working": 1939,
      "ause": 1940,
      "pread": 1941,
      "early": 1942,
      "burst": 1943,
      "closed": 1944,
      "clothes": 1945,
      "clean": 1946,
      "finished": 1947,
      "mention": 1948,
      "carefully": 1949,
      "clearly": 1950,
      "achieved": 1951,
      "advant": 1952,
      "creature": 1953,
      "changed": 1954,
      ".)": 1955,
      "Iam": 1956,
      "Wall": 1957,
      "ather": 1958,
      "bound": 1959,
      "cking": 1960,
      "duty": 1961,
      "four": 1962,
      "fanc": 1963,
      "gment": 1964,
      "iv": 1965,
      "lack": 1966,
      "wound": 1967,
      "erman": 1968,
      "ingu": 1969,
      "assu": 1970,
      "arran": 1971,
      "sequ": 1972,
      "bel": 1973,
      "cely": 1974,
      "unity": 1975,
      "ables": 1976,
      "kets": 1977,
      "keeper": 1978,
      "conne": 1979,
      "plac": 1980,
      "produ": 1981,
      "ishing": 1982,
      "elf": 1983,
      "preci": 1984,
      "grap": 1985,
      "farther": 1986,
      "emplo": 1987,
      "anced": 1988,
      "writing": 1989,
      "attack": 1990,
      "occup": 1991,
      "simple": 1992,
      "particularly": 1993,
      "middle": 1994,
      "carriage": 1995,
      "obviously": 1996,
      "vestig": 1997,
      "Hunter": 1998,
      "23": 1999,
      "Here": 2000,
      "Pe": 2001,
      "Pen": 2002,
      "bly": 2003,
      "cry": 2004,
      "ding": 2005,
      "eat": 2006,
      "ele": 2007,
      "pat": 2008,
      "por": 2009,
      "thir": 2010,
      "met": 2011,
      "whist": 2012,
      "action": 2013,
      "log": 2014,
      "concl": 2015,
      "constru": 2016,
      "amor": 2017,
      "demand": 2018,
      "trust": 2019,
      "ists": 2020,
      "ressed": 2021,
      "tears": 2022,
      "raised": 2023,
      "pping": 2024,
      "bles": 2025,
      "regular": 2026,
      "claim": 2027,
      "remained": 2028,
      "reached": 2029,
      "darkness": 2030,
      "pleasant": 2031,
      "oneself": 2032,
      "trape": 2033,
      "cription": 2034,
      "Besides": 2035,
      "approach": 2036,
      "ceived": 2037,
      "brief": 2038,
      "Erz": 2039,
      "entirely": 2040,
      "secret": 2041,
      "scarcely": 2042,
      "10": 2043,
      "13": 2044,
      "Even": 2045,
      "Mo": 2046,
      "ape": 2047,
      "bow": 2048,
      "da": 2049,
      "fight": 2050,
      "ses": 2051,
      "sli": 2052,
      "spread": 2053,
      "ues": 2054,
      "vor": 2055,
      "arily": 2056,
      "ste": 2057,
      "meant": 2058,
      "memor": 2059,
      "tight": 2060,
      "wife": 2061,
      "agree": 2062,
      "abs": 2063,
      "fellow": 2064,
      "wel": 2065,
      "shop": 2066,
      "apparat": 2067,
      "ilt": 2068,
      "ctly": 2069,
      "audi": 2070,
      "whenever": 2071,
      "heads": 2072,
      "turns": 2073,
      "prin": 2074,
      "glance": 2075,
      "ighbor": 2076,
      "thinks": 2077,
      "wrong": 2078,
      "quired": 2079,
      "giving": 2080,
      "guard": 2081,
      "invol": 2082,
      "compan": 2083,
      "quarter": 2084,
      "various": 2085,
      "result": 2086,
      "sofa": 2087,
      "contrary": 2088,
      "explanation": 2089,
      "exactly": 2090,
      "Colony": 2091,
      "doctor": 2092,
      "performan": 2093,
      "inquir": 2094,
      "Penal": 2095,
      "apparatus": 2096,
      "..": 2097,
      "En": 2098,
      "aven": 2099,
      "cy": 2100,
      "craw": 2101,
      "ctive": 2102,
      "dr": 2103,
      "fig": 2104,
      "hes": 2105,
      "mal": 2106,
      "ni": 2107,
      "sw": 2108,
      "anx": 2109,
      "rew": 2110,
      "repe": 2111,
      "isn": 2112,
      "edom": 2113,
      "stead": 2114,
      "chance": 2115,
      "cept": 2116,
      "enter": 2117,
      "note": 2118,
      "abl": 2119,
      "moved": 2120,
      "ety": 2121,
      "depart": 2122,
      "---": 2123,
      "covery": 2124,
      "indic": 2125,
      "perfect": 2126,
      "therefore": 2127,
      "rau": 2128,
      "hood": 2129,
      "grant": 2130,
      "actual": 2131,
      "discover": 2132,
      "discovery": 2133,
      "ounce": 2134,
      "doors": 2135,
      "please": 2136,
      "div": 2137,
      "wants": 2138,
      "explain": 2139,
      "passing": 2140,
      "ference": 2141,
      "realized": 2142,
      "gives": 2143,
      "remains": 2144,
      "visible": 2145,
      "listening": 2146,
      "movements": 2147,
      "custom": 2148,
      "China": 2149,
      "knees": 2150,
      "suppor": 2151,
      "grave": 2152,
      "respon": 2153,
      "breathe": 2154,
      "pointed": 2155,
      "literally": 2156,
      "trembling": 2157,
      "avoid": 2158,
      "circum": 2159,
      ".’": 2160,
      "17": 2161,
      "EWARD": 2162,
      "Emper": 2163,
      "Grac": 2164,
      "Me": 2165,
      "Man": 2166,
      "Nor": 2167,
      "Qu": 2168,
      "Stern": 2169,
      "cul": 2170,
      "cast": 2171,
      "cise": 2172,
      "ee": 2173,
      "hop": 2174,
      "job": 2175,
      "ls": 2176,
      "lungen": 2177,
      "mone": 2178,
      "mess": 2179,
      "mist": 2180,
      "pan": 2181,
      "sir": 2182,
      "ttom": 2183,
      "inno": 2184,
      "inside": 2185,
      "leap": 2186,
      "meas": 2187,
      "mell": 2188,
      "chus": 2189,
      "belong": 2190,
      "haust": 2191,
      "soil": 2192,
      "moss": 2193,
      "amb": 2194,
      "extra": 2195,
      "exhaust": 2196,
      "race": 2197,
      "proper": 2198,
      "seeing": 2199,
      "fail": 2200,
      "establ": 2201,
      "earli": 2202,
      "obser": 2203,
      "newsp": 2204,
      "distingu": 2205,
      "passage": 2206,
      "voc": 2207,
      "reality": 2208,
      "effect": 2209,
      "waiting": 2210,
      "curi": 2211,
      "month": 2212,
      "wonder": 2213,
      "ladies": 2214,
      "assistants": 2215,
      "freedom": 2216,
      "Description": 2217,
      "concerned": 2218,
      "honor": 2219,
      "disturb": 2220,
      "STEWARD": 2221,
      "difficulty": 2222,
      "amorpho": 2223,
      "circumst": 2224,
      "Emperor": 2225,
      "Gracchus": 2226,
      "money": 2227,
      "12": 2228,
      "Coun": 2229,
      "God": 2230,
      "bare": 2231,
      "cas": 2232,
      "dig": 2233,
      "drin": 2234,
      "furn": 2235,
      "faint": 2236,
      "hous": 2237,
      "hund": 2238,
      "ik": 2239,
      "iently": 2240,
      "lan": 2241,
      "ost": 2242,
      "pave": 2243,
      "rise": 2244,
      "tw": 2245,
      "ys": 2246,
      "thor": 2247,
      "influ": 2248,
      "anno": 2249,
      "rec": 2250,
      "rees": 2251,
      "height": 2252,
      "stu": 2253,
      "bell": 2254,
      "velo": 2255,
      "impression": 2256,
      "lice": 2257,
      "lose": 2258,
      "delight": 2259,
      "save": 2260,
      "safe": 2261,
      "ants": 2262,
      "prove": 2263,
      "favor": 2264,
      "moreover": 2265,
      "prep": 2266,
      "aked": 2267,
      "grad": 2268,
      "reading": 2269,
      "doorkeeper": 2270,
      "igner": 2271,
      "Kafkas": 2272,
      "press": 2273,
      "pray": 2274,
      "died": 2275,
      "looks": 2276,
      "speaking": 2277,
      "childish": 2278,
      "following": 2279,
      "watched": 2280,
      "capable": 2281,
      "appearance": 2282,
      "spot": 2283,
      "grew": 2284,
      "powers": 2285,
      "object": 2286,
      "destro": 2287,
      "prompt": 2288,
      "heavy": 2289,
      "trapeze": 2290,
      "hundred": 2291,
      "15": 2292,
      "22": 2293,
      "Amer": 2294,
      "Bur": 2295,
      "Grete": 2296,
      "German": 2297,
      "James": 2298,
      "Let": 2299,
      "OR": 2300,
      "Pr": 2301,
      "Since": 2302,
      "TH": 2303,
      "Tan": 2304,
      "gust": 2305,
      "ker": 2306,
      "none": 2307,
      "os": 2308,
      "smell": 2309,
      "wand": 2310,
      "thro": 2311,
      "throw": 2312,
      "investig": 2313,
      "relie": 2314,
      "enor": 2315,
      "assem": 2316,
      "orig": 2317,
      "iter": 2318,
      "itude": 2319,
      "station": 2320,
      "seven": 2321,
      "separ": 2322,
      "habit": 2323,
      "ceive": 2324,
      "forced": 2325,
      "rif": 2326,
      "neighbor": 2327,
      "consc": 2328,
      "consequ": 2329,
      "ament": 2330,
      "agement": 2331,
      "que": 2332,
      "wouldn": 2333,
      "raise": 2334,
      "ishment": 2335,
      "everywhere": 2336,
      "ears": 2337,
      "spic": 2338,
      "spring": 2339,
      "Where": 2340,
      "prac": 2341,
      "observ": 2342,
      "interrup": 2343,
      "contro": 2344,
      "Frank": 2345,
      "happens": 2346,
      "matters": 2347,
      "insist": 2348,
      "stranger": 2349,
      "drive": 2350,
      "lady": 2351,
      "animal": 2352,
      "supposed": 2353,
      "hurry": 2354,
      "scription": 2355,
      "Diaries": 2356,
      "hanging": 2357,
      "Struggle": 2358,
      "advantage": 2359,
      "performance": 2360,
      "amorphosis": 2361,
      "pavement": 2362,
      "Tania": 2363,
      "43": 2364,
      "Her": 2365,
      "Kamp": 2366,
      "Met": 2367,
      "Re": 2368,
      "Sto": 2369,
      "aver": 2370,
      "cro": 2371,
      "die": 2372,
      "fro": 2373,
      "fash": 2374,
      "gate": 2375,
      "gest": 2376,
      "ienti": 2377,
      "kes": 2378,
      "mil": 2379,
      "oh": 2380,
      "plic": 2381,
      "rust": 2382,
      "rate": 2383,
      "uary": 2384,
      "thick": 2385,
      "thrown": 2386,
      "remo": 2387,
      "repro": 2388,
      "ator": 2389,
      "ene": 2390,
      "ari": 2391,
      "below": 2392,
      "iding": 2393,
      "wasn": 2394,
      "adition": 2395,
      "accept": 2396,
      "tered": 2397,
      "ares": 2398,
      "develo": 2399,
      "antly": 2400,
      "190": 2401,
      "tains": 2402,
      "thrust": 2403,
      "struck": 2404,
      "prison": 2405,
      "wards": 2406,
      "news": 2407,
      "distant": 2408,
      "pulled": 2409,
      "surround": 2410,
      "begins": 2411,
      "guest": 2412,
      "nearer": 2413,
      "circle": 2414,
      "pleased": 2415,
      "charac": 2416,
      "extreme": 2417,
      "experiment": 2418,
      "situ": 2419,
      "firmly": 2420,
      "slightest": 2421,
      "Although": 2422,
      "complain": 2423,
      "vanished": 2424,
      "daily": 2425,
      "houses": 2426,
      "gradually": 2427,
      "origin": 2428,
      "Kampf": 2429,
      "reproach": 2430,
      "Bu": 2431,
      "Bet": 2432,
      "Der": 2433,
      "Li": 2434,
      "Ne": 2435,
      "Tri": 2436,
      "Two": 2437,
      "Was": 2438,
      "eager": 2439,
      "fut": 2440,
      "har": 2441,
      "ired": 2442,
      "leng": 2443,
      "laws": 2444,
      "ution": 2445,
      "oned": 2446,
      "reib": 2447,
      "ens": 2448,
      "ences": 2449,
      "edge": 2450,
      "chreib": 2451,
      "tip": 2452,
      "formed": 2453,
      "agger": 2454,
      "lied": 2455,
      "ric": 2456,
      "urt": 2457,
      "dep": 2458,
      "dear": 2459,
      "deli": 2460,
      "deeper": 2461,
      "expression": 2462,
      "shar": 2463,
      "tran": 2464,
      "tray": 2465,
      "appreci": 2466,
      "indif": 2467,
      "somehow": 2468,
      "proved": 2469,
      "otherwise": 2470,
      "hole": 2471,
      "forehead": 2472,
      "boat": 2473,
      "spir": 2474,
      "spare": 2475,
      "space": 2476,
      "discovered": 2477,
      "strain": 2478,
      "stream": 2479,
      "shoulder": 2480,
      "fling": 2481,
      "fles": 2482,
      "obst": 2483,
      "burden": 2484,
      "brid": 2485,
      "angu": 2486,
      "bodies": 2487,
      "feels": 2488,
      "deny": 2489,
      "quire": 2490,
      "senseless": 2491,
      "confess": 2492,
      "surely": 2493,
      "furt": 2494,
      "considered": 2495,
      "ject": 2496,
      "started": 2497,
      "difference": 2498,
      "greet": 2499,
      "experience": 2500,
      "fingers": 2501,
      "signific": 2502,
      "broken": 2503,
      "purpose": 2504,
      "Beschreib": 2505,
      "Designer": 2506,
      "surprised": 2507,
      "deeply": 2508,
      "schoolmaster": 2509,
      "lodgers": 2510,
      "mountains": 2511,
      "caused": 2512,
      "defense": 2513,
      "Erzah": 2514,
      "earlier": 2515,
      "circumstances": 2516,
      "Country": 2517,
      "Prince": 2518,
      "enorm": 2519,
      "Frankfurt": 2520,
      "fashion": 2521,
      "Kampfes": 2522,
      "future": 2523,
      "Beschreibung": 2524,
      ",’": 2525,
      ".”": 2526,
      "50": 2527,
      "Ex": 2528,
      "Ges": 2529,
      "Ind": 2530,
      "Jud": 2531,
      "Your": 2532,
      "ban": 2533,
      "bas": 2534,
      "bal": 2535,
      "dict": 2536,
      "eks": 2537,
      "fun": 2538,
      "gar": 2539,
      "gain": 2540,
      "jack": 2541,
      "jaws": 2542,
      "ma": 2543,
      "ming": 2544,
      "ns": 2545,
      "port": 2546,
      "pict": 2547,
      "sou": 2548,
      "sac": 2549,
      "test": 2550,
      "uc": 2551,
      "wro": 2552,
      "threat": 2553,
      "iny": 2554,
      "inform": 2555,
      "ering": 2556,
      "ream": 2557,
      "ening": 2558,
      "ising": 2559,
      "ital": 2560,
      "alth": 2561,
      "seat": 2562,
      "chain": 2563,
      "haven": 2564,
      "owing": 2565,
      "notes": 2566,
      "wear": 2567,
      "exam": 2568,
      "upright": 2569,
      "trous": 2570,
      "tradition": 2571,
      "cool": 2572,
      "ourselves": 2573,
      "sake": 2574,
      "pers": 2575,
      "common": 2576,
      "resist": 2577,
      "pless": 2578,
      "proof": 2579,
      "bott": 2580,
      "scienti": 2581,
      "discus": 2582,
      "disgust": 2583,
      "presence": 2584,
      "shoulders": 2585,
      "opening": 2586,
      "seriously": 2587,
      "impat": 2588,
      "interpret": 2589,
      "needs": 2590,
      "appears": 2591,
      "uded": 2592,
      "party": 2593,
      "friendly": 2594,
      "listened": 2595,
      "Once": 2596,
      "windows": 2597,
      "occur": 2598,
      "increas": 2599,
      "fami": 2600,
      "vior": 2601,
      "streets": 2602,
      "company": 2603,
      "labors": 2604,
      "jump": 2605,
      "1946": 2606,
      "creatures": 2607,
      "rub": 2608,
      "leading": 2609,
      "respond": 2610,
      "arrived": 2611,
      "volu": 2612,
      "touch": 2613,
      "decision": 2614,
      "decisive": 2615,
      "breathing": 2616,
      "square": 2617,
      "sweep": 2618,
      "violin": 2619,
      "Book": 2620,
      "satisf": 2621,
      "detail": 2622,
      "crowd": 2623,
      "connection": 2624,
      "whistling": 2625,
      "newspaper": 2626,
      "prepared": 2627,
      "promptly": 2628,
      "control": 2629,
      "Metamorphosis": 2630,
      "character": 2631,
      "enormous": 2632,
      "wrote": 2633,
      "scientific": 2634,
      "20": 2635,
      "24": 2636,
      "26": 2637,
      "Am": 2638,
      "Bed": 2639,
      "Come": 2640,
      "Hung": 2641,
      "Kurt": 2642,
      "Many": 2643,
      "ON": 2644,
      "Our": 2645,
      "Up": 2646,
      "burn": 2647,
      "bush": 2648,
      "broad": 2649,
      "ckets": 2650,
      "drag": 2651,
      "eines": 2652,
      "fly": 2653,
      "ges": 2654,
      "lamp": 2655,
      "mass": 2656,
      "uous": 2657,
      "war": 2658,
      "xed": 2659,
      "ern": 2660,
      "ouder": 2661,
      "ener": 2662,
      "ism": 2663,
      "stif": 2664,
      "tily": 2665,
      "une": 2666,
      "unexpected": 2667,
      "mole": 2668,
      "moving": 2669,
      "lot": 2670,
      "butt": 2671,
      "essenti": 2672,
      "deter": 2673,
      "-----": 2674,
      "exc": 2675,
      "apping": 2676,
      "pocket": 2677,
      "faith": 2678,
      "cks": 2679,
      "197": 2680,
      "blem": 2681,
      "sigh": 2682,
      "everybody": 2683,
      "gry": 2684,
      "board": 2685,
      "fled": 2686,
      "deser": 2687,
      "remind": 2688,
      "helpless": 2689,
      "smaller": 2690,
      "final": 2691,
      "keeps": 2692,
      "official": 2693,
      "hearing": 2694,
      "gabe": 2695,
      "gazed": 2696,
      "admitted": 2697,
      "believed": 2698,
      "decided": 2699,
      "movement": 2700,
      "stayed": 2701,
      "born": 2702,
      "stretch": 2703,
      "exception": 2704,
      "naturally": 2705,
      "according": 2706,
      "sym": 2707,
      "touched": 2708,
      "bene": 2709,
      "leaving": 2710,
      "recognize": 2711,
      "profess": 2712,
      "wooden": 2713,
      "Sometimes": 2714,
      "succeeded": 2715,
      "comprehensible": 2716,
      "memory": 2717,
      "situation": 2718,
      "length": 2719,
      "familiar": 2720,
      ".'": 2721,
      "53": 2722,
      "Fried": 2723,
      "Have": 2724,
      "Ju": 2725,
      "Mar": 2726,
      "Ottom": 2727,
      "Who": 2728,
      "Wol": 2729,
      "broom": 2730,
      "dom": 2731,
      "fright": 2732,
      "itor": 2733,
      "jac": 2734,
      "luck": 2735,
      "louder": 2736,
      "mit": 2737,
      "mag": 2738,
      "nal": 2739,
      "rug": 2740,
      "sle": 2741,
      "tit": 2742,
      "vac": 2743,
      "threw": 2744,
      "inner": 2745,
      "ena": 2746,
      "ises": 2747,
      "issu": 2748,
      "tomor": 2749,
      "edited": 2750,
      "iture": 2751,
      "stro": 2752,
      "seized": 2753,
      "chur": 2754,
      "beha": 2755,
      "robe": 2756,
      "forth": 2757,
      "uncertain": 2758,
      "access": 2759,
      "rig": 2760,
      "pecu": 2761,
      "loose": 2762,
      "etr": 2763,
      "conv": 2764,
      "ices": 2765,
      "plans": 2766,
      "somewhere": 2767,
      "failed": 2768,
      "host": 2769,
      "knowing": 2770,
      "precise": 2771,
      "desk": 2772,
      "serve": 2773,
      "distin": 2774,
      "explained": 2775,
      "ushed": 2776,
      "pull": 2777,
      "breast": 2778,
      "sides": 2779,
      "cuse": 2780,
      "incap": 2781,
      "incident": 2782,
      "shame": 2783,
      "calcul": 2784,
      "girls": 2785,
      "Because": 2786,
      "cheek": 2787,
      "Any": 2788,
      "leaned": 2789,
      "sibility": 2790,
      "risk": 2791,
      "dreams": 2792,
      "surprise": 2793,
      "leaves": 2794,
      "number": 2795,
      "growing": 2796,
      "shadow": 2797,
      "ischen": 2798,
      "clouds": 2799,
      "despite": 2800,
      "construction": 2801,
      "extraordinary": 2802,
      "furniture": 2803,
      "prisoner": 2804,
      "Trial": 2805,
      "sharp": 2806,
      "flesh": 2807,
      "anguage": 2808,
      "Erzahlungen": 2809,
      "bottle": 2810,
      "Books": 2811,
      "beneath": 2812,
      "Ottomar": 2813,
      "Wolff": 2814,
      "tomorrow": 2815,
      "peculiar": 2816,
      "16": 2817,
      "28": 2818,
      "48": 2819,
      "Frau": 2820,
      "Had": 2821,
      "Jan": 2822,
      "Jew": 2823,
      "KA": 2824,
      "Lon": 2825,
      "Law": 2826,
      "Sep": 2827,
      "].": 2828,
      "cto": 2829,
      "cred": 2830,
      "dress": 2831,
      "fli": 2832,
      "iety": 2833,
      "kitch": 2834,
      "line": 2835,
      "mad": 2836,
      "mur": 2837,
      "ograp": 2838,
      "pack": 2839,
      "sal": 2840,
      "sad": 2841,
      "sway": 2842,
      "sits": 2843,
      "zig": 2844,
      "ination": 2845,
      "erous": 2846,
      "attract": 2847,
      "istic": 2848,
      "tower": 2849,
      "alter": 2850,
      "altogether": 2851,
      "stage": 2852,
      "stud": 2853,
      "became": 2854,
      "version": 2855,
      "ghost": 2856,
      "idual": 2857,
      "sob": 2858,
      "iron": 2859,
      "unt": 2860,
      "unfortunately": 2861,
      "unpleasant": 2862,
      "liked": 2863,
      "aced": 2864,
      "achel": 2865,
      "rie": 2866,
      "const": 2867,
      "definite": 2868,
      "whip": 2869,
      "exagger": 2870,
      "tram": 2871,
      "cost": 2872,
      "ours": 2873,
      "pockets": 2874,
      "indiv": 2875,
      "manner": 2876,
      "hers": 2877,
      "ulous": 2878,
      "ilar": 2879,
      "fool": 2880,
      "ressing": 2881,
      "thered": 2882,
      "proced": 2883,
      "endure": 2884,
      "Thus": 2885,
      "offered": 2886,
      "blind": 2887,
      "grou": 2888,
      "doorway": 2889,
      "While": 2890,
      "letter": 2891,
      "justice": 2892,
      "dies": 2893,
      "wardrobe": 2894,
      "gling": 2895,
      "berg": 2896,
      "works": 2897,
      "special": 2898,
      "Nove": 2899,
      "torn": 2900,
      "runk": 2901,
      "bucket": 2902,
      "gazing": 2903,
      "tember": 2904,
      "service": 2905,
      "belief": 2906,
      "attend": 2907,
      "visit": 2908,
      "sleeping": 2909,
      "reasons": 2910,
      "shows": 2911,
      "showed": 2912,
      "pushing": 2913,
      "Before": 2914,
      "jumping": 2915,
      "troubled": 2916,
      "continue": 2917,
      "slightly": 2918,
      "fresh": 2919,
      "uniform": 2920,
      "subject": 2921,
      "animals": 2922,
      "pieces": 2923,
      "sorry": 2924,
      "profound": 2925,
      "remarkable": 2926,
      "feeble": 2927,
      "sufficient": 2928,
      "possibly": 2929,
      "breakfast": 2930,
      "methods": 2931,
      "fixed": 2932,
      "fancy": 2933,
      "third": 2934,
      "hesit": 2935,
      "granted": 2936,
      "throat": 2937,
      "conscious": 2938,
      "bridge": 2939,
      "picture": 2940,
      "information": 2941,
      "volume": 2942,
      "church": 2943,
      "behavior": 2944,
      "London": 2945,
      "September": 2946,
      "kitchen": 2947,
      "individual": 2948,
      "procedure": 2949,
      "25": 2950,
      "27": 2951,
      "29": 2952,
      "47": 2953,
      "49": 2954,
      "By": 2955,
      "Du": 2956,
      "Dor": 2957,
      "ED": 2958,
      "Ein": 2959,
      "Father": 2960,
      "IT": 2961,
      "Mil": 2962,
      "Mau": 2963,
      "Pre": 2964,
      "Se": 2965,
      "Still": 2966,
      "XX": 2967,
      "band": 2968,
      "bright": 2969,
      "bars": 2970,
      "bending": 2971,
      "cross": 2972,
      "field": 2973,
      "garden": 2974,
      "hill": 2975,
      "ian": 2976,
      "kni": 2977,
      "latter": 2978,
      "olog": 2979,
      "rad": 2980,
      "snow": 2981,
      "sick": 2982,
      "twi": 2983,
      "tail": 2984,
      "uch": 2985,
      "vain": 2986,
      "wine": 2987,
      "wret": 2988,
      "yrin": 2989,
      "ink": 2990,
      "inn": 2991,
      "incomprehensible": 2992,
      "resh": 2993,
      "received": 2994,
      "ster": 2995,
      "sees": 2996,
      "meal": 2997,
      "beard": 2998,
      "verdict": 2999,
      "aded": 3000,
      "unknown": 3001,
      "lift": 3002,
      "onel": 3003,
      "terri": 3004,
      "suspic": 3005,
      "negle": 3006,
      "ets": 3007,
      "devo": 3008,
      "delic": 3009,
      "shirt": 3010,
      "apped": 3011,
      "apprehen": 3012,
      "manage": 3013,
      "aston": 3014,
      "fold": 3015,
      "tel": 3016,
      "worse": 3017,
      "worry": 3018,
      "prog": 3019,
      "sheer": 3020,
      "rang": 3021,
      "rows": 3022,
      "els": 3023,
      "overcoat": 3024,
      "stores": 3025,
      "prefer": 3026,
      "grand": 3027,
      "spend": 3028,
      "ounced": 3029,
      "igno": 3030,
      "pressing": 3031,
      "letters": 3032,
      "ademy": 3033,
      "shouldn": 3034,
      "flung": 3035,
      "glances": 3036,
      "serious": 3037,
      "speed": 3038,
      "corrid": 3039,
      "correspond": 3040,
      "clever": 3041,
      "izes": 3042,
      "putting": 3043,
      "frag": 3044,
      "torment": 3045,
      "gather": 3046,
      "covering": 3047,
      "drawing": 3048,
      "colony": 3049,
      "colonel": 3050,
      "attitude": 3051,
      "confused": 3052,
      "confidence": 3053,
      "fallen": 3054,
      "falling": 3055,
      "watching": 3056,
      "refus": 3057,
      "1951": 3058,
      "custo": 3059,
      "pleasure": 3060,
      "ipzig": 3061,
      "meaning": 3062,
      "sentence": 3063,
      "collection": 3064,
      "knee": 3065,
      "locked": 3066,
      "rising": 3067,
      "grace": 3068,
      "shouted": 3069,
      "books": 3070,
      "travel": 3071,
      "Leipzig": 3072,
      "regarded": 3073,
      "judgment": 3074,
      "loudly": 3075,
      "smoke": 3076,
      "inclined": 3077,
      "Felice": 3078,
      "nodded": 3079,
      "wheels": 3080,
      "Paris": 3081,
      "motionless": 3082,
      "Good": 3083,
      "mentioned": 3084,
      "absence": 3085,
      "welcome": 3086,
      "inquiries": 3087,
      "figure": 3088,
      "responsibility": 3089,
      "distinguish": 3090,
      "ika": 3091,
      "recently": 3092,
      "Amerika": 3093,
      "relief": 3094,
      "significant": 3095,
      "trousers": 3096,
      "determin": 3097,
      "achelor": 3098,
      "Duke": 3099,
      "knife": 3100,
      "wretched": 3101,
      "yrinth": 3102,
      ".:": 3103,
      "33": 3104,
      "40": 3105,
      "46": 3106,
      "AN": 3107,
      "Can": 3108,
      "Das": 3109,
      "Fisch": 3110,
      "High": 3111,
      "Muni": 3112,
      "Pu": 3113,
      "brown": 3114,
      "cand": 3115,
      "dust": 3116,
      "dish": 3117,
      "ease": 3118,
      "fain": 3119,
      "fry": 3120,
      "gall": 3121,
      "gown": 3122,
      "gig": 3123,
      "hit": 3124,
      "hither": 3125,
      "iers": 3126,
      "kis": 3127,
      "la": 3128,
      "mn": 3129,
      "naked": 3130,
      "pes": 3131,
      "pure": 3132,
      "patter": 3133,
      "paper": 3134,
      "rough": 3135,
      "ssed": 3136,
      "tall": 3137,
      "useless": 3138,
      "utions": 3139,
      "von": 3140,
      "vast": 3141,
      "intell": 3142,
      "infinite": 3143,
      "erable": 3144,
      "rend": 3145,
      "required": 3146,
      "ature": 3147,
      "encour": 3148,
      "enem": 3149,
      "edding": 3150,
      "health": 3151,
      "stup": 3152,
      "stuck": 3153,
      "noble": 3154,
      "betray": 3155,
      "rope": 3156,
      "ceas": 3157,
      "ception": 3158,
      "imper": 3159,
      "ague": 3160,
      "ays": 3161,
      "advoc": 3162,
      "absol": 3163,
      "sug": 3164,
      "outstretched": 3165,
      "hadn": 3166,
      "fet": 3167,
      "amoun": 3168,
      "weight": 3169,
      "exer": 3170,
      "qual": 3171,
      "quest": 3172,
      "upper": 3173,
      "app": 3174,
      "ples": 3175,
      "plain": 3176,
      "hastily": 3177,
      "stor": 3178,
      "store": 3179,
      "prev": 3180,
      "blue": 3181,
      "bliss": 3182,
      "thank": 3183,
      "cles": 3184,
      "tained": 3185,
      "scream": 3186,
      "disap": 3187,
      "lessness": 3188,
      "court": 3189,
      "greatest": 3190,
      "flow": 3191,
      "obli": 3192,
      "happily": 3193,
      "phys": 3194,
      "timate": 3195,
      "izen": 3196,
      "rench": 3197,
      "parts": 3198,
      "sett": 3199,
      "admir": 3200,
      "falls": 3201,
      "orders": 3202,
      "shape": 3203,
      "shaking": 3204,
      "1912": 3205,
      "1913": 3206,
      "happening": 3207,
      "1952": 3208,
      "1953": 3209,
      "answered": 3210,
      "center": 3211,
      "labyrinth": 3212,
      "soldiers": 3213,
      "tomb": 3214,
      "aughter": 3215,
      "fairly": 3216,
      "closely": 3217,
      "priv": 3218,
      "ridic": 3219,
      "resses": 3220,
      "1962": 3221,
      "replied": 3222,
      "summon": 3223,
      "peacefully": 3224,
      "laughing": 3225,
      "shouts": 3226,
      "rushed": 3227,
      "utely": 3228,
      "provide": 3229,
      "hunting": 3230,
      "superior": 3231,
      "learned": 3232,
      "apartment": 3233,
      "calmly": 3234,
      "Schmar": 3235,
      "worthy": 3236,
      "schol": 3237,
      "possibility": 3238,
      "snatch": 3239,
      "collap": 3240,
      "Academy": 3241,
      "haste": 3242,
      "yellow": 3243,
      "belly": 3244,
      "places": 3245,
      "produced": 3246,
      "occupied": 3247,
      "conclusion": 3248,
      "printed": 3249,
      "Engl": 3250,
      "innocent": 3251,
      "measures": 3252,
      "exhausted": 3253,
      "properly": 3254,
      "observed": 3255,
      "months": 3256,
      "lantern": 3257,
      "influence": 3258,
      "annoy": 3259,
      "THE": 3260,
      "wander": 3261,
      "assembled": 3262,
      "Stories": 3263,
      "enemy": 3264,
      "persist": 3265,
      "satisfied": 3266,
      "profession": 3267,
      "jacket": 3268,
      "precisely": 3269,
      "Fischer": 3270,
      "Munich": 3271,
      "intellig": 3272,
      "enemies": 3273,
      "36": 3274,
      "45": 3275,
      "C5": 3276,
      "Cer": 3277,
      "D3": 3278,
      "Doc": 3279,
      "Fir": 3280,
      "Frag": 3281,
      "Land": 3282,
      "May": 3283,
      "Never": 3284,
      "Or": 3285,
      "Ple": 3286,
      "Si": 3287,
      "Such": 3288,
      "Tod": 3289,
      "Would": 3290,
      "Wil": 3291,
      "Wese": 3292,
      "bs": 3293,
      "bran": 3294,
      "bers": 3295,
      "bility": 3296,
      "dread": 3297,
      "dry": 3298,
      "dared": 3299,
      "daughter": 3300,
      "ech": 3301,
      "fal": 3302,
      "gom": 3303,
      "language": 3304,
      "mas": 3305,
      "oth": 3306,
      "obey": 3307,
      "pa": 3308,
      "pages": 3309,
      "sand": 3310,
      "spl": 3311,
      "tro": 3312,
      "tong": 3313,
      "treat": 3314,
      "trees": 3315,
      "uit": 3316,
      "uri": 3317,
      "uct": 3318,
      "vig": 3319,
      "wing": 3320,
      "inate": 3321,
      "represent": 3322,
      "atic": 3323,
      "ators": 3324,
      "toler": 3325,
      "inging": 3326,
      "aside": 3327,
      "orn": 3328,
      "itz": 3329,
      "ale": 3330,
      "alarm": 3331,
      "arr": 3332,
      "lein": 3333,
      "stone": 3334,
      "stam": 3335,
      "stem": 3336,
      "novel": 3337,
      "mel": 3338,
      "ceiling": 3339,
      "soaring": 3340,
      "lived": 3341,
      "aces": 3342,
      "acking": 3343,
      "ability": 3344,
      "absor": 3345,
      "modest": 3346,
      "uscri": 3347,
      "contem": 3348,
      "ama": 3349,
      "weep": 3350,
      "excl": 3351,
      "explic": 3352,
      "excuse": 3353,
      "coal": 3354,
      "mann": 3355,
      "managed": 3356,
      "perpet": 3357,
      "opport": 3358,
      "compe": 3359,
      "worst": 3360,
      "umbre": 3361,
      "fault": 3362,
      "forest": 3363,
      "prepar": 3364,
      "wool": 3365,
      "strap": 3366,
      "flour": 3367,
      "glanced": 3368,
      "descri": 3369,
      "burg": 3370,
      "spec": 3371,
      "Nothing": 3372,
      "embar": 3373,
      "ancing": 3374,
      "ancient": 3375,
      "lifetime": 3376,
      "moments": 3377,
      "contri": 3378,
      "counter": 3379,
      "intended": 3380,
      "burrowing": 3381,
      "sensible": 3382,
      "sensit": 3383,
      "stepped": 3384,
      "skin": 3385,
      "admire": 3386,
      "resting": 3387,
      "incred": 3388,
      "follows": 3389,
      "visitor": 3390,
      "huge": 3391,
      "evil": 3392,
      "evident": 3393,
      "invited": 3394,
      "capital": 3395,
      "freely": 3396,
      "Beim": 3397,
      "However": 3398,
      "consideration": 3399,
      "Chines": 3400,
      "painful": 3401,
      "univers": 3402,
      "auses": 3403,
      "support": 3404,
      "pursu": 3405,
      "similar": 3406,
      "arrive": 3407,
      "flew": 3408,
      "bench": 3409,
      "scratch": 3410,
      "honest": 3411,
      "weakness": 3412,
      "affairs": 3413,
      "powerful": 3414,
      "imagine": 3415,
      "Mrs": 3416,
      "suitcase": 3417,
      "sufficiently": 3418,
      "humble": 3419,
      "protect": 3420,
      "protection": 3421,
      "despair": 3422,
      "arrange": 3423,
      "perfectly": 3424,
      "mistak": 3425,
      "established": 3426,
      "curios": 3427,
      "drink": 3428,
      "Burgom": 3429,
      "tipto": 3430,
      "deliver": 3431,
      "boatman": 3432,
      "interpretation": 3433,
      "Friedrich": 3434,
      "Dora": 3435,
      "Milena": 3436,
      "Mauer": 3437,
      "stupid": 3438,
      "suggest": 3439,
      "amount": 3440,
      "Certain": 3441,
      "First": 3442,
      "Today": 3443,
      "uscript": 3444,
      "opportunity": 3445,
      "umbrell": 3446,
      "Chinesischen": 3447,
      "curiosity": 3448,
      "Burgomaster": 3449,
      "30": 3450,
      "35": 3451,
      "37": 3452,
      "Bv": 3453,
      "Fo": 3454,
      "IV": 3455,
      "Other": 3456,
      "Octo": 3457,
      "Pause": 3458,
      "bark": 3459,
      "dam": 3460,
      "daw": 3461,
      "dressed": 3462,
      "drunk": 3463,
      "fif": 3464,
      "fist": 3465,
      "fund": 3466,
      "gree": 3467,
      "hi": 3468,
      "iod": 3469,
      "lk": 3470,
      "lain": 3471,
      "mitted": 3472,
      "nour": 3473,
      "oted": 3474,
      "pic": 3475,
      "rul": 3476,
      "sort": 3477,
      "tiny": 3478,
      "uced": 3479,
      "wet": 3480,
      "wished": 3481,
      "zz": 3482,
      "zen": 3483,
      "ining": 3484,
      "instr": 3485,
      "ane": 3486,
      "antic": 3487,
      "angry": 3488,
      "oning": 3489,
      "research": 3490,
      "receive": 3491,
      "request": 3492,
      "atur": 3493,
      "ative": 3494,
      "esca": 3495,
      "alive": 3496,
      "staring": 3497,
      "cease": 3498,
      "tier": 3499,
      "tible": 3500,
      "idden": 3501,
      "waste": 3502,
      "soci": 3503,
      "entered": 3504,
      "acy": 3505,
      "acity": 3506,
      "accompl": 3507,
      "etz": 3508,
      "conce": 3509,
      "confin": 3510,
      "convic": 3511,
      "dev": 3512,
      "degree": 3513,
      "bye": 3514,
      "weary": 3515,
      "shor": 3516,
      "ift": 3517,
      "pop": 3518,
      "indis": 3519,
      "manager": 3520,
      "hero": 3521,
      "persu": 3522,
      "period": 3523,
      "ilth": 3524,
      "worn": 3525,
      "anyhow": 3526,
      "prospect": 3527,
      "author": 3528,
      "uments": 3529,
      "1919": 3530,
      "size": 3531,
      "hot": 3532,
      "oked": 3533,
      "posing": 3534,
      "forever": 3535,
      "mostly": 3536,
      "tense": 3537,
      "gras": 3538,
      "gray": 3539,
      "letting": 3540,
      "wherever": 3541,
      "struggle": 3542,
      "diver": 3543,
      "tical": 3544,
      "distri": 3545,
      "speech": 3546,
      "park": 3547,
      "brings": 3548,
      "timid": 3549,
      "interven": 3550,
      "partly": 3551,
      "pian": 3552,
      "helping": 3553,
      "gaze": 3554,
      "gathered": 3555,
      "easier": 3556,
      "native": 3557,
      "calls": 3558,
      "higher": 3559,
      "crit": 3560,
      "cursion": 3561,
      "1914": 3562,
      "1917": 3563,
      "sounds": 3564,
      "spoke": 3565,
      "direct": 3566,
      "driven": 3567,
      "greed": 3568,
      "experien": 3569,
      "ladder": 3570,
      "meanwhile": 3571,
      "truly": 3572,
      "considering": 3573,
      "minute": 3574,
      "jumps": 3575,
      "1948": 3576,
      "badly": 3577,
      "frequ": 3578,
      "petition": 3579,
      "faces": 3580,
      "penetr": 3581,
      "supper": 3582,
      "1923": 3583,
      "system": 3584,
      "objection": 3585,
      "comfortable": 3586,
      "shook": 3587,
      "scrut": 3588,
      "carrying": 3589,
      "creep": 3590,
      "community": 3591,
      "numerous": 3592,
      "raining": 3593,
      "announced": 3594,
      "traveler": 3595,
      "resul": 3596,
      "regarding": 3597,
      "learn": 3598,
      "smooth": 3599,
      "explanations": 3600,
      "Everything": 3601,
      "Art": 3602,
      "suffering": 3603,
      "Bauer": 3604,
      "knock": 3605,
      "knocking": 3606,
      "climbed": 3607,
      "satisfac": 3608,
      "whispered": 3609,
      "arranged": 3610,
      "employed": 3611,
      "fighting": 3612,
      "slip": 3613,
      "audible": 3614,
      "princi": 3615,
      "involved": 3616,
      "repeated": 3617,
      "department": 3618,
      "digging": 3619,
      "stub": 3620,
      "destroy": 3621,
      "interrupted": 3622,
      "surrounded": 3623,
      "Judgment": 3624,
      "soul": 3625,
      "stiff": 3626,
      "incapable": 3627,
      "Fraulein": 3628,
      "group": 3629,
      "November": 3630,
      "kissed": 3631,
      "absolutely": 3632,
      "private": 3633,
      "scholar": 3634,
      "English": 3635,
      "Doctor": 3636,
      "false": 3637,
      "tiptoe": 3638,
      "Certainly": 3639,
      "October": 3640,
      "fundament": 3641,
      "escape": 3642,
      "(\"": 3643,
      ".]": 3644,
      "11": 3645,
      "38": 3646,
      "39": 3647,
      "Ad": 3648,
      "Cha": 3649,
      "Dy": 3650,
      "Hard": 3651,
      "June": 3652,
      "Mod": 3653,
      "Mart": 3654,
      "Out": 3655,
      "Rev": 3656,
      "Sh": 3657,
      "VII": 3658,
      "bb": 3659,
      "bir": 3660,
      "bones": 3661,
      "bank": 3662,
      "cing": 3663,
      "cit": 3664,
      "camp": 3665,
      "cident": 3666,
      "due": 3667,
      "dressing": 3668,
      "fate": 3669,
      "frail": 3670,
      "filth": 3671,
      "gas": 3672,
      "god": 3673,
      "groom": 3674,
      "gue": 3675,
      "gaps": 3676,
      "ias": 3677,
      "ium": 3678,
      "lid": 3679,
      "lam": 3680,
      "mark": 3681,
      "maid": 3682,
      "ners": 3683,
      "oper": 3684,
      "pment": 3685,
      "rand": 3686,
      "rage": 3687,
      "rum": 3688,
      "rass": 3689,
      "send": 3690,
      "sank": 3691,
      "tent": 3692,
      "uce": 3693,
      "uries": 3694,
      "vous": 3695,
      "vals": 3696,
      "winter": 3697,
      "inning": 3698,
      "erved": 3699,
      "reck": 3700,
      "refr": 3701,
      "ouch": 3702,
      "outer": 3703,
      "enthus": 3704,
      "aled": 3705,
      "ley": 3706,
      "lected": 3707,
      "star": 3708,
      "straw": 3709,
      "stars": 3710,
      "nose": 3711,
      "seas": 3712,
      "seam": 3713,
      "behave": 3714,
      "bearing": 3715,
      "roof": 3716,
      "cep": 3717,
      "vern": 3718,
      "vering": 3719,
      "history": 3720,
      "forgetting": 3721,
      "utes": 3722,
      "agitation": 3723,
      "agues": 3724,
      "entrust": 3725,
      "acle": 3726,
      "surance": 3727,
      "mood": 3728,
      "ussi": 3729,
      "eting": 3730,
      "del": 3731,
      "exped": 3732,
      "shove": 3733,
      "ified": 3734,
      "upset": 3735,
      "coach": 3736,
      "cott": 3737,
      "ources": 3738,
      "poor": 3739,
      "gold": 3740,
      "comed": 3741,
      "sheet": 3742,
      "ument": 3743,
      "elb": 3744,
      "handle": 3745,
      "blan": 3746,
      "regret": 3747,
      "presently": 3748,
      "woe": 3749,
      "whereas": 3750,
      "stray": 3751,
      "strug": 3752,
      "flutter": 3753,
      "gets": 3754,
      "happiness": 3755,
      "awak": 3756,
      "bruary": 3757,
      "angle": 3758,
      "interior": 3759,
      "corre": 3760,
      "needles": 3761,
      "write": 3762,
      "introd": 3763,
      "finding": 3764,
      "surve": 3765,
      "nervous": 3766,
      "waved": 3767,
      "waited": 3768,
      "kinds": 3769,
      "skill": 3770,
      "built": 3771,
      "rested": 3772,
      "busy": 3773,
      "telling": 3774,
      "highest": 3775,
      "attle": 3776,
      "cru": 3777,
      "crack": 3778,
      "confusion": 3779,
      "refused": 3780,
      "nearly": 3781,
      "evidence": 3782,
      "centuries": 3783,
      "avail": 3784,
      "cheeks": 3785,
      "strangers": 3786,
      "Ann": 3787,
      "lively": 3788,
      "directly": 3789,
      "engaged": 3790,
      "strengthen": 3791,
      "generation": 3792,
      "ashed": 3793,
      "relation": 3794,
      "reply": 3795,
      "peaceful": 3796,
      "interested": 3797,
      "collect": 3798,
      "countless": 3799,
      "laughed": 3800,
      "locker": 3801,
      "brother": 3802,
      "Without": 3803,
      "immediate": 3804,
      "rushing": 3805,
      "provided": 3806,
      "remembered": 3807,
      "importance": 3808,
      "utterly": 3809,
      "solemn": 3810,
      "hurried": 3811,
      "bearers": 3812,
      "shore": 3813,
      "palace": 3814,
      "points": 3815,
      "recognized": 3816,
      "Problem": 3817,
      "announce": 3818,
      "disturbed": 3819,
      "attempts": 3820,
      "conditions": 3821,
      "script": 3822,
      "judge": 3823,
      "dangerous": 3824,
      "suitable": 3825,
      "suffered": 3826,
      "February": 3827,
      "intentions": 3828,
      "reflection": 3829,
      "transl": 3830,
      "collar": 3831,
      "Accord": 3832,
      "paying": 3833,
      "thousands": 3834,
      "sink": 3835,
      "assume": 3836,
      "patient": 3837,
      "porter": 3838,
      "audience": 3839,
      "companion": 3840,
      "customers": 3841,
      "hopes": 3842,
      "message": 3843,
      "leaping": 3844,
      "twist": 3845,
      "kerchief": 3846,
      "Whereupon": 3847,
      "observation": 3848,
      "observations": 3849,
      "crossed": 3850,
      "guests": 3851,
      "Like": 3852,
      "depth": 3853,
      "indiffer": 3854,
      "spirit": 3855,
      "Hunger": 3856,
      "bushes": 3857,
      "1970": 3858,
      "issued": 3859,
      "Jewish": 3860,
      "progress": 3861,
      "Highness": 3862,
      "Public": 3863,
      "imperial": 3864,
      "physical": 3865,
      "Fragment": 3866,
      "Please": 3867,
      "vigil": 3868,
      "embarrass": 3869,
      "incredible": 3870,
      "umbrella": 3871,
      "Artist": 3872,
      "stubborn": 3873,
      "Dyman": 3874,
      "Modern": 3875,
      "Martin": 3876,
      "Aus": 3877,
      "Again": 3878,
      "B1": 3879,
      "Brie": 3880,
      "Cour": 3881,
      "D8": 3882,
      "During": 3883,
      "Eu": 3884,
      "LE": 3885,
      "Lizen": 3886,
      "Prin": 3887,
      "Ref": 3888,
      "Russi": 3889,
      "Sup": 3890,
      "Spr": 3891,
      "Vill": 3892,
      "aul": 3893,
      "ahead": 3894,
      "bul": 3895,
      "bend": 3896,
      "cat": 3897,
      "cof": 3898,
      "cere": 3899,
      "cence": 3900,
      "dim": 3901,
      "dull": 3902,
      "dying": 3903,
      "frank": 3904,
      "ffled": 3905,
      "furi": 3906,
      "gy": 3907,
      "gag": 3908,
      "gay": 3909,
      "hib": 3910,
      "lung": 3911,
      "limp": 3912,
      "mater": 3913,
      "nap": 3914,
      "py": 3915,
      "pun": 3916,
      "pup": 3917,
      "pill": 3918,
      "paws": 3919,
      "paid": 3920,
      "ron": 3921,
      "rare": 3922,
      "swi": 3923,
      "slo": 3924,
      "tone": 3925,
      "tries": 3926,
      "twent": 3927,
      "taver": 3928,
      "vague": 3929,
      "yield": 3930,
      "zaus": 3931,
      "inced": 3932,
      "instru": 3933,
      "returned": 3934,
      "atically": 3935,
      "enom": 3936,
      "tori": 3937,
      "asc": 3938,
      "assum": 3939,
      "arz": 3940,
      "hem": 3941,
      "heaven": 3942,
      "lect": 3943,
      "stresses": 3944,
      "nois": 3945,
      "nobility": 3946,
      "seer": 3947,
      "sect": 3948,
      "chatter": 3949,
      "beck": 3950,
      "becomes": 3951,
      "hab": 3952,
      "tiv": 3953,
      "tips": 3954,
      "llent": 3955,
      "utmost": 3956,
      "impres": 3957,
      "irty": 3958,
      "adic": 3959,
      "unable": 3960,
      "lives": 3961,
      "accusto": 3962,
      "rice": 3963,
      "ury": 3964,
      "feed": 3965,
      "usively": 3966,
      "loss": 3967,
      "confir": 3968,
      "deaf": 3969,
      "week": 3970,
      "express": 3971,
      "shown": 3972,
      "trail": 3973,
      "apes": 3974,
      "sail": 3975,
      "goal": 3976,
      "folk": 3977,
      "tele": 3978,
      "evenings": 3979,
      "prop": 3980,
      "endless": 3981,
      "umb": 3982,
      "ump": 3983,
      "handkerchief": 3984,
      "overseer": 3985,
      "stopping": 3986,
      "Hein": 3987,
      "blame": 3988,
      "grate": 3989,
      "spent": 3990,
      "spark": 3991,
      "sprang": 3992,
      "distract": 3993,
      "willing": 3994,
      "backs": 3995,
      "medit": 3996,
      "ignor": 3997,
      "straps": 3998,
      "tedly": 3999,
      "begged": 4000,
      "flatter": 4001,
      "obsc": 4002,
      "smiling": 4003,
      "chosen": 4004,
      "desc": 4005,
      "phenom": 4006,
      "cloth": 4007,
      "closer": 4008,
      "passion": 4009,
      "pud": 4010,
      "feelings": 4011,
      "writ": 4012,
      "rens": 4013,
      "puts": 4014,
      "finds": 4015,
      "surface": 4016,
      "pire": 4017,
      "skirt": 4018,
      "helped": 4019,
      "lowered": 4020,
      "join": 4021,
      "talked": 4022,
      "refuse": 4023,
      "miss": 4024,
      "missing": 4025,
      "miserable": 4026,
      "mberlain": 4027,
      "invitation": 4028,
      "invari": 4029,
      "minded": 4030,
      "ucked": 4031,
      "litter": 4032,
      "spoil": 4033,
      "startled": 4034,
      "engers": 4035,
      "extent": 4036,
      "fills": 4037,
      "generally": 4038,
      "severe": 4039,
      "servants": 4040,
      "relat": 4041,
      "colleagues": 4042,
      "laughter": 4043,
      "rises": 4044,
      "leads": 4045,
      "strongly": 4046,
      "province": 4047,
      "fortunate": 4048,
      "1924": 4049,
      "changes": 4050,
      "bearable": 4051,
      "commun": 4052,
      "statement": 4053,
      "pretty": 4054,
      "hunt": 4055,
      "personal": 4056,
      "carriages": 4057,
      "views": 4058,
      "imagined": 4059,
      "successful": 4060,
      "Everyone": 4061,
      "Arabs": 4062,
      "climb": 4063,
      "climbing": 4064,
      "sixth": 4065,
      "prevented": 4066,
      "dealer": 4067,
      "continued": 4068,
      "continuously": 4069,
      "Death": 4070,
      "resolution": 4071,
      "rolling": 4072,
      "People": 4073,
      "elect": 4074,
      "demands": 4075,
      "slipped": 4076,
      "agreement": 4077,
      "indicate": 4078,
      "innocence": 4079,
      "barely": 4080,
      "cases": 4081,
      "separated": 4082,
      "practice": 4083,
      "ario": 4084,
      "appreciate": 4085,
      "resistance": 4086,
      "details": 4087,
      "unexpectedly": 4088,
      "title": 4089,
      "rigid": 4090,
      "convinced": 4091,
      "January": 4092,
      "swaying": 4093,
      "corridors": 4094,
      "hitherto": 4095,
      "nobleman": 4096,
      "ridiculous": 4097,
      "Sirens": 4098,
      "tongue": 4099,
      "sensitive": 4100,
      "conviction": 4101,
      "results": 4102,
      "satisfaction": 4103,
      "Chamberlain": 4104,
      "enthusias": 4105,
      "cotton": 4106,
      "Publication": 4107,
      "Dymant": 4108,
      "Briefe": 4109,
      "Lizenzaus": 4110,
      "Princess": 4111,
      "Spring": 4112,
      "Village": 4113,
      "coffee": 4114,
      "ceremon": 4115,
      "material": 4116,
      "twenty": 4117,
      "impresario": 4118,
      "accustomed": 4119,
      "invariably": 4120,
      "Lizenzausgabe": 4121,
      "\"'": 4122,
      ",'": 4123,
      "Are": 4124,
      "Act": 4125,
      "D1": 4126,
      "Ha": 4127,
      "IS": 4128,
      "Kier": 4129,
      "Moun": 4130,
      "Nach": 4131,
      "Po": 4132,
      "Rep": 4133,
      "Tom": 4134,
      "az": 4135,
      "ba": 4136,
      "bi": 4137,
      "dy": 4138,
      "dug": 4139,
      "dles": 4140,
      "drau": 4141,
      "dirty": 4142,
      "eed": 4143,
      "eld": 4144,
      "eating": 4145,
      "flight": 4146,
      "gri": 4147,
      "gained": 4148,
      "iant": 4149,
      "ives": 4150,
      "jerk": 4151,
      "kill": 4152,
      "kiss": 4153,
      "lin": 4154,
      "lat": 4155,
      "liness": 4156,
      "mir": 4157,
      "nst": 4158,
      "nail": 4159,
      "names": 4160,
      "ox": 4161,
      "oom": 4162,
      "ration": 4163,
      "tast": 4164,
      "ture": 4165,
      "tug": 4166,
      "tucked": 4167,
      "uf": 4168,
      "udes": 4169,
      "virt": 4170,
      "thread": 4171,
      "iner": 4172,
      "invisible": 4173,
      "inscription": 4174,
      "informed": 4175,
      "anwhile": 4176,
      "error": 4177,
      "reprinted": 4178,
      "ouple": 4179,
      "ister": 4180,
      "isol": 4181,
      "ische": 4182,
      "tot": 4183,
      "asking": 4184,
      "ority": 4185,
      "alt": 4186,
      "aloud": 4187,
      "heap": 4188,
      "sty": 4189,
      "stir": 4190,
      "stare": 4191,
      "stum": 4192,
      "stones": 4193,
      "steep": 4194,
      "mechan": 4195,
      "melod": 4196,
      "chn": 4197,
      "cher": 4198,
      "beat": 4199,
      "beating": 4200,
      "hamper": 4201,
      "rob": 4202,
      "cell": 4203,
      "ford": 4204,
      "ller": 4205,
      "improve": 4206,
      "agent": 4207,
      "irts": 4208,
      "withdrew": 4209,
      "lig": 4210,
      "liograp": 4211,
      "acious": 4212,
      "acles": 4213,
      "active": 4214,
      "terror": 4215,
      "usions": 4216,
      "arest": 4217,
      "loved": 4218,
      "conscription": 4219,
      "amed": 4220,
      "demon": 4221,
      "defect": 4222,
      "wearing": 4223,
      "excess": 4224,
      "shi": 4225,
      "track": 4226,
      "cob": 4227,
      "apple": 4228,
      "anting": 4229,
      "ulated": 4230,
      "peril": 4231,
      "govern": 4232,
      "ilities": 4233,
      "aft": 4234,
      "compar": 4235,
      "plat": 4236,
      "worked": 4237,
      "process": 4238,
      "proceed": 4239,
      "acknow": 4240,
      "ishes": 4241,
      "blems": 4242,
      "hollow": 4243,
      "overcome": 4244,
      "assert": 4245,
      "foreign": 4246,
      "ieties": 4247,
      "offer": 4248,
      "fulness": 4249,
      "thanks": 4250,
      "clas": 4251,
      "clum": 4252,
      "grass": 4253,
      "spit": 4254,
      "courage": 4255,
      "courts": 4256,
      "muffled": 4257,
      "begun": 4258,
      "pron": 4259,
      "proud": 4260,
      "itions": 4261,
      "smiled": 4262,
      "wardly": 4263,
      "gled": 4264,
      "opens": 4265,
      "descent": 4266,
      "armchair": 4267,
      "lightly": 4268,
      "spell": 4269,
      "passes": 4270,
      "intervals": 4271,
      "ancy": 4272,
      "appeal": 4273,
      "smallest": 4274,
      "carpet": 4275,
      "goodbye": 4276,
      "childhood": 4277,
      "rent": 4278,
      "counted": 4279,
      "realize": 4280,
      "effe": 4281,
      "household": 4282,
      "instit": 4283,
      "windowpan": 4284,
      "sses": 4285,
      "careful": 4286,
      "incant": 4287,
      "joke": 4288,
      "ential": 4289,
      "holds": 4290,
      "frontier": 4291,
      "vial": 4292,
      "guess": 4293,
      "ordered": 4294,
      "sleepy": 4295,
      "1958": 4296,
      "nearby": 4297,
      "normal": 4298,
      "ulture": 4299,
      "complic": 4300,
      "mouths": 4301,
      "coats": 4302,
      "engagement": 4303,
      "publication": 4304,
      "1968": 4305,
      "Child": 4306,
      "oubtedly": 4307,
      "staircase": 4308,
      "sibly": 4309,
      "horror": 4310,
      "jumped": 4311,
      "repor": 4312,
      "1949": 4313,
      "kneel": 4314,
      "trivial": 4315,
      "villages": 4316,
      "broke": 4317,
      "ibliograp": 4318,
      "lifting": 4319,
      "added": 4320,
      "accordance": 4321,
      "struct": 4322,
      "quarters": 4323,
      "shock": 4324,
      "pale": 4325,
      "lodger": 4326,
      "supervis": 4327,
      "occasions": 4328,
      "Ernst": 4329,
      "sively": 4330,
      "1935": 4331,
      "included": 4332,
      "striking": 4333,
      "songs": 4334,
      "fatig": 4335,
      "strangely": 4336,
      "resolved": 4337,
      "thirty": 4338,
      "claimed": 4339,
      "crawl": 4340,
      "malice": 4341,
      "anxiety": 4342,
      "entertain": 4343,
      "indicated": 4344,
      "supported": 4345,
      "Meanwhile": 4346,
      "hoped": 4347,
      "failure": 4348,
      "curious": 4349,
      "thorough": 4350,
      "Burrow": 4351,
      "milk": 4352,
      "remote": 4353,
      "atorium": 4354,
      "original": 4355,
      "indifference": 4356,
      "Indeed": 4357,
      "jackal": 4358,
      "maj": 4359,
      "increasing": 4360,
      "burning": 4361,
      "dragged": 4362,
      "buttoned": 4363,
      "excite": 4364,
      "July": 4365,
      "murder": 4366,
      "attracted": 4367,
      "consciousness": 4368,
      "terrible": 4369,
      "apprehension": 4370,
      "refusal": 4371,
      "candle": 4372,
      "disappoint": 4373,
      "settled": 4374,
      "annoyance": 4375,
      "Landarz": 4376,
      "Nevertheless": 4377,
      "melte": 4378,
      "absorbed": 4379,
      "contempl": 4380,
      "exclusively": 4381,
      "universal": 4382,
      "shorter": 4383,
      "popular": 4384,
      "experienced": 4385,
      "frequently": 4386,
      "Hardly": 4387,
      "seamstresses": 4388,
      "correct": 4389,
      "Court": 4390,
      "Europe": 4391,
      "confirmed": 4392,
      "communic": 4393,
      "Actually": 4394,
      "Report": 4395,
      "draught": 4396,
      "government": 4397,
      "Landarzt": 4398,
      "\")": 4399,
      "44": 4400,
      "83": 4401,
      "AT": 4402,
      "Aug": 4403,
      "Ba": 4404,
      "Bachelor": 4405,
      "Bibliograp": 4406,
      "Dis": 4407,
      "Eine": 4408,
      "FKA": 4409,
      "Hs": 4410,
      "Low": 4411,
      "Last": 4412,
      "Little": 4413,
      "March": 4414,
      "OF": 4415,
      "Old": 4416,
      "Rose": 4417,
      "SE": 4418,
      "SS": 4419,
      "Sy": 4420,
      "Sud": 4421,
      "UR": 4422,
      "Uly": 4423,
      "Work": 4424,
      "Writ": 4425,
      "ais": 4426,
      "bout": 4427,
      "bra": 4428,
      "bother": 4429,
      "bread": 4430,
      "bier": 4431,
      "cup": 4432,
      "castle": 4433,
      "ds": 4434,
      "dou": 4435,
      "eight": 4436,
      "fit": 4437,
      "fers": 4438,
      "fond": 4439,
      "fire": 4440,
      "fitted": 4441,
      "hound": 4442,
      "hip": 4443,
      "iance": 4444,
      "kn": 4445,
      "lamb": 4446,
      "marrow": 4447,
      "pher": 4448,
      "praise": 4449,
      "ram": 4450,
      "rap": 4451,
      "swo": 4452,
      "swall": 4453,
      "tur": 4454,
      "trod": 4455,
      "trench": 4456,
      "vest": 4457,
      "vive": 4458,
      "wers": 4459,
      "whel": 4460,
      "yards": 4461,
      "zes": 4462,
      "zess": 4463,
      "ée": 4464,
      "insignificant": 4465,
      "insect": 4466,
      "thed": 4467,
      "onlook": 4468,
      "rele": 4469,
      "rever": 4470,
      "renew": 4471,
      "record": 4472,
      "revol": 4473,
      "restrain": 4474,
      "oured": 4475,
      "eness": 4476,
      "encoun": 4477,
      "enger": 4478,
      "isure": 4479,
      "ission": 4480,
      "inger": 4481,
      "ased": 4482,
      "itable": 4483,
      "itive": 4484,
      "itated": 4485,
      "esen": 4486,
      "escap": 4487,
      "alid": 4488,
      "heels": 4489,
      "leine": 4490,
      "level": 4491,
      "leisure": 4492,
      "stat": 4493,
      "nobodies": 4494,
      "nomad": 4495,
      "sets": 4496,
      "selected": 4497,
      "cht": 4498,
      "beet": 4499,
      "rog": 4500,
      "cember": 4501,
      "tial": 4502,
      "verse": 4503,
      "histori": 4504,
      "forts": 4505,
      "lling": 4506,
      "immin": 4507,
      "aging": 4508,
      "idently": 4509,
      "wash": 4510,
      "irres": 4511,
      "irrit": 4512,
      "ades": 4513,
      "withdraw": 4514,
      "unusual": 4515,
      "unbearable": 4516,
      "lict": 4517,
      "accoun": 4518,
      "ribb": 4519,
      "aband": 4520,
      "abund": 4521,
      "absent": 4522,
      "moder": 4523,
      "moves": 4524,
      "fected": 4525,
      "using": 4526,
      "uses": 4527,
      "cons": 4528,
      "concent": 4529,
      "contempt": 4530,
      "aming": 4531,
      "amber": 4532,
      "amuse": 4533,
      "defin": 4534,
      "weap": 4535,
      "weather": 4536,
      "weeks": 4537,
      "shot": 4538,
      "upwards": 4539,
      "trun": 4540,
      "traf": 4541,
      "trace": 4542,
      "cog": 4543,
      "ource": 4544,
      "apers": 4545,
      "posure": 4546,
      "police": 4547,
      "veness": 4548,
      "manuscript": 4549,
      "ulse": 4550,
      "ulate": 4551,
      "opposition": 4552,
      "canine": 4553,
      "commer": 4554,
      "composure": 4555,
      "reserved": 4556,
      "tear": 4557,
      "owner": 4558,
      "raising": 4559,
      "umph": 4560,
      "holid": 4561,
      "handed": 4562,
      "Hebre": 4563,
      "olutions": 4564,
      "blows": 4565,
      "blowing": 4566,
      "earn": 4567,
      "claws": 4568,
      "box": 4569,
      "boast": 4570,
      "sphere": 4571,
      "disappear": 4572,
      "plead": 4573,
      "stillness": 4574,
      "Instead": 4575,
      "whereupon": 4576,
      "throng": 4577,
      "prud": 4578,
      "answers": 4579,
      "choose": 4580,
      "afterwards": 4581,
      "slam": 4582,
      "openly": 4583,
      "imped": 4584,
      "tically": 4585,
      "phone": 4586,
      "wanting": 4587,
      "beds": 4588,
      "bedroom": 4589,
      "parables": 4590,
      "sideways": 4591,
      "emer": 4592,
      "Soon": 4593,
      "corp": 4594,
      "corners": 4595,
      "Black": 4596,
      "breaking": 4597,
      "beings": 4598,
      "hinder": 4599,
      "renz": 4600,
      "fruit": 4601,
      "nights": 4602,
      "intent": 4603,
      "silently": 4604,
      "efforts": 4605,
      "survive": 4606,
      "fastened": 4607,
      "runs": 4608,
      "buried": 4609,
      "giant": 4610,
      "undoubtedly": 4611,
      "cares": 4612,
      "incere": 4613,
      "founded": 4614,
      "foundation": 4615,
      "conflict": 4616,
      "share": 4617,
      "shake": 4618,
      "shaken": 4619,
      "1910": 4620,
      "1915": 4621,
      "reasonable": 4622,
      "laying": 4623,
      "event": 4624,
      "evidently": 4625,
      "invalid": 4626,
      "versity": 4627,
      "useful": 4628,
      "staying": 4629,
      "Behind": 4630,
      "retreat": 4631,
      "roads": 4632,
      "boring": 4633,
      "stretching": 4634,
      "driver": 4635,
      "driving": 4636,
      "price": 4637,
      "engine": 4638,
      "excellent": 4639,
      "considerable": 4640,
      "minutes": 4641,
      "reluct": 4642,
      "summer": 4643,
      "mounting": 4644,
      "1947": 4645,
      "valid": 4646,
      "valley": 4647,
      "collected": 4648,
      "trick": 4649,
      "trifling": 4650,
      "Often": 4651,
      "ausing": 4652,
      "leader": 4653,
      "concerning": 4654,
      "addition": 4655,
      "fortune": 4656,
      "beautifully": 4657,
      "sorts": 4658,
      "journal": 4659,
      "fleas": 4660,
      "fleeting": 4661,
      "vanish": 4662,
      "leather": 4663,
      "palm": 4664,
      "squee": 4665,
      "Prozess": 4666,
      "traveling": 4667,
      "Lement": 4668,
      "spectators": 4669,
      "remarks": 4670,
      "itching": 4671,
      "keys": 4672,
      "Schloss": 4673,
      "obvious": 4674,
      "formerly": 4675,
      "limits": 4676,
      "lovely": 4677,
      "gladly": 4678,
      "reflect": 4679,
      "reflected": 4680,
      "drop": 4681,
      "drove": 4682,
      "hypo": 4683,
      "pathy": 4684,
      "victim": 4685,
      "railway": 4686,
      "expecting": 4687,
      "December": 4688,
      "fianc": 4689,
      "fourth": 4690,
      "assumed": 4691,
      "produce": 4692,
      "employ": 4693,
      "conclusions": 4694,
      "More": 4695,
      "tightly": 4696,
      "companions": 4697,
      "inquiry": 4698,
      "crawled": 4699,
      "crawling": 4700,
      "ctively": 4701,
      "hesitation": 4702,
      "repeat": 4703,
      "supporting": 4704,
      "breathed": 4705,
      "ambition": 4706,
      "drinking": 4707,
      "annoyed": 4708,
      "delighted": 4709,
      "destroyed": 4710,
      "investigation": 4711,
      "rifice": 4712,
      "ohn": 4713,
      "accepted": 4714,
      "developed": 4715,
      "transp": 4716,
      "obstinate": 4717,
      "jackals": 4718,
      "sacrifice": 4719,
      "chains": 4720,
      "example": 4721,
      "impatience": 4722,
      "impatient": 4723,
      "characteristic": 4724,
      "essential": 4725,
      "reminded": 4726,
      "slept": 4727,
      "accessible": 4728,
      "calculated": 4729,
      "KAFKA": 4730,
      "sobbing": 4731,
      "untarily": 4732,
      "constant": 4733,
      "definitely": 4734,
      "hills": 4735,
      "twice": 4736,
      "neglect": 4737,
      "devoted": 4738,
      "delicate": 4739,
      "ignore": 4740,
      "fragments": 4741,
      "determined": 4742,
      "blissful": 4743,
      "dreadful": 4744,
      "perpetually": 4745,
      "mistaken": 4746,
      "Forest": 4747,
      "grasp": 4748,
      "critical": 4749,
      "fundamental": 4750,
      "Review": 4751,
      "entrusted": 4752,
      "depths": 4753,
      "Ausgabe": 4754,
      "slope": 4755,
      "tavern": 4756,
      "writings": 4757,
      "Mountains": 4758,
      "melody": 4759,
      "pronounce": 4760,
      "excitement": 4761,
      "August": 4762,
      "Hsg": 4763,
      "Sudden": 4764,
      "Ulysses": 4765,
      "aiser": 4766,
      "renewed": 4767,
      "beetle": 4768,
      "irresis": 4769,
      "traffic": 4770,
      "Hebrew": 4771,
      "\":": 4772,
      "\").": 4773,
      "21": 4774,
      "?”": 4775,
      "Aph": 4776,
      "Bi": 4777,
      "Blo": 4778,
      "Co": 4779,
      "Crete": 4780,
      "Did": 4781,
      "Em": 4782,
      "Erich": 4783,
      "Home": 4784,
      "Harr": 4785,
      "Kl": 4786,
      "Kaiser": 4787,
      "Liter": 4788,
      "Nob": 4789,
      "OL": 4790,
      "Osk": 4791,
      "Pan": 4792,
      "Pol": 4793,
      "Red": 4794,
      "San": 4795,
      "Sun": 4796,
      "Tow": 4797,
      "Turn": 4798,
      "Ver": 4799,
      "WH": 4800,
      "Wedding": 4801,
      "aves": 4802,
      "bun": 4803,
      "bol": 4804,
      "bowed": 4805,
      "bachelor": 4806,
      "battle": 4807,
      "cough": 4808,
      "drow": 4809,
      "dign": 4810,
      "ec": 4811,
      "eleg": 4812,
      "fere": 4813,
      "fra": 4814,
      "fred": 4815,
      "flying": 4816,
      "fists": 4817,
      "gro": 4818,
      "hom": 4819,
      "hus": 4820,
      "hide": 4821,
      "hlungen": 4822,
      "hidden": 4823,
      "ii": 4824,
      "ilo": 4825,
      "iest": 4826,
      "iable": 4827,
      "ials": 4828,
      "iberg": 4829,
      "iversity": 4830,
      "kins": 4831,
      "lof": 4832,
      "mul": 4833,
      "ny": 4834,
      "non": 4835,
      "nut": 4836,
      "ots": 4837,
      "pin": 4838,
      "pard": 4839,
      "patch": 4840,
      "pause": 4841,
      "pauses": 4842,
      "poured": 4843,
      "ride": 4844,
      "rors": 4845,
      "rhy": 4846,
      "sam": 4847,
      "sage": 4848,
      "sill": 4849,
      "sword": 4850,
      "tum": 4851,
      "tting": 4852,
      "tree": 4853,
      "tables": 4854,
      "uction": 4855,
      "wis": 4856,
      "thigh": 4857,
      "inking": 4858,
      "theat": 4859,
      "theater": 4860,
      "anew": 4861,
      "erly": 4862,
      "recall": 4863,
      "require": 4864,
      "attr": 4865,
      "enon": 4866,
      "enced": 4867,
      "tore": 4868,
      "toes": 4869,
      "edged": 4870,
      "asha": 4871,
      "ory": 4872,
      "oris": 4873,
      "orrow": 4874,
      "ites": 4875,
      "itary": 4876,
      "itute": 4877,
      "estim": 4878,
      "alo": 4879,
      "aly": 4880,
      "alleg": 4881,
      "lections": 4882,
      "leaps": 4883,
      "stic": 4884,
      "noon": 4885,
      "noises": 4886,
      "secur": 4887,
      "member": 4888,
      "chin": 4889,
      "becoming": 4890,
      "ham": 4891,
      "tif": 4892,
      "forb": 4893,
      "forsa": 4894,
      "forces": 4895,
      "ider": 4896,
      "wasting": 4897,
      "solit": 4898,
      "social": 4899,
      "enty": 4900,
      "ented": 4901,
      "enters": 4902,
      "entry": 4903,
      "adox": 4904,
      "unsure": 4905,
      "unavoid": 4906,
      "lip": 4907,
      "likes": 4908,
      "ache": 4909,
      "acquired": 4910,
      "accompan": 4911,
      "acquire": 4912,
      "accost": 4913,
      "rily": 4914,
      "rific": 4915,
      "abor": 4916,
      "abrup": 4917,
      "kega": 4918,
      "ural": 4919,
      "feat": 4920,
      "fever": 4921,
      "feared": 4922,
      "lores": 4923,
      "loving": 4924,
      "conj": 4925,
      "conve": 4926,
      "conference": 4927,
      "conspic": 4928,
      "amid": 4929,
      "icle": 4930,
      "deb": 4931,
      "--\"": 4932,
      "exposed": 4933,
      "excursion": 4934,
      "shield": 4935,
      "shining": 4936,
      "cope": 4937,
      "coher": 4938,
      "ouring": 4939,
      "ody": 4940,
      "polit": 4941,
      "saic": 4942,
      "anted": 4943,
      "ulsion": 4944,
      "perceived": 4945,
      "ille": 4946,
      "ops": 4947,
      "comb": 4948,
      "resources": 4949,
      "plenty": 4950,
      "techn": 4951,
      "worries": 4952,
      "railing": 4953,
      "anyway": 4954,
      "problems": 4955,
      "oused": 4956,
      "seek": 4957,
      "fame": 4958,
      "mentary": 4959,
      "ishness": 4960,
      "sig": 4961,
      "hotel": 4962,
      "overwhel": 4963,
      "forefinger": 4964,
      "Heller": 4965,
      "ideas": 4966,
      "olmaster": 4967,
      "blow": 4968,
      "fulfill": 4969,
      "tender": 4970,
      "grat": 4971,
      "grab": 4972,
      "bottom": 4973,
      "acted": 4974,
      "scape": 4975,
      "disposition": 4976,
      "Introd": 4977,
      "woke": 4978,
      "lets": 4979,
      "muzz": 4980,
      "greatly": 4981,
      "obed": 4982,
      "cauti": 4983,
      "diaries": 4984,
      "glancing": 4985,
      "throughout": 4986,
      "desper": 4987,
      "design": 4988,
      "awake": 4989,
      "lights": 4990,
      "philo": 4991,
      "specially": 4992,
      "parable": 4993,
      "parations": 4994,
      "braced": 4995,
      "older": 4996,
      "passers": 4997,
      "interval": 4998,
      "interfere": 4999,
      "voices": 5000,
      "writer": 5001,
      "uding": 5002,
      "finish": 5003,
      "forty": 5004,
      "contact": 5005,
      "ING": 5006,
      "tors": 5007,
      "officials": 5008,
      "understandable": 5009,
      "hears": 5010,
      "Schoolmaster": 5011,
      "waist": 5012,
      "waves": 5013,
      "forming": 5014,
      "pier": 5015,
      "skirts": 5016,
      "bution": 5017,
      "setting": 5018,
      "completion": 5019,
      "highly": 5020,
      "asks": 5021,
      "vibr": 5022,
      "color": 5023,
      "cris": 5024,
      "confident": 5025,
      "vised": 5026,
      "curtains": 5027,
      "current": 5028,
      "fury": 5029,
      "lays": 5030,
      "showing": 5031,
      "1950": 5032,
      "1956": 5033,
      "1957": 5034,
      "compared": 5035,
      "capacity": 5036,
      "merch": 5037,
      "minds": 5038,
      "sounded": 5039,
      "circles": 5040,
      "borne": 5041,
      "starting": 5042,
      "charge": 5043,
      "extended": 5044,
      "shutting": 5045,
      "necessity": 5046,
      "hopelessness": 5047,
      "earthly": 5048,
      "advice": 5049,
      "advanced": 5050,
      "masters": 5051,
      "report": 5052,
      "ternal": 5053,
      "value": 5054,
      "interests": 5055,
      "triumph": 5056,
      "unique": 5057,
      "Alfred": 5058,
      "dreaming": 5059,
      "Dog": 5060,
      "doubts": 5061,
      "rule": 5062,
      "shouting": 5063,
      "approve": 5064,
      "rushes": 5065,
      "addressed": 5066,
      "remembering": 5067,
      "penal": 5068,
      "arrival": 5069,
      "1922": 5070,
      "midst": 5071,
      "decisions": 5072,
      "Conversation": 5073,
      "dangers": 5074,
      "hurt": 5075,
      "cutting": 5076,
      "III": 5077,
      "pointing": 5078,
      "scrup": 5079,
      "scrap": 5080,
      "schools": 5081,
      "larger": 5082,
      "variety": 5083,
      "recognition": 5084,
      "doubtless": 5085,
      "returning": 5086,
      "learning": 5087,
      "smoking": 5088,
      "imagin": 5089,
      "woods": 5090,
      "contented": 5091,
      "Schrif": 5092,
      "University": 5093,
      "beasts": 5094,
      "1937": 5095,
      "bringing": 5096,
      "avoided": 5097,
      "limited": 5098,
      "limbs": 5099,
      "possession": 5100,
      "achievement": 5101,
      "piecemeal": 5102,
      "Parables": 5103,
      "difficulties": 5104,
      "continuous": 5105,
      "occasionally": 5106,
      "hastened": 5107,
      "moonlight": 5108,
      "whispering": 5109,
      "crowded": 5110,
      "bursting": 5111,
      "advantages": 5112,
      "fancied": 5113,
      "placed": 5114,
      "graph": 5115,
      "crying": 5116,
      "eaten": 5117,
      "constructed": 5118,
      "bowing": 5119,
      "fellows": 5120,
      "figures": 5121,
      "swung": 5122,
      "anxious": 5123,
      "anxieties": 5124,
      "steady": 5125,
      "divine": 5126,
      "customary": 5127,
      "Meets": 5128,
      "Quite": 5129,
      "Quoted": 5130,
      "messenger": 5131,
      "mistake": 5132,
      "observe": 5133,
      "distinguished": 5134,
      "disturbance": 5135,
      "faintly": 5136,
      "safely": 5137,
      "favorite": 5138,
      "hundreds": 5139,
      "Americ": 5140,
      "neighborhood": 5141,
      "consequence": 5142,
      "consequently": 5143,
      "consequences": 5144,
      "extremely": 5145,
      "originally": 5146,
      "reproaches": 5147,
      "Betty": 5148,
      "Neue": 5149,
      "harbor": 5150,
      "deliber": 5151,
      "basin": 5152,
      "balcon": 5153,
      "uctory": 5154,
      "disgusting": 5155,
      "sweeping": 5156,
      "warning": 5157,
      "energy": 5158,
      "buttons": 5159,
      "essentially": 5160,
      "deserted": 5161,
      "admittedly": 5162,
      "exceptional": 5163,
      "magn": 5164,
      "rugs": 5165,
      "slee": 5166,
      "titles": 5167,
      "distinctly": 5168,
      "Anyhow": 5169,
      "credit": 5170,
      "packed": 5171,
      "sadly": 5172,
      "study": 5173,
      "exaggerated": 5174,
      "fools": 5175,
      "attendants": 5176,
      "Preparations": 5177,
      "fields": 5178,
      "suspicion": 5179,
      "neglected": 5180,
      "travelers": 5181,
      "determination": 5182,
      "fainter": 5183,
      "pattern": 5184,
      "infinitely": 5185,
      "advocates": 5186,
      "fetch": 5187,
      "storm": 5188,
      "previous": 5189,
      "obliged": 5190,
      "persistently": 5191,
      "obeyed": 5192,
      "treated": 5193,
      "amazed": 5194,
      "species": 5195,
      "arrangement": 5196,
      "hips": 5197,
      "instruments": 5198,
      "conceal": 5199,
      "persuade": 5200,
      "penetrated": 5201,
      "scrutin": 5202,
      "principle": 5203,
      "gods": 5204,
      "lamps": 5205,
      "operation": 5206,
      "random": 5207,
      "season": 5208,
      "elbows": 5209,
      "blankets": 5210,
      "Annie": 5211,
      "indifferent": 5212,
      "embarrassed": 5213,
      "Reflections": 5214,
      "Russia": 5215,
      "lungs": 5216,
      "puppy": 5217,
      "grateful": 5218,
      "phenomenon": 5219,
      "puddles": 5220,
      "electric": 5221,
      "Kierkega": 5222,
      "taste": 5223,
      "acknowled": 5224,
      "disappointment": 5225,
      "Lowy": 5226,
      "onlookers": 5227,
      "nomads": 5228,
      "imminent": 5229,
      "accounts": 5230,
      "ribbon": 5231,
      "corpse": 5232,
      "Aphoris": 5233,
      "Harras": 5234,
      "Nobody": 5235,
      "Oskar": 5236,
      "frame": 5237,
      "husband": 5238,
      "pardon": 5239,
      "forsaken": 5240,
      "accompanied": 5241,
      "technical": 5242,
      "philoso": 5243,
      "Schriften": 5244,
      "Kierkegaard": 5245,
      "!’": 5246,
      "52": 5247,
      "54": 5248,
      "Ah": 5249,
      "Apri": 5250,
      "Bin": 5251,
      "CH": 5252,
      "Cross": 5253,
      "Crit": 5254,
      "Eith": 5255,
      "Fam": 5256,
      "French": 5257,
      "Flores": 5258,
      "Give": 5259,
      "Gille": 5260,
      "Ho": 5261,
      "Has": 5262,
      "Hans": 5263,
      "Imper": 5264,
      "John": 5265,
      "Kno": 5266,
      "Lo": 5267,
      "Lt": 5268,
      "Long": 5269,
      "Lau": 5270,
      "Lud": 5271,
      "Later": 5272,
      "ME": 5273,
      "Mother": 5274,
      "Mann": 5275,
      "Night": 5276,
      "Natur": 5277,
      "Over": 5278,
      "Pres": 5279,
      "Ro": 5280,
      "Rom": 5281,
      "Rob": 5282,
      "Rund": 5283,
      "Read": 5284,
      "Riv": 5285,
      "Rider": 5286,
      "See": 5287,
      "Singer": 5288,
      "Ti": 5289,
      "Take": 5290,
      "VI": 5291,
      "Vier": 5292,
      "Wo": 5293,
      "Wind": 5294,
      "Wel": 5295,
      "Winter": 5296,
      "Yid": 5297,
      "bag": 5298,
      "bone": 5299,
      "bby": 5300,
      "bite": 5301,
      "base": 5302,
      "bably": 5303,
      "biting": 5304,
      "block": 5305,
      "brows": 5306,
      "cow": 5307,
      "cue": 5308,
      "chel": 5309,
      "causes": 5310,
      "couple": 5311,
      "dan": 5312,
      "dic": 5313,
      "daring": 5314,
      "dirt": 5315,
      "ditch": 5316,
      "drank": 5317,
      "eu": 5318,
      "eine": 5319,
      "echo": 5320,
      "equi": 5321,
      "fan": 5322,
      "fed": 5323,
      "gin": 5324,
      "gap": 5325,
      "game": 5326,
      "gently": 5327,
      "hiding": 5328,
      "iir": 5329,
      "ili": 5330,
      "ike": 5331,
      "ians": 5332,
      "iably": 5333,
      "ju": 5334,
      "lap": 5335,
      "lau": 5336,
      "lend": 5337,
      "lass": 5338,
      "lav": 5339,
      "mound": 5340,
      "march": 5341,
      "nago": 5342,
      "ored": 5343,
      "oting": 5344,
      "page": 5345,
      "pater": 5346,
      "piled": 5347,
      "pink": 5348,
      "panting": 5349,
      "pouring": 5350,
      "san": 5351,
      "sable": 5352,
      "sened": 5353,
      "south": 5354,
      "swarm": 5355,
      "sincere": 5356,
      "tour": 5357,
      "uard": 5358,
      "uine": 5359,
      "vy": 5360,
      "vant": 5361,
      "wn": 5362,
      "wit": 5363,
      "wag": 5364,
      "wake": 5365,
      "wave": 5366,
      "yaw": 5367,
      "za": 5368,
      "zer": 5369,
      "thm": 5370,
      "inj": 5371,
      "inally": 5372,
      "inct": 5373,
      "inquire": 5374,
      "injustice": 5375,
      "intel": 5376,
      "inexplic": 5377,
      "aning": 5378,
      "anter": 5379,
      "reven": 5380,
      "repu": 5381,
      "reput": 5382,
      "reins": 5383,
      "reception": 5384,
      "isha": 5385,
      "istr": 5386,
      "total": 5387,
      "tograph": 5388,
      "edless": 5389,
      "anda": 5390,
      "esy": 5391,
      "ofar": 5392,
      "arse": 5393,
      "armed": 5394,
      "lection": 5395,
      "lebr": 5396,
      "stag": 5397,
      "stared": 5398,
      "stares": 5399,
      "stitute": 5400,
      "nowhere": 5401,
      "seize": 5402,
      "meat": 5403,
      "melan": 5404,
      "cha": 5405,
      "chas": 5406,
      "chap": 5407,
      "chich": 5408,
      "beats": 5409,
      "rock": 5410,
      "rolled": 5411,
      "rocked": 5412,
      "rocking": 5413,
      "whim": 5414,
      "celebr": 5415,
      "tick": 5416,
      "veranda": 5417,
      "uted": 5418,
      "iments": 5419,
      "agen": 5420,
      "idel": 5421,
      "ayed": 5422,
      "entit": 5423,
      "allow": 5424,
      "adher": 5425,
      "unlikely": 5426,
      "uncondition": 5427,
      "unhappy": 5428,
      "unusually": 5429,
      "unfinished": 5430,
      "unfortunate": 5431,
      "omni": 5432,
      "accident": 5433,
      "activ": 5434,
      "rical": 5435,
      "ainted": 5436,
      "sul": 5437,
      "suspect": 5438,
      "outline": 5439,
      "nel": 5440,
      "urge": 5441,
      "urged": 5442,
      "fection": 5443,
      "fears": 5444,
      "usive": 5445,
      "load": 5446,
      "bute": 5447,
      "butcher": 5448,
      "contain": 5449,
      "ammelte": 5450,
      "wearily": 5451,
      "expen": 5452,
      "expressed": 5453,
      "exchanged": 5454,
      "shif": 5455,
      "shine": 5456,
      "shrank": 5457,
      "shuf": 5458,
      "ify": 5459,
      "trained": 5460,
      "appl": 5461,
      "apolog": 5462,
      "pol": 5463,
      "poison": 5464,
      "sailed": 5465,
      "indu": 5466,
      "indist": 5467,
      "manif": 5468,
      "management": 5469,
      "isten": 5470,
      "antas": 5471,
      "ulously": 5472,
      "perman": 5473,
      "perish": 5474,
      "perfun": 5475,
      "ustri": 5476,
      "foc": 5477,
      "aff": 5478,
      "afford": 5479,
      "comfor": 5480,
      "compreh": 5481,
      "composed": 5482,
      "comparat": 5483,
      "rescue": 5484,
      "tea": 5485,
      "teen": 5486,
      "illness": 5487,
      "prohib": 5488,
      "aught": 5489,
      "ittance": 5490,
      "longed": 5491,
      "longing": 5492,
      "blew": 5493,
      "holes": 5494,
      "ached": 5495,
      "Through": 5496,
      "Heaven": 5497,
      "prec": 5498,
      "prem": 5499,
      "presum": 5500,
      "olk": 5501,
      "blin": 5502,
      "aks": 5503,
      "earned": 5504,
      "clut": 5505,
      "class": 5506,
      "clung": 5507,
      "cluded": 5508,
      "grim": 5509,
      "gram": 5510,
      "reader": 5511,
      "spur": 5512,
      "spacious": 5513,
      "scent": 5514,
      "screw": 5515,
      "scene": 5516,
      "Whatever": 5517,
      "backed": 5518,
      "background": 5519,
      "Investig": 5520,
      "mustn": 5521,
      "reduced": 5522,
      "courty": 5523,
      "adequ": 5524,
      "beforehand": 5525,
      "flows": 5526,
      "rightly": 5527,
      "divan": 5528,
      "choly": 5529,
      "glit": 5530,
      "desks": 5531,
      "remn": 5532,
      "impulse": 5533,
      "lighten": 5534,
      "lighting": 5535,
      "certainty": 5536,
      "brary": 5537,
      "brushed": 5538,
      "passengers": 5539,
      "emp": 5540,
      "empire": 5541,
      "fathers": 5542,
      "needle": 5543,
      "needful": 5544,
      "izens": 5545,
      "carries": 5546,
      "menager": 5547,
      "silver": 5548,
      "senses": 5549,
      "reassu": 5550,
      "harder": 5551,
      "surd": 5552,
      "housemaid": 5553,
      "instinct": 5554,
      "kindly": 5555,
      "walks": 5556,
      "pile": 5557,
      "pipes": 5558,
      "gaily": 5559,
      "ugly": 5560,
      "admin": 5561,
      "admittance": 5562,
      "restling": 5563,
      "calling": 5564,
      "inces": 5565,
      "draws": 5566,
      "famous": 5567,
      "bestow": 5568,
      "tales": 5569,
      "crim": 5570,
      "crum": 5571,
      "cracking": 5572,
      "vision": 5573,
      "visiting": 5574,
      "watchers": 5575,
      "elsewhere": 5576,
      "listens": 5577,
      "decide": 5578,
      "1911": 5579,
      "1918": 5580,
      "misunderstanding": 5581,
      "genuine": 5582,
      "loosened": 5583,
      "versations": 5584,
      "businessman": 5585,
      "circl": 5586,
      "onds": 5587,
      "played": 5588,
      "Beg": 5589,
      "musical": 5590,
      "cheer": 5591,
      "insofar": 5592,
      "spoken": 5593,
      "tersburg": 5594,
      "directions": 5595,
      "temptation": 5596,
      "priest": 5597,
      "filling": 5598,
      "green": 5599,
      "ridge": 5600,
      "solid": 5601,
      "experiments": 5602,
      "assistance": 5603,
      "hopeless": 5604,
      "1965": 5605,
      "1966": 5606,
      "advance": 5607,
      "ashing": 5608,
      "ashes": 5609,
      "repair": 5610,
      "organ": 5611,
      "signs": 5612,
      "petty": 5613,
      "Always": 5614,
      "pursuit": 5615,
      "noticing": 5616,
      "submis": 5617,
      "namely": 5618,
      "venture": 5619,
      "lifts": 5620,
      "concerns": 5621,
      "stronger": 5622,
      "towns": 5623,
      "pensable": 5624,
      "sorrow": 5625,
      "acquainted": 5626,
      "suppose": 5627,
      "supposing": 5628,
      "opinions": 5629,
      "1921": 5630,
      "solely": 5631,
      "quarrel": 5632,
      "teachers": 5633,
      "vanishing": 5634,
      "changing": 5635,
      "benef": 5636,
      "squat": 5637,
      "deathbed": 5638,
      "Probably": 5639,
      "maintain": 5640,
      "promised": 5641,
      "ceiving": 5642,
      "disturbing": 5643,
      "acquaintances": 5644,
      "hungry": 5645,
      "brill": 5646,
      "judic": 5647,
      "marvel": 5648,
      "softly": 5649,
      "contradic": 5650,
      "postp": 5651,
      "literary": 5652,
      "sweet": 5653,
      "Someone": 5654,
      "Unfortunately": 5655,
      "grows": 5656,
      "necks": 5657,
      "189": 5658,
      "Arab": 5659,
      "tasks": 5660,
      "wishes": 5661,
      "respects": 5662,
      "awareness": 5663,
      "Baum": 5664,
      "schau": 5665,
      "schnap": 5666,
      "strikes": 5667,
      "nodding": 5668,
      "wildly": 5669,
      "reflections": 5670,
      "Bohem": 5671,
      "drops": 5672,
      "snif": 5673,
      "heavily": 5674,
      "hasty": 5675,
      "photograph": 5676,
      "lowering": 5677,
      "expectation": 5678,
      "employe": 5679,
      "Peking": 5680,
      "Petersburg": 5681,
      "eleven": 5682,
      "patience": 5683,
      "porary": 5684,
      "approached": 5685,
      "steal": 5686,
      "swinging": 5687,
      "departure": 5688,
      "responsible": 5689,
      "belonged": 5690,
      "effects": 5691,
      "smells": 5692,
      "Herr": 5693,
      "Stoker": 5694,
      "military": 5695,
      "plicant": 5696,
      "rustling": 5697,
      "remotest": 5698,
      "Bucket": 5699,
      "eagerly": 5700,
      "tranqu": 5701,
      "streaming": 5702,
      "obstacles": 5703,
      "greeted": 5704,
      "Gesammelte": 5705,
      "Indian": 5706,
      "Juda": 5707,
      "basis": 5708,
      "sacrific": 5709,
      "discussed": 5710,
      "occurs": 5711,
      "increased": 5712,
      "rubbing": 5713,
      "Hungerk": 5714,
      "faithful": 5715,
      "helplessly": 5716,
      "sympathy": 5717,
      "vacant": 5718,
      "issue": 5719,
      "stroke": 5720,
      "calculations": 5721,
      "sharply": 5722,
      "Janouch": 5723,
      "flick": 5724,
      "gallery": 5725,
      "gigantic": 5726,
      "purely": 5727,
      "healthy": 5728,
      "advocate": 5729,
      "courtesy": 5730,
      "snatched": 5731,
      "collapse": 5732,
      "professional": 5733,
      "intelligence": 5734,
      "Maybe": 5735,
      "Wilkins": 5736,
      "branch": 5737,
      "branches": 5738,
      "itzer": 5739,
      "stamping": 5740,
      "weeping": 5741,
      "explicit": 5742,
      "compelled": 5743,
      "preparation": 5744,
      "scratching": 5745,
      "delivered": 5746,
      "picked": 5747,
      "researches": 5748,
      "society": 5749,
      "confined": 5750,
      "indispensable": 5751,
      "authority": 5752,
      "intervene": 5753,
      "piano": 5754,
      "pianist": 5755,
      "Advoc": 5756,
      "Should": 5757,
      "citizens": 5758,
      "filthy": 5759,
      "refrain": 5760,
      "shovel": 5761,
      "comedy": 5762,
      "struggling": 5763,
      "relationship": 5764,
      "announcement": 5765,
      "translated": 5766,
      "According": 5767,
      "Supplicant": 5768,
      "furious": 5769,
      "punishment": 5770,
      "rarely": 5771,
      "swift": 5772,
      "instructions": 5773,
      "telephone": 5774,
      "Heinz": 5775,
      "Tomb": 5776,
      "dyn": 5777,
      "nailed": 5778,
      "cobbles": 5779,
      "perils": 5780,
      "comparison": 5781,
      "effective": 5782,
      "Children": 5783,
      "thoroughly": 5784,
      "majority": 5785,
      "European": 5786,
      "Babel": 5787,
      "Bibliography": 5788,
      "Sym": 5789,
      "double": 5790,
      "swallow": 5791,
      "escaped": 5792,
      "chtung": 5793,
      "abundance": 5794,
      "modern": 5795,
      "commercial": 5796,
      "holidays": 5797,
      "renziberg": 5798,
      "fiancée": 5799,
      "Klaus": 5800,
      "Politzer": 5801,
      "Sunday": 5802,
      "Tower": 5803,
      "WHEN": 5804,
      "dignity": 5805,
      "homes": 5806,
      "ashamed": 5807,
      "unavoidable": 5808,
      "abruptly": 5809,
      "Introductory": 5810,
      "philosoph": 5811,
      "April": 5812,
      "Eithne": 5813,
      "Family": 5814,
      "Gillemann": 5815,
      "Ltd": 5816,
      "Laurenziberg": 5817,
      "Naturally": 5818,
      "Rundschau": 5819,
      "Riva": 5820,
      "Window": 5821,
      "Yiddish": 5822,
      "paternal": 5823,
      "intellect": 5824,
      "melancholy": 5825,
      "adherents": 5826,
      "Investigations": 5827,
      "courtyard": 5828,
      "menagerie": 5829,
      "schnapps": 5830,
      ");": 5831,
      "84": 5832,
      "89": 5833,
      "Ab": 5834,
      "Ano": 5835,
      "Apart": 5836,
      "Born": 5837,
      "Bridge": 5838,
      "CT": 5839,
      "Could": 5840,
      "Clo": 5841,
      "City": 5842,
      "Cze": 5843,
      "Dream": 5844,
      "ES": 5845,
      "Ele": 5846,
      "Eng": 5847,
      "Fall": 5848,
      "Finally": 5849,
      "Folk": 5850,
      "Gr": 5851,
      "Gust": 5852,
      "Hu": 5853,
      "Ham": 5854,
      "Herman": 5855,
      "Haven": 5856,
      "Im": 5857,
      "Ill": 5858,
      "IES": 5859,
      "Jo": 5860,
      "Jack": 5861,
      "Mer": 5862,
      "Mess": 5863,
      "Mouse": 5864,
      "Next": 5865,
      "Ob": 5866,
      "Ott": 5867,
      "Odr": 5868,
      "PO": 5869,
      "Pall": 5870,
      "Pose": 5871,
      "Paul": 5872,
      "RA": 5873,
      "RE": 5874,
      "Res": 5875,
      "Rich": 5876,
      "Sir": 5877,
      "Squ": 5878,
      "Sum": 5879,
      "Slow": 5880,
      "Schel": 5881,
      "Tho": 5882,
      "Trees": 5883,
      "VE": 5884,
      "Vir": 5885,
      "Very": 5886,
      "Vien": 5887,
      "WE": 5888,
      "Wer": 5889,
      "Wor": 5890,
      "Wal": 5891,
      "Wom": 5892,
      "Were": 5893,
      "ait": 5894,
      "aut": 5895,
      "aired": 5896,
      "bind": 5897,
      "bach": 5898,
      "bang": 5899,
      "bund": 5900,
      "cass": 5901,
      "dance": 5902,
      "equ": 5903,
      "equal": 5904,
      "fab": 5905,
      "fish": 5906,
      "faster": 5907,
      "faded": 5908,
      "fasc": 5909,
      "gish": 5910,
      "gift": 5911,
      "hie": 5912,
      "hicle": 5913,
      "ito": 5914,
      "iated": 5915,
      "kic": 5916,
      "kick": 5917,
      "lf": 5918,
      "lust": 5919,
      "lorn": 5920,
      "mi": 5921,
      "mbers": 5922,
      "na": 5923,
      "nur": 5924,
      "nation": 5925,
      "nice": 5926,
      "pas": 5927,
      "pall": 5928,
      "pity": 5929,
      "pair": 5930,
      "pice": 5931,
      "praised": 5932,
      "pausing": 5933,
      "rat": 5934,
      "rist": 5935,
      "rack": 5936,
      "rung": 5937,
      "ratt": 5938,
      "sly": 5939,
      "swell": 5940,
      "sket": 5941,
      "source": 5942,
      "tin": 5943,
      "tation": 5944,
      "tite": 5945,
      "tren": 5946,
      "tax": 5947,
      "tapping": 5948,
      "taught": 5949,
      "uable": 5950,
      "uge": 5951,
      "ucted": 5952,
      "vul": 5953,
      "vation": 5954,
      "vaul": 5955,
      "witted": 5956,
      "zu": 5957,
      "thunder": 5958,
      "thless": 5959,
      "thresh": 5960,
      "thumb": 5961,
      "init": 5962,
      "inquired": 5963,
      "intimate": 5964,
      "intense": 5965,
      "inhab": 5966,
      "insensitive": 5967,
      "thetic": 5968,
      "thesis": 5969,
      "ont": 5970,
      "reen": 5971,
      "reed": 5972,
      "rear": 5973,
      "reve": 5974,
      "refer": 5975,
      "rejo": 5976,
      "review": 5977,
      "recollection": 5978,
      "atten": 5979,
      "ency": 5980,
      "asse": 5981,
      "asant": 5982,
      "asper": 5983,
      "asol": 5984,
      "assure": 5985,
      "aspect": 5986,
      "astray": 5987,
      "associ": 5988,
      "ality": 5989,
      "arched": 5990,
      "arrog": 5991,
      "heat": 5992,
      "hement": 5993,
      "stable": 5994,
      "nobles": 5995,
      "sea": 5996,
      "seats": 5997,
      "members": 5998,
      "chim": 5999,
      "charm": 6000,
      "chamber": 6001,
      "belt": 6002,
      "beards": 6003,
      "whir": 6004,
      "vehicle": 6005,
      "vehement": 6006,
      "tie": 6007,
      "tire": 6008,
      "tiveness": 6009,
      "hissing": 6010,
      "wig": 6011,
      "forgive": 6012,
      "forgiven": 6013,
      "forlorn": 6014,
      "llen": 6015,
      "utt": 6016,
      "impet": 6017,
      "ids": 6018,
      "idon": 6019,
      "soo": 6020,
      "ircle": 6021,
      "irref": 6022,
      "irregular": 6023,
      "myst": 6024,
      "myster": 6025,
      "adjust": 6026,
      "unning": 6027,
      "unnecessary": 6028,
      "uneasy": 6029,
      "unaware": 6030,
      "unimportant": 6031,
      "unchanged": 6032,
      "noted": 6033,
      "terday": 6034,
      "terms": 6035,
      "terrors": 6036,
      "abilities": 6037,
      "absurd": 6038,
      "susp": 6039,
      "mob": 6040,
      "mois": 6041,
      "nearest": 6042,
      "urgent": 6043,
      "loy": 6044,
      "lots": 6045,
      "losing": 6046,
      "local": 6047,
      "conven": 6048,
      "confron": 6049,
      "contained": 6050,
      "amiably": 6051,
      "icircle": 6052,
      "decl": 6053,
      "decor": 6054,
      "deci": 6055,
      "decks": 6056,
      "deception": 6057,
      "exit": 6058,
      "excus": 6059,
      "explo": 6060,
      "exert": 6061,
      "exasper": 6062,
      "shrin": 6063,
      "shrie": 6064,
      "shift": 6065,
      "Their": 6066,
      "quet": 6067,
      "ifying": 6068,
      "ups": 6069,
      "cop": 6070,
      "cock": 6071,
      "odd": 6072,
      "pool": 6073,
      "potent": 6074,
      "ulation": 6075,
      "ulsive": 6076,
      "ultimate": 6077,
      "pered": 6078,
      "perceive": 6079,
      "permitted": 6080,
      "asty": 6081,
      "ardent": 6082,
      "goings": 6083,
      "iles": 6084,
      "oped": 6085,
      "oples": 6086,
      "afar": 6087,
      "affected": 6088,
      "plate": 6089,
      "worried": 6090,
      "epi": 6091,
      "anybody": 6092,
      "proc": 6093,
      "prose": 6094,
      "proves": 6095,
      "prodig": 6096,
      "problem": 6097,
      "endur": 6098,
      "umber": 6099,
      "estri": 6100,
      "hasn": 6101,
      "ishly": 6102,
      "sip": 6103,
      "sily": 6104,
      "holy": 6105,
      "achim": 6106,
      "arted": 6107,
      "artistic": 6108,
      "eless": 6109,
      "posion": 6110,
      "foreseen": 6111,
      "stock": 6112,
      "inev": 6113,
      "preced": 6114,
      "preoccupied": 6115,
      "bless": 6116,
      "region": 6117,
      "tension": 6118,
      "clinging": 6119,
      "bore": 6120,
      "bold": 6121,
      "underestim": 6122,
      "span": 6123,
      "spared": 6124,
      "scen": 6125,
      "scutt": 6126,
      "disper": 6127,
      "dislike": 6128,
      "disease": 6129,
      "medal": 6130,
      "preser": 6131,
      "pressure": 6132,
      "Inc": 6133,
      "Into": 6134,
      "Insurance": 6135,
      "Institute": 6136,
      "cern": 6137,
      "adek": 6138,
      "stride": 6139,
      "eyel": 6140,
      "begging": 6141,
      "beggar": 6142,
      "prise": 6143,
      "rights": 6144,
      "smith": 6145,
      "dike": 6146,
      "diary": 6147,
      "afternoon": 6148,
      "slim": 6149,
      "gles": 6150,
      "desired": 6151,
      "awk": 6152,
      "newcom": 6153,
      "lighted": 6154,
      "bert": 6155,
      "bedside": 6156,
      "singer": 6157,
      "clothing": 6158,
      "parasol": 6159,
      "brand": 6160,
      "brac": 6161,
      "anger": 6162,
      "Note": 6163,
      "ferred": 6164,
      "helm": 6165,
      "cleared": 6166,
      "breed": 6167,
      "mighty": 6168,
      "izing": 6169,
      "ization": 6170,
      "appetite": 6171,
      "thinkable": 6172,
      "carcass": 6173,
      "dense": 6174,
      "denied": 6175,
      "udder": 6176,
      "udge": 6177,
      "fortnight": 6178,
      "quivering": 6179,
      "intently": 6180,
      "maybe": 6181,
      "silk": 6182,
      "silly": 6183,
      "realizes": 6184,
      "msman": 6185,
      "survi": 6186,
      "surrend": 6187,
      "questioning": 6188,
      "instler": 6189,
      "wax": 6190,
      "waits": 6191,
      "waving": 6192,
      "friendship": 6193,
      "ski": 6194,
      "skull": 6195,
      "sider": 6196,
      "sided": 6197,
      "completed": 6198,
      "admon": 6199,
      "admired": 6200,
      "admission": 6201,
      "conduct": 6202,
      "conducted": 6203,
      "weren": 6204,
      "rests": 6205,
      "restri": 6206,
      "restless": 6207,
      "restlessness": 6208,
      "career": 6209,
      "services": 6210,
      "believes": 6211,
      "tells": 6212,
      "grounds": 6213,
      "foundations": 6214,
      "joint": 6215,
      "monot": 6216,
      "vivac": 6217,
      "probable": 6218,
      "remaining": 6219,
      "sooner": 6220,
      "pedestri": 6221,
      "cram": 6222,
      "crushed": 6223,
      "confid": 6224,
      "guilt": 6225,
      "sons": 6226,
      "WAS": 6227,
      "refresh": 6228,
      "refuge": 6229,
      "1916": 6230,
      "1954": 6231,
      "answering": 6232,
      "gency": 6233,
      "invented": 6234,
      "ultane": 6235,
      "compens": 6236,
      "younger": 6237,
      "suffers": 6238,
      "mering": 6239,
      "reaching": 6240,
      "Edited": 6241,
      "Eduard": 6242,
      "century": 6243,
      "circus": 6244,
      "stays": 6245,
      "muscles": 6246,
      "appearances": 6247,
      "spoiled": 6248,
      "directed": 6249,
      "drives": 6250,
      "prices": 6251,
      "generations": 6252,
      "1963": 6253,
      "1969": 6254,
      "Christ": 6255,
      "relations": 6256,
      "troubles": 6257,
      "continual": 6258,
      "valuable": 6259,
      "tively": 6260,
      "eyebrows": 6261,
      "painfully": 6262,
      "secondary": 6263,
      "bitter": 6264,
      "laughs": 6265,
      "Also": 6266,
      "submitted": 6267,
      "Does": 6268,
      "gravest": 6269,
      "ruly": 6270,
      "simultane": 6271,
      "concert": 6272,
      "accordingly": 6273,
      "respite": 6274,
      "faced": 6275,
      "factory": 6276,
      "complained": 6277,
      "1920": 6278,
      "vols": 6279,
      "voluntarily": 6280,
      "surprising": 6281,
      "touching": 6282,
      "Conf": 6283,
      "Conversations": 6284,
      "comfortably": 6285,
      "Notes": 6286,
      "HAVE": 6287,
      "landscape": 6288,
      "grownups": 6289,
      "committed": 6290,
      "Prosa": 6291,
      "numbers": 6292,
      "Isn": 6293,
      "ffed": 6294,
      "hunter": 6295,
      "attempted": 6296,
      "personally": 6297,
      "learns": 6298,
      "meeting": 6299,
      "laborious": 6300,
      "Dietz": 6301,
      "soft": 6302,
      "hallway": 6303,
      "sweat": 6304,
      "tremble": 6305,
      "warmth": 6306,
      "Until": 6307,
      "secure": 6308,
      "semicircle": 6309,
      "1931": 6310,
      "1934": 6311,
      "sufferings": 6312,
      "knocked": 6313,
      "sticks": 6314,
      "circular": 6315,
      "prevents": 6316,
      "barking": 6317,
      "dropped": 6318,
      "shade": 6319,
      "shadows": 6320,
      "Paradox": 6321,
      "Stre": 6322,
      "enjoyed": 6323,
      "searching": 6324,
      "occasional": 6325,
      "Accident": 6326,
      "railings": 6327,
      "sunk": 6328,
      "resolve": 6329,
      "cleaning": 6330,
      "mentioning": 6331,
      "connected": 6332,
      "precipice": 6333,
      "occupation": 6334,
      "carriageway": 6335,
      "regularly": 6336,
      "claims": 6337,
      "approaching": 6338,
      "secretly": 6339,
      "Mosaic": 6340,
      "agreeable": 6341,
      "shops": 6342,
      "guarded": 6343,
      "involves": 6344,
      "...": 6345,
      "steadily": 6346,
      "enterprise": 6347,
      "divined": 6348,
      "supporters": 6349,
      "Manuscript": 6350,
      "Manito": 6351,
      "Qui": 6352,
      "belongs": 6353,
      "newspapers": 6354,
      "wondering": 6355,
      "casually": 6356,
      "twitching": 6357,
      "safety": 6358,
      "praying": 6359,
      "Letters": 6360,
      "ORS": 6361,
      "throats": 6362,
      "investigated": 6363,
      "practic": 6364,
      "practical": 6365,
      "insisted": 6366,
      "insistence": 6367,
      "crooked": 6368,
      "development": 6369,
      "experimental": 6370,
      "complaining": 6371,
      "Buber": 6372,
      "Between": 6373,
      "Life": 6374,
      "obstacle": 6375,
      "senselessly": 6376,
      "greeting": 6377,
      "greetings": 6378,
      "significance": 6379,
      "Excursion": 6380,
      "balance": 6381,
      "threaten": 6382,
      "threatened": 6383,
      "proofs": 6384,
      "discuss": 6385,
      "discussing": 6386,
      "occurred": 6387,
      "rubbed": 6388,
      "Among": 6389,
      "Updike": 6390,
      "burned": 6391,
      "1971": 6392,
      "sighing": 6393,
      "Julie": 6394,
      "lucky": 6395,
      "magaz": 6396,
      "uncertainty": 6397,
      "convince": 6398,
      "hostess": 6399,
      "hostility": 6400,
      "alternative": 6401,
      "student": 6402,
      "ghosts": 6403,
      "exaggerate": 6404,
      "hesitated": 6405,
      "rades": 6406,
      "terribly": 6407,
      "astonishing": 6408,
      "astonishment": 6409,
      "folds": 6410,
      "folded": 6411,
      "preferred": 6412,
      "ignored": 6413,
      "corridor": 6414,
      "correspondence": 6415,
      "ceased": 6416,
      "exercise": 6417,
      "quality": 6418,
      "plainly": 6419,
      "prevail": 6420,
      "summoned": 6421,
      "collapsed": 6422,
      "wanderings": 6423,
      "Willy": 6424,
      "splend": 6425,
      "tolerate": 6426,
      "novels": 6427,
      "perpetual": 6428,
      "preparing": 6429,
      "flourishes": 6430,
      "describing": 6431,
      "Friedrichspark": 6432,
      "suggested": 6433,
      "damaged": 6434,
      "dawn": 6435,
      "fifth": 6436,
      "nourishment": 6437,
      "ruler": 6438,
      "instrument": 6439,
      "confining": 6440,
      "prospects": 6441,
      "divert": 6442,
      "distribution": 6443,
      "timidly": 6444,
      "gasse": 6445,
      "ceptive": 6446,
      "ceptible": 6447,
      "expedition": 6448,
      "introduction": 6449,
      "surveyed": 6450,
      "strengthened": 6451,
      "strengthening": 6452,
      "Accordingly": 6453,
      "twisted": 6454,
      "stubbornly": 6455,
      "frankly": 6456,
      "assumption": 6457,
      "noisily": 6458,
      "sailors": 6459,
      "prophe": 6460,
      "propag": 6461,
      "handkerchiefs": 6462,
      "distracted": 6463,
      "descend": 6464,
      "relatively": 6465,
      "relatives": 6466,
      "ceremony": 6467,
      "Haas": 6468,
      "Nachlass": 6469,
      "style": 6470,
      "improvement": 6471,
      "demonstr": 6472,
      "excessive": 6473,
      "platform": 6474,
      "spells": 6475,
      "institutions": 6476,
      "windowpanes": 6477,
      "incantation": 6478,
      "complicated": 6479,
      "structure": 6480,
      "supervisors": 6481,
      "communication": 6482,
      "Workers": 6483,
      "bouts": 6484,
      "statue": 6485,
      "concentration": 6486,
      "amusement": 6487,
      "cogwheels": 6488,
      "earnest": 6489,
      "slammed": 6490,
      "impeded": 6491,
      "reluctance": 6492,
      "hypothesis": 6493,
      "Moreover": 6494,
      "irresistible": 6495,
      "Panza": 6496,
      "Sancho": 6497,
      "ecst": 6498,
      "elegant": 6499,
      "rhythm": 6500,
      "samples": 6501,
      "wisdom": 6502,
      "sticking": 6503,
      "security": 6504,
      "accosted": 6505,
      "conspicuous": 6506,
      "cautiously": 6507,
      "desperate": 6508,
      "crisis": 6509,
      "American": 6510,
      "deliberately": 6511,
      "balcony": 6512,
      "sleeve": 6513,
      "Crossbreed": 6514,
      "Imperial": 6515,
      "Look": 6516,
      "Ludwig": 6517,
      "Road": 6518,
      "Robert": 6519,
      "Time": 6520,
      "dangling": 6521,
      "inexplicable": 6522,
      "anteroom": 6523,
      "revenge": 6524,
      "chamois": 6525,
      "chasing": 6526,
      "chapter": 6527,
      "omnibus": 6528,
      "applause": 6529,
      "indubit": 6530,
      "manifold": 6531,
      "comforted": 6532,
      "teahouse": 6533,
      "prohibition": 6534,
      "adequate": 6535,
      "remnants": 6536,
      "lightenment": 6537,
      "emphas": 6538,
      "reassured": 6539,
      "Bohemia": 6540,
      "tranquility": 6541,
      "Judaism": 6542,
      "shovelful": 6543,
      "Symposion": 6544,
      "intellectual": 6545,
      "Another": 6546,
      "Clothes": 6547,
      "Czech": 6548,
      "Gustav": 6549,
      "Joachim": 6550,
      "Jackals": 6551,
      "Message": 6552,
      "Ottla": 6553,
      "Odradek": 6554,
      "Pallas": 6555,
      "Poseidon": 6556,
      "Resolutions": 6557,
      "Square": 6558,
      "Slowly": 6559,
      "Schelesen": 6560,
      "Those": 6561,
      "Virgin": 6562,
      "Vienna": 6563,
      "Woman": 6564,
      "bundle": 6565,
      "kicked": 6566,
      "rattling": 6567,
      "trenches": 6568,
      "vaulted": 6569,
      "inhabited": 6570,
      "impetus": 6571,
      "irrefut": 6572,
      "excuses": 6573,
      "Christmas": 6574,
      "simultaneously": 6575,
      "Manitoba": 6576,
      "34": 6577,
      "51": 6578,
      "56": 6579,
      "66": 6580,
      "67": 6581,
      "77": 6582,
      "AL": 6583,
      "Av": 6584,
      "Abo": 6585,
      "Aren": 6586,
      "BL": 6587,
      "Cz": 6588,
      "Cares": 6589,
      "D7": 6590,
      "Drit": 6591,
      "Eld": 6592,
      "End": 6593,
      "Easter": 6594,
      "Fre": 6595,
      "Far": 6596,
      "Fic": 6597,
      "Gu": 6598,
      "Gall": 6599,
      "Gate": 6600,
      "Gener": 6601,
      "Giant": 6602,
      "Glat": 6603,
      "Green": 6604,
      "Hy": 6605,
      "Hur": 6606,
      "IF": 6607,
      "IX": 6608,
      "Ir": 6609,
      "ION": 6610,
      "Jour": 6611,
      "KS": 6612,
      "Kar": 6613,
      "Kleine": 6614,
      "LX": 6615,
      "La": 6616,
      "Luck": 6617,
      "Laws": 6618,
      "Language": 6619,
      "Med": 6620,
      "Mine": 6621,
      "Mem": 6622,
      "MAN": 6623,
      "Nah": 6624,
      "OG": 6625,
      "OW": 6626,
      "OUR": 6627,
      "PH": 6628,
      "Pos": 6629,
      "Phi": 6630,
      "Ru": 6631,
      "Row": 6632,
      "Right": 6633,
      "Rot": 6634,
      "Sp": 6635,
      "Ser": 6636,
      "Shall": 6637,
      "Sons": 6638,
      "Sport": 6639,
      "Selb": 6640,
      "Sorrow": 6641,
      "TR": 6642,
      "Te": 6643,
      "Ten": 6644,
      "Tage": 6645,
      "Top": 6646,
      "Tra": 6647,
      "Try": 6648,
      "Und": 6649,
      "Vis": 6650,
      "Vor": 6651,
      "Won": 6652,
      "War": 6653,
      "WOR": 6654,
      "Wait": 6655,
      "Zu": 6656,
      "Zwe": 6657,
      "];": 6658,
      "aign": 6659,
      "auty": 6660,
      "bits": 6661,
      "bony": 6662,
      "bends": 6663,
      "brace": 6664,
      "blocked": 6665,
      "cab": 6666,
      "cil": 6667,
      "cig": 6668,
      "cies": 6669,
      "ctor": 6670,
      "cries": 6671,
      "cash": 6672,
      "cards": 6673,
      "culture": 6674,
      "cunning": 6675,
      "din": 6676,
      "duck": 6677,
      "dumb": 6678,
      "een": 6679,
      "econ": 6680,
      "fare": 6681,
      "fts": 6682,
      "farm": 6683,
      "flies": 6684,
      "fidel": 6685,
      "fantas": 6686,
      "gation": 6687,
      "gang": 6688,
      "gments": 6689,
      "hen": 6690,
      "hil": 6691,
      "hate": 6692,
      "hud": 6693,
      "hint": 6694,
      "harrow": 6695,
      "ires": 6696,
      "iinstler": 6697,
      "ji": 6698,
      "jest": 6699,
      "knot": 6700,
      "kleine": 6701,
      "lur": 6702,
      "mou": 6703,
      "mun": 6704,
      "mers": 6705,
      "mied": 6706,
      "mult": 6707,
      "nin": 6708,
      "nay": 6709,
      "nause": 6710,
      "ore": 6711,
      "oke": 6712,
      "ode": 6713,
      "ote": 6714,
      "obl": 6715,
      "pon": 6716,
      "pto": 6717,
      "pap": 6718,
      "pend": 6719,
      "pite": 6720,
      "pig": 6721,
      "pace": 6722,
      "pick": 6723,
      "pitch": 6724,
      "paces": 6725,
      "rout": 6726,
      "rated": 6727,
      "rade": 6728,
      "rings": 6729,
      "rays": 6730,
      "rattle": 6731,
      "ssing": 6732,
      "sang": 6733,
      "sources": 6734,
      "ton": 6735,
      "tes": 6736,
      "tack": 6737,
      "text": 6738,
      "twel": 6739,
      "uno": 6740,
      "uber": 6741,
      "ufact": 6742,
      "udies": 6743,
      "vable": 6744,
      "viously": 6745,
      "wat": 6746,
      "waf": 6747,
      "waking": 6748,
      "wars": 6749,
      "wrig": 6750,
      "wedding": 6751,
      "wrestling": 6752,
      "xim": 6753,
      "xvi": 6754,
      "yard": 6755,
      "zy": 6756,
      "zwe": 6757,
      "’;": 6758,
      "thither": 6759,
      "inated": 6760,
      "inspe": 6761,
      "intru": 6762,
      "inery": 6763,
      "infli": 6764,
      "inwardly": 6765,
      "inadequate": 6766,
      "theus": 6767,
      "ange": 6768,
      "erate": 6769,
      "ona": 6770,
      "reli": 6771,
      "restr": 6772,
      "reward": 6773,
      "rease": 6774,
      "recourse": 6775,
      "resem": 6776,
      "reference": 6777,
      "attain": 6778,
      "ench": 6779,
      "ende": 6780,
      "enched": 6781,
      "enetr": 6782,
      "envy": 6783,
      "tool": 6784,
      "eds": 6785,
      "educ": 6786,
      "edges": 6787,
      "asy": 6788,
      "assail": 6789,
      "ander": 6790,
      "orous": 6791,
      "ories": 6792,
      "orches": 6793,
      "itively": 6794,
      "este": 6795,
      "estern": 6796,
      "estimate": 6797,
      "alle": 6798,
      "alus": 6799,
      "alert": 6800,
      "alike": 6801,
      "arity": 6802,
      "artic": 6803,
      "argu": 6804,
      "argue": 6805,
      "aroused": 6806,
      "hea": 6807,
      "lever": 6808,
      "lemen": 6809,
      "stim": 6810,
      "stained": 6811,
      "staff": 6812,
      "sections": 6813,
      "secre": 6814,
      "seizes": 6815,
      "sewing": 6816,
      "mead": 6817,
      "meals": 6818,
      "metheus": 6819,
      "chill": 6820,
      "chose": 6821,
      "chanced": 6822,
      "bef": 6823,
      "bei": 6824,
      "bewild": 6825,
      "beauty": 6826,
      "hap": 6827,
      "roar": 6828,
      "rocks": 6829,
      "ceph": 6830,
      "tiring": 6831,
      "tibly": 6832,
      "vered": 6833,
      "wid": 6834,
      "wiped": 6835,
      "utters": 6836,
      "image": 6837,
      "imposed": 6838,
      "idle": 6839,
      "soles": 6840,
      "entreat": 6841,
      "allows": 6842,
      "allowing": 6843,
      "ading": 6844,
      "adhlungen": 6845,
      "withstand": 6846,
      "withdrawn": 6847,
      "unlike": 6848,
      "unless": 6849,
      "uncor": 6850,
      "unnoticed": 6851,
      "uncomm": 6852,
      "unnatural": 6853,
      "untouched": 6854,
      "unfamiliar": 6855,
      "unworthy": 6856,
      "unmistak": 6857,
      "uninterrupted": 6858,
      "unwilling": 6859,
      "unendur": 6860,
      "unthinkable": 6861,
      "lime": 6862,
      "accomp": 6863,
      "rift": 6864,
      "term": 6865,
      "tery": 6866,
      "tering": 6867,
      "terrif": 6868,
      "abom": 6869,
      "abled": 6870,
      "abuse": 6871,
      "abroad": 6872,
      "thern": 6873,
      "supre": 6874,
      "sult": 6875,
      "mode": 6876,
      "moist": 6877,
      "outcome": 6878,
      "outward": 6879,
      "outburst": 6880,
      "keener": 6881,
      "nels": 6882,
      "peer": 6883,
      "peter": 6884,
      "peasant": 6885,
      "peoples": 6886,
      "urity": 6887,
      "feather": 6888,
      "loc": 6889,
      "lored": 6890,
      "essence": 6891,
      "conver": 6892,
      "consum": 6893,
      "confirm": 6894,
      "console": 6895,
      "concre": 6896,
      "amer": 6897,
      "ambig": 6898,
      "deleg": 6899,
      "devi": 6900,
      "exh": 6901,
      "exchange": 6902,
      "expressing": 6903,
      "external": 6904,
      "shy": 6905,
      "shudder": 6906,
      "quis": 6907,
      "iful": 6908,
      "coin": 6909,
      "cook": 6910,
      "appre": 6911,
      "aphor": 6912,
      "apron": 6913,
      "oding": 6914,
      "pot": 6915,
      "sav": 6916,
      "saved": 6917,
      "indire": 6918,
      "ventil": 6919,
      "manor": 6920,
      "ulating": 6921,
      "perion": 6922,
      "perors": 6923,
      "permis": 6924,
      "fog": 6925,
      "oping": 6926,
      "oppon": 6927,
      "afer": 6928,
      "affect": 6929,
      "comment": 6930,
      "comrades": 6931,
      "plaus": 6932,
      "pledged": 6933,
      "tearing": 6934,
      "illum": 6935,
      "illusion": 6936,
      "owness": 6937,
      "rael": 6938,
      "eps": 6939,
      "anymore": 6940,
      "anywhere": 6941,
      "propped": 6942,
      "sheets": 6943,
      "umn": 6944,
      "umped": 6945,
      "seeking": 6946,
      "favo": 6947,
      "failing": 6948,
      "rances": 6949,
      "itect": 6950,
      "hosp": 6951,
      "okes": 6952,
      "eling": 6953,
      "elbow": 6954,
      "handled": 6955,
      "asser": 6956,
      "foreword": 6957,
      "howled": 6958,
      "Thank": 6959,
      "stove": 6960,
      "stops": 6961,
      "premon": 6962,
      "pretense": 6963,
      "predic": 6964,
      "offers": 6965,
      "offense": 6966,
      "blest": 6967,
      "regions": 6968,
      "downstairs": 6969,
      "downhill": 6970,
      "earning": 6971,
      "tensive": 6972,
      "cler": 6973,
      "clam": 6974,
      "clapped": 6975,
      "clenched": 6976,
      "clarity": 6977,
      "grain": 6978,
      "psy": 6979,
      "boso": 6980,
      "bored": 6981,
      "boards": 6982,
      "boots": 6983,
      "underwear": 6984,
      "spin": 6985,
      "spat": 6986,
      "spinning": 6987,
      "sciss": 6988,
      "scale": 6989,
      "disc": 6990,
      "disappeared": 6991,
      "discomfort": 6992,
      "disposed": 6993,
      "discontent": 6994,
      "disappears": 6995,
      "disgrace": 6996,
      "discern": 6997,
      "doorpost": 6998,
      "doorbell": 6999,
      "plete": 7000,
      "Whence": 7001,
      "Which": 7002,
      "backwards": 7003,
      "daylight": 7004,
      "meditation": 7005,
      "Included": 7006,
      "wore": 7007,
      "mud": 7008,
      "strides": 7009,
      "greatcoat": 7010,
      "eyed": 7011,
      "justified": 7012,
      "flushed": 7013,
      "pride": 7014,
      "obtain": 7015,
      "diale": 7016,
      "dialo": 7017,
      "tsch": 7018,
      "slinking": 7019,
      "slumber": 7020,
      "slowness": 7021,
      "glimp": 7022,
      "desir": 7023,
      "desert": 7024,
      "sertation": 7025,
      "awa": 7026,
      "remar": 7027,
      "nothingness": 7028,
      "impud": 7029,
      "impenetr": 7030,
      "bury": 7031,
      "phr": 7032,
      "worker": 7033,
      "workers": 7034,
      "distress": 7035,
      "closing": 7036,
      "paraly": 7037,
      "brass": 7038,
      "bride": 7039,
      "emph": 7040,
      "embell": 7041,
      "embrace": 7042,
      "emperors": 7043,
      "dogdom": 7044,
      "camel": 7045,
      "thoughtfully": 7046,
      "winding": 7047,
      "goods": 7048,
      "ficial": 7049,
      "lasted": 7050,
      "rence": 7051,
      "menaces": 7052,
      "licking": 7053,
      "licity": 7054,
      "parted": 7055,
      "handsha": 7056,
      "torments": 7057,
      "torture": 7058,
      "understands": 7059,
      "Schoeps": 7060,
      "instant": 7061,
      "instantly": 7062,
      "legends": 7063,
      "mothers": 7064,
      "formality": 7065,
      "gait": 7066,
      "gazes": 7067,
      "lowest": 7068,
      "indefatig": 7069,
      "independ": 7070,
      "gnaw": 7071,
      "busied": 7072,
      "increase": 7073,
      "drawbacks": 7074,
      "sisters": 7075,
      "joined": 7076,
      "talks": 7077,
      "attending": 7078,
      "attended": 7079,
      "attached": 7080,
      "crou": 7081,
      "guile": 7082,
      "cursed": 7083,
      "curled": 7084,
      "shafts": 7085,
      "listener": 7086,
      "zeal": 7087,
      "decrees": 7088,
      "layer": 7089,
      "missed": 7090,
      "misfortune": 7091,
      "1959": 7092,
      "calmed": 7093,
      "events": 7094,
      "north": 7095,
      "halfway": 7096,
      "inviting": 7097,
      "compulsion": 7098,
      "captain": 7099,
      "loosen": 7100,
      "simplicity": 7101,
      "jection": 7102,
      "pointless": 7103,
      "xture": 7104,
      "Much": 7105,
      "float": 7106,
      "darkened": 7107,
      "Coming": 7108,
      "Complete": 7109,
      "positions": 7110,
      "aval": 7111,
      "checked": 7112,
      "insight": 7113,
      "differently": 7114,
      "ancestors": 7115,
      "priate": 7116,
      "extend": 7117,
      "riding": 7118,
      "riddle": 7119,
      "solution": 7120,
      "expert": 7121,
      "publicly": 7122,
      "publicity": 7123,
      "necessarily": 7124,
      "ERI": 7125,
      "1960": 7126,
      "1964": 7127,
      "1967": 7128,
      "considerations": 7129,
      "advent": 7130,
      "advancing": 7131,
      "amply": 7132,
      "musicians": 7133,
      "horiz": 7134,
      "watering": 7135,
      "architect": 7136,
      "continually": 7137,
      "builders": 7138,
      "colleague": 7139,
      "painted": 7140,
      "trial": 7141,
      "locksmith": 7142,
      "suppress": 7143,
      "ibid": 7144,
      "risen": 7145,
      "channel": 7146,
      "Despite": 7147,
      "simpl": 7148,
      "concern": 7149,
      "approved": 7150,
      "appropriate": 7151,
      "provides": 7152,
      "provinces": 7153,
      "facing": 7154,
      "pencil": 7155,
      "widely": 7156,
      "complac": 7157,
      "complaint": 7158,
      "surprises": 7159,
      "midnight": 7160,
      "synago": 7161,
      "touches": 7162,
      "objective": 7163,
      "Conn": 7164,
      "flee": 7165,
      "shoes": 7166,
      "apses": 7167,
      "bigger": 7168,
      "lands": 7169,
      "landed": 7170,
      "landing": 7171,
      "pallet": 7172,
      "creaked": 7173,
      "sque": 7174,
      "commend": 7175,
      "recognizes": 7176,
      "Prometheus": 7177,
      "honored": 7178,
      "maintained": 7179,
      "ceives": 7180,
      "weakly": 7181,
      "pretend": 7182,
      "Israel": 7183,
      "Leo": 7184,
      "duties": 7185,
      "regards": 7186,
      "laboring": 7187,
      "laborers": 7188,
      "STOR": 7189,
      "marked": 7190,
      "married": 7191,
      "machinery": 7192,
      "imagination": 7193,
      "apparent": 7194,
      "literature": 7195,
      "catching": 7196,
      "warmly": 7197,
      "journeys": 7198,
      "Schmied": 7199,
      "hats": 7200,
      "hatred": 7201,
      "184": 7202,
      "hearts": 7203,
      "1930": 7204,
      "violent": 7205,
      "violence": 7206,
      "violently": 7207,
      "limit": 7208,
      "raced": 7209,
      "includes": 7210,
      "strike": 7211,
      "feebly": 7212,
      "possessed": 7213,
      "possesses": 7214,
      "humili": 7215,
      "sixty": 7216,
      "barred": 7217,
      "eker": 7218,
      "defen": 7219,
      "transferred": 7220,
      "fluous": 7221,
      "Studies": 7222,
      "paths": 7223,
      "snapping": 7224,
      "vices": 7225,
      "enjoyment": 7226,
      "forgets": 7227,
      "performed": 7228,
      "protected": 7229,
      "youthful": 7230,
      "Dearest": 7231,
      "harmful": 7232,
      "harmless": 7233,
      "harmony": 7234,
      "iency": 7235,
      "sinking": 7236,
      "yelled": 7237,
      "yesterday": 7238,
      "comprehension": 7239,
      "comprehensive": 7240,
      "planning": 7241,
      "cleanliness": 7242,
      "fancies": 7243,
      "inguisha": 7244,
      "assured": 7245,
      "connections": 7246,
      "occupy": 7247,
      "Peter": 7248,
      "element": 7249,
      "elements": 7250,
      "portions": 7251,
      "trapezes": 7252,
      "briefly": 7253,
      "briefest": 7254,
      "Erzadhlungen": 7255,
      "Mole": 7256,
      "spreading": 7257,
      "steer": 7258,
      "memories": 7259,
      "welcomed": 7260,
      "involve": 7261,
      "performances": 7262,
      "Enough": 7263,
      "draft": 7264,
      "swing": 7265,
      "notebook": 7266,
      "notebooks": 7267,
      "discoveries": 7268,
      "explaining": 7269,
      "Manor": 7270,
      "North": 7271,
      "casting": 7272,
      "messengers": 7273,
      "measure": 7274,
      "exhaustion": 7275,
      "establish": 7276,
      "establishing": 7277,
      "earliest": 7278,
      "wondered": 7279,
      "wonderful": 7280,
      "honorable": 7281,
      "disturbs": 7282,
      "casual": 7283,
      "osten": 7284,
      "twit": 7285,
      "influential": 7286,
      "influenced": 7287,
      "recup": 7288,
      "heights": 7289,
      "favorable": 7290,
      "prepare": 7291,
      "prayed": 7292,
      "Letter": 7293,
      "throws": 7294,
      "investigations": 7295,
      "assemble": 7296,
      "stationed": 7297,
      "separate": 7298,
      "queer": 7299,
      "interruption": 7300,
      "hurrying": 7301,
      "average": 7302,
      "gateway": 7303,
      "miles": 7304,
      "develop": 7305,
      "developing": 7306,
      "1904": 7307,
      "surrounding": 7308,
      "surroundings": 7309,
      "Buceph": 7310,
      "Neighbor": 7311,
      "Needless": 7312,
      "depend": 7313,
      "appreciation": 7314,
      "senselessness": 7315,
      "schoolmasters": 7316,
      "Excuse": 7317,
      "Gesetz": 7318,
      "Geschich": 7319,
      "banks": 7320,
      "banister": 7321,
      "based": 7322,
      "function": 7323,
      "garment": 7324,
      "mingled": 7325,
      "sacred": 7326,
      "ucing": 7327,
      "threatening": 7328,
      "examine": 7329,
      "examination": 7330,
      "trouser": 7331,
      "occurrence": 7332,
      "masses": 7333,
      "sighed": 7334,
      "deserves": 7335,
      "deserved": 7336,
      "helplessness": 7337,
      "stretcher": 7338,
      "symbol": 7339,
      "Market": 7340,
      "frightened": 7341,
      "vacancy": 7342,
      "innermost": 7343,
      "stroked": 7344,
      "forthcoming": 7345,
      "loosely": 7346,
      "distinction": 7347,
      "distinctions": 7348,
      "pulling": 7349,
      "incapacity": 7350,
      "peculiarities": 7351,
      "Jews": 7352,
      "ctorily": 7353,
      "credible": 7354,
      "ironically": 7355,
      "untary": 7356,
      "constantly": 7357,
      "exaggerating": 7358,
      "foolish": 7359,
      "blindly": 7360,
      "hesitate": 7361,
      "hesitates": 7362,
      "EDIT": 7363,
      "Second": 7364,
      "Seeker": 7365,
      "radiance": 7366,
      "twilight": 7367,
      "vainly": 7368,
      "inkling": 7369,
      "suspicious": 7370,
      "suspicions": 7371,
      "devotion": 7372,
      "apprehensive": 7373,
      "astonished": 7374,
      "tormented": 7375,
      "tormenting": 7376,
      "gathering": 7377,
      "refusing": 7378,
      "customer": 7379,
      "wretchedly": 7380,
      "AND": 7381,
      "fainting": 7382,
      "encourage": 7383,
      "apply": 7384,
      "storey": 7385,
      "screamed": 7386,
      "disappointed": 7387,
      "flower": 7388,
      "settle": 7389,
      "admiration": 7390,
      "admirable": 7391,
      "persistent": 7392,
      "pathetic": 7393,
      "trot": 7394,
      "stamped": 7395,
      "modesty": 7396,
      "contemporary": 7397,
      "amaze": 7398,
      "coaldealer": 7399,
      "compel": 7400,
      "forests": 7401,
      "flourishing": 7402,
      "describe": 7403,
      "pursued": 7404,
      "scratched": 7405,
      "Otherwise": 7406,
      "fifty": 7407,
      "accomplish": 7408,
      "accomplished": 7409,
      "devout": 7410,
      "district": 7411,
      "intervention": 7412,
      "scrutiny": 7413,
      "creeping": 7414,
      "smoothly": 7415,
      "fundamentally": 7416,
      "birth": 7417,
      "birds": 7418,
      "citizen": 7419,
      "campaign": 7420,
      "rumor": 7421,
      "refrained": 7422,
      "delusion": 7423,
      "expedient": 7424,
      "blanket": 7425,
      "strayed": 7426,
      "fluttered": 7427,
      "fluttering": 7428,
      "awaken": 7429,
      "awakened": 7430,
      "available": 7431,
      "brothers": 7432,
      "indifferently": 7433,
      "vigilance": 7434,
      "Against": 7435,
      "LECT": 7436,
      "bulk": 7437,
      "furiously": 7438,
      "limping": 7439,
      "pillar": 7440,
      "assuming": 7441,
      "habits": 7442,
      "expressly": 7443,
      "trailing": 7444,
      "Heinrich": 7445,
      "meditations": 7446,
      "ignoring": 7447,
      "obscurity": 7448,
      "mindedly": 7449,
      "enthusiasm": 7450,
      "enthusiastic": 7451,
      "ISH": 7452,
      "kisses": 7453,
      "mirror": 7454,
      "tugged": 7455,
      "virtue": 7456,
      "isolation": 7457,
      "isolated": 7458,
      "tottered": 7459,
      "mechanical": 7460,
      "shivering": 7461,
      "platz": 7462,
      "proceedings": 7463,
      "clasping": 7464,
      "clasped": 7465,
      "clumsy": 7466,
      "clumsily": 7467,
      "windowpane": 7468,
      "incantations": 7469,
      "reported": 7470,
      "reports": 7471,
      "fatigue": 7472,
      "entertainment": 7473,
      "draughts": 7474,
      "Dissertation": 7475,
      "Writes": 7476,
      "Writings": 7477,
      "rapid": 7478,
      "records": 7479,
      "encounters": 7480,
      "encountered": 7481,
      "historians": 7482,
      "historical": 7483,
      "abandoned": 7484,
      "consist": 7485,
      "consists": 7486,
      "weapon": 7487,
      "weapons": 7488,
      "trunks": 7489,
      "policeman": 7490,
      "manuscripts": 7491,
      "pleads": 7492,
      "prudence": 7493,
      "engineer": 7494,
      "additional": 7495,
      "squeezed": 7496,
      "characteristics": 7497,
      "Suddenly": 7498,
      "Biograp": 7499,
      "Empire": 7500,
      "Turning": 7501,
      "lofty": 7502,
      "nonsense": 7503,
      "tumbling": 7504,
      "theatrical": 7505,
      "solitude": 7506,
      "conjured": 7507,
      "amidst": 7508,
      "political": 7509,
      "overwhelming": 7510,
      "muzzle": 7511,
      "waistcoat": 7512,
      "scrupulously": 7513,
      "magnific": 7514,
      "scrutinized": 7515,
      "acknowledged": 7516,
      "Aphorismen": 7517,
      "Hoch": 7518,
      "Knock": 7519,
      "President": 7520,
      "basement": 7521,
      "equipment": 7522,
      "sanatorium": 7523,
      "witness": 7524,
      "injury": 7525,
      "repugn": 7526,
      "reputation": 7527,
      "entitled": 7528,
      "unconditionally": 7529,
      "activities": 7530,
      "shifted": 7531,
      "indistinguisha": 7532,
      "permanent": 7533,
      "perfunctorily": 7534,
      "comprehend": 7535,
      "comparatively": 7536,
      "premature": 7537,
      "presumably": 7538,
      "clutching": 7539,
      "crimin": 7540,
      "circled": 7541,
      "Beginning": 7542,
      "cheerful": 7543,
      "submissive": 7544,
      "benefit": 7545,
      "judicial": 7546,
      "employees": 7547,
      "sacrifices": 7548,
      "Hungerkiinstler": 7549,
      "Eleven": 7550,
      "Hermann": 7551,
      "Obviously": 7552,
      "Summer": 7553,
      "Werke": 7554,
      "Walk": 7555,
      "equally": 7556,
      "mixture": 7557,
      "vulner": 7558,
      "threshold": 7559,
      "attentively": 7560,
      "arrogance": 7561,
      "whirled": 7562,
      "mystery": 7563,
      "mysterious": 7564,
      "loyal": 7565,
      "decipher": 7566,
      "shrieked": 7567,
      "copies": 7568,
      "procure": 7569,
      "inevitable": 7570,
      "underestimates": 7571,
      "scenes": 7572,
      "eyelids": 7573,
      "newcomers": 7574,
      "bracing": 7575,
      "surrender": 7576,
      "Street": 7577,
      "practiced": 7578,
      "magazine": 7579,
      "irrefutably": 7580,
      "Above": 7581,
      "Czar": 7582,
      "Dritte": 7583,
      "Elderly": 7584,
      "Fiction": 7585,
      "Guilt": 7586,
      "Glatzer": 7587,
      "Greenberg": 7588,
      "Hyperion": 7589,
      "IONS": 7590,
      "Meditation": 7591,
      "Nahum": 7592,
      "Philip": 7593,
      "Rowoh": 7594,
      "Rotpeter": 7595,
      "Selbst": 7596,
      "Tell": 7597,
      "Warburg": 7598,
      "WORKS": 7599,
      "farewell": 7600,
      "mouthed": 7601,
      "obliter": 7602,
      "waters": 7603,
      "xvii": 7604,
      "attainable": 7605,
      "article": 7606,
      "uncommonly": 7607,
      "unendurable": 7608,
      "accompanim": 7609,
      "supreme": 7610,
      "concrete": 7611,
      "ambiguous": 7612,
      "delegation": 7613,
      "appren": 7614,
      "favored": 7615,
      "hospital": 7616,
      "predicament": 7617,
      "scissors": 7618,
      "dialect": 7619,
      "glimpse": 7620,
      "impenetrable": 7621,
      "paralyzed": 7622,
      "STORIES": 7623,
      "Schmiede": 7624,
      "Bucephalus": 7625,
      "\"]": 7626,
      ".).": 7627,
      "03": 7628,
      "2d": 7629,
      "32": 7630,
      "59": 7631,
      "73": 7632,
      "78": 7633,
      "80": 7634,
      "82": 7635,
      "88": 7636,
      "91": 7637,
      "93": 7638,
      "96": 7639,
      "97": 7640,
      "98": 7641,
      "?’": 7642,
      "Ass": 7643,
      "Arend": 7644,
      "BE": 7645,
      "Ber": 7646,
      "Bre": 7647,
      "Ble": 7648,
      "Biling": 7649,
      "BLE": 7650,
      "CO": 7651,
      "Cam": 7652,
      "Cop": 7653,
      "Couple": 7654,
      "DE": 7655,
      "Dep": 7656,
      "Dear": 7657,
      "Draw": 7658,
      "Dire": 7659,
      "Deep": 7660,
      "Drunk": 7661,
      "Es": 7662,
      "Ell": 7663,
      "Each": 7664,
      "Erin": 7665,
      "Fri": 7666,
      "Fable": 7667,
      "FOR": 7668,
      "Frat": 7669,
      "Gent": 7670,
      "Get": 7671,
      "Gra": 7672,
      "Gest": 7673,
      "Glau": 7674,
      "Har": 7675,
      "Hall": 7676,
      "Hum": 7677,
      "Hel": 7678,
      "Hann": 7679,
      "Hagen": 7680,
      "Isa": 7681,
      "Jung": 7682,
      "Joc": 7683,
      "Jesen": 7684,
      "Jiir": 7685,
      "Lam": 7686,
      "Lord": 7687,
      "Lying": 7688,
      "Listen": 7689,
      "Mis": 7690,
      "Mas": 7691,
      "Mal": 7692,
      "Mad": 7693,
      "None": 7694,
      "PT": 7695,
      "Put": 7696,
      "Part": 7697,
      "Pass": 7698,
      "Press": 7699,
      "RI": 7700,
      "Ring": 7701,
      "Rem": 7702,
      "Rah": 7703,
      "SA": 7704,
      "SO": 7705,
      "SU": 7706,
      "Sk": 7707,
      "Sil": 7708,
      "Ste": 7709,
      "Sure": 7710,
      "Sever": 7711,
      "Sew": 7712,
      "SER": 7713,
      "TW": 7714,
      "Tro": 7715,
      "Text": 7716,
      "Ur": 7717,
      "VAN": 7718,
      "Wi": 7719,
      "Wr": 7720,
      "Ww": 7721,
      "Whe": 7722,
      "Way": 7723,
      "Wish": 7724,
      "Water": 7725,
      "Woh": 7726,
      "Walter": 7727,
      "Wagen": 7728,
      "Ze": 7729,
      "[\"": 7730,
      "aj": 7731,
      "afore": 7732,
      "aze": 7733,
      "awoke": 7734,
      "bli": 7735,
      "bac": 7736,
      "bere": 7737,
      "bard": 7738,
      "brow": 7739,
      "bree": 7740,
      "bows": 7741,
      "bonds": 7742,
      "bumped": 7743,
      "cli": 7744,
      "cam": 7745,
      "cum": 7746,
      "cart": 7747,
      "cities": 7748,
      "causing": 7749,
      "dain": 7750,
      "dil": 7751,
      "date": 7752,
      "dwell": 7753,
      "dung": 7754,
      "diness": 7755,
      "damp": 7756,
      "dates": 7757,
      "dhlungen": 7758,
      "ethe": 7759,
      "ean": 7760,
      "eag": 7761,
      "eful": 7762,
      "etern": 7763,
      "ejac": 7764,
      "einer": 7765,
      "eaves": 7766,
      "eternal": 7767,
      "fs": 7768,
      "fence": 7769,
      "foun": 7770,
      "fice": 7771,
      "fares": 7772,
      "gs": 7773,
      "gor": 7774,
      "gur": 7775,
      "gage": 7776,
      "gilt": 7777,
      "guments": 7778,
      "hn": 7779,
      "hr": 7780,
      "hut": 7781,
      "hence": 7782,
      "hug": 7783,
      "iom": 7784,
      "ius": 7785,
      "iate": 7786,
      "ihil": 7787,
      "jan": 7788,
      "jer": 7789,
      "jol": 7790,
      "kir": 7791,
      "len": 7792,
      "lly": 7793,
      "lone": 7794,
      "lum": 7795,
      "lest": 7796,
      "lace": 7797,
      "lug": 7798,
      "lord": 7799,
      "lull": 7800,
      "lured": 7801,
      "lament": 7802,
      "laced": 7803,
      "lacking": 7804,
      "lump": 7805,
      "mes": 7806,
      "mut": 7807,
      "mort": 7808,
      "mice": 7809,
      "mouse": 7810,
      "matic": 7811,
      "matur": 7812,
      "nim": 7813,
      "nib": 7814,
      "narr": 7815,
      "ov": 7816,
      "oy": 7817,
      "oce": 7818,
      "oking": 7819,
      "otic": 7820,
      "oolog": 7821,
      "pac": 7822,
      "pound": 7823,
      "pra": 7824,
      "pable": 7825,
      "pious": 7826,
      "pical": 7827,
      "papers": 7828,
      "ponds": 7829,
      "rd": 7830,
      "ré": 7831,
      "rant": 7832,
      "rous": 7833,
      "rmelte": 7834,
      "roused": 7835,
      "sas": 7836,
      "ske": 7837,
      "sack": 7838,
      "sought": 7839,
      "swords": 7840,
      "saint": 7841,
      "sending": 7842,
      "sadd": 7843,
      "scold": 7844,
      "sends": 7845,
      "tan": 7846,
      "tas": 7847,
      "tap": 7848,
      "tough": 7849,
      "tend": 7850,
      "tread": 7851,
      "tact": 7852,
      "twin": 7853,
      "treach": 7854,
      "taps": 7855,
      "tangle": 7856,
      "tissue": 7857,
      "tuber": 7858,
      "uis": 7859,
      "ued": 7860,
      "ule": 7861,
      "ught": 7862,
      "ulo": 7863,
      "uet": 7864,
      "uition": 7865,
      "uously": 7866,
      "vre": 7867,
      "vom": 7868,
      "vance": 7869,
      "vine": 7870,
      "vulture": 7871,
      "wre": 7872,
      "wen": 7873,
      "west": 7874,
      "wak": 7875,
      "wits": 7876,
      "wary": 7877,
      "wings": 7878,
      "witting": 7879,
      "wares": 7880,
      "xic": 7881,
      "xation": 7882,
      "yright": 7883,
      "yoke": 7884,
      "tho": 7885,
      "thud": 7886,
      "inch": 7887,
      "inim": 7888,
      "inher": 7889,
      "inity": 7890,
      "inward": 7891,
      "ints": 7892,
      "incor": 7893,
      "inations": 7894,
      "insat": 7895,
      "incomplete": 7896,
      "infall": 7897,
      "inhuman": 7898,
      "inspect": 7899,
      "inhabit": 7900,
      "insufficient": 7901,
      "inability": 7902,
      "inaudible": 7903,
      "insurance": 7904,
      "inaccessible": 7905,
      "insult": 7906,
      "theory": 7907,
      "theore": 7908,
      "anze": 7909,
      "anks": 7910,
      "antial": 7911,
      "analy": 7912,
      "anrmelte": 7913,
      "erve": 7914,
      "eration": 7915,
      "erity": 7916,
      "eroom": 7917,
      "onous": 7918,
      "rev": 7919,
      "reinst": 7920,
      "reced": 7921,
      "recover": 7922,
      "recovered": 7923,
      "reaction": 7924,
      "removed": 7925,
      "reject": 7926,
      "reeling": 7927,
      "recommend": 7928,
      "atmo": 7929,
      "atively": 7930,
      "ensu": 7931,
      "enne": 7932,
      "enable": 7933,
      "enlar": 7934,
      "enclosed": 7935,
      "encounter": 7936,
      "encies": 7937,
      "isher": 7938,
      "issen": 7939,
      "isome": 7940,
      "token": 7941,
      "tobac": 7942,
      "eding": 7943,
      "asties": 7944,
      "assig": 7945,
      "itudes": 7946,
      "escent": 7947,
      "alas": 7948,
      "alof": 7949,
      "alight": 7950,
      "alted": 7951,
      "alien": 7952,
      "alarmed": 7953,
      "aris": 7954,
      "arant": 7955,
      "arise": 7956,
      "arbit": 7957,
      "arische": 7958,
      "heave": 7959,
      "heaps": 7960,
      "leaf": 7961,
      "stab": 7962,
      "stake": 7963,
      "staking": 7964,
      "stered": 7965,
      "stress": 7966,
      "stony": 7967,
      "states": 7968,
      "stroll": 7969,
      "stagger": 7970,
      "noses": 7971,
      "seated": 7972,
      "section": 7973,
      "metery": 7974,
      "chall": 7975,
      "chase": 7976,
      "chimp": 7977,
      "chron": 7978,
      "beer": 7979,
      "hail": 7980,
      "haired": 7981,
      "rospe": 7982,
      "ropes": 7983,
      "whinn": 7984,
      "ceit": 7985,
      "cemetery": 7986,
      "vet": 7987,
      "veiled": 7988,
      "vexation": 7989,
      "tied": 7990,
      "tile": 7991,
      "tiers": 7992,
      "versed": 7993,
      "verified": 7994,
      "wider": 7995,
      "forms": 7996,
      "llak": 7997,
      "uting": 7998,
      "imon": 7999,
      "imit": 8000,
      "impl": 8001,
      "impress": 8002,
      "imitated": 8003,
      "improbable": 8004,
      "agreed": 8005,
      "entries": 8006,
      "entrances": 8007,
      "irting": 8008,
      "irration": 8009,
      "adult": 8010,
      "advised": 8011,
      "unch": 8012,
      "unread": 8013,
      "unted": 8014,
      "unjust": 8015,
      "unction": 8016,
      "unden": 8017,
      "unci": 8018,
      "unreal": 8019,
      "uneas": 8020,
      "unanim": 8021,
      "unsuccess": 8022,
      "unapproach": 8023,
      "unfriendly": 8024,
      "unceas": 8025,
      "undisturbed": 8026,
      "unbuttoned": 8027,
      "unfounded": 8028,
      "unruly": 8029,
      "uninhabited": 8030,
      "unassail": 8031,
      "unnecessarily": 8032,
      "unfavorable": 8033,
      "notably": 8034,
      "lix": 8035,
      "liber": 8036,
      "ligent": 8037,
      "library": 8038,
      "omed": 8039,
      "omas": 8040,
      "omical": 8041,
      "omitted": 8042,
      "omission": 8043,
      "actor": 8044,
      "accus": 8045,
      "acities": 8046,
      "rible": 8047,
      "rifle": 8048,
      "erei": 8049,
      "abo": 8050,
      "ains": 8051,
      "sus": 8052,
      "suspe": 8053,
      "suited": 8054,
      "moles": 8055,
      "outspread": 8056,
      "keen": 8057,
      "neg": 8058,
      "neue": 8059,
      "pel": 8060,
      "urging": 8061,
      "urgency": 8062,
      "doings": 8063,
      "dozing": 8064,
      "dolf": 8065,
      "femin": 8066,
      "usal": 8067,
      "usque": 8068,
      "area": 8069,
      "loa": 8070,
      "lore": 8071,
      "lover": 8072,
      "loom": 8073,
      "loves": 8074,
      "lovers": 8075,
      "loaded": 8076,
      "lobby": 8077,
      "buted": 8078,
      "essay": 8079,
      "constr": 8080,
      "conting": 8081,
      "confer": 8082,
      "consent": 8083,
      "conscience": 8084,
      "contains": 8085,
      "congrat": 8086,
      "icy": 8087,
      "icine": 8088,
      "deck": 8089,
      "delay": 8090,
      "depri": 8091,
      "deceived": 8092,
      "deceive": 8093,
      "defeat": 8094,
      "deceptive": 8095,
      "devices": 8096,
      "deceit": 8097,
      "--'": 8098,
      "weigh": 8099,
      "exp": 8100,
      "exting": 8101,
      "exem": 8102,
      "exposition": 8103,
      "exhib": 8104,
      "exquis": 8105,
      "extensive": 8106,
      "exalted": 8107,
      "shed": 8108,
      "shir": 8109,
      "shedding": 8110,
      "quitted": 8111,
      "quoted": 8112,
      "upward": 8113,
      "upstairs": 8114,
      "uplifted": 8115,
      "uphill": 8116,
      "trap": 8117,
      "traction": 8118,
      "traced": 8119,
      "cooperation": 8120,
      "apsed": 8121,
      "popl": 8122,
      "poten": 8123,
      "poked": 8124,
      "polic": 8125,
      "poles": 8126,
      "industri": 8127,
      "mankind": 8128,
      "maneu": 8129,
      "manufact": 8130,
      "ulator": 8131,
      "permit": 8132,
      "perfection": 8133,
      "perceiving": 8134,
      "asts": 8135,
      "astound": 8136,
      "ardor": 8137,
      "iless": 8138,
      "fox": 8139,
      "fores": 8140,
      "oppressed": 8141,
      "cane": 8142,
      "affli": 8143,
      "afresh": 8144,
      "affection": 8145,
      "commo": 8146,
      "comings": 8147,
      "composition": 8148,
      "reserve": 8149,
      "plung": 8150,
      "wort": 8151,
      "somebody": 8152,
      "thereupon": 8153,
      "rape": 8154,
      "rachtung": 8155,
      "ravine": 8156,
      "propos": 8157,
      "propri": 8158,
      "protest": 8159,
      "prolonged": 8160,
      "proportions": 8161,
      "auf": 8162,
      "auto": 8163,
      "autom": 8164,
      "endang": 8165,
      "shel": 8166,
      "rancor": 8167,
      "intoxic": 8168,
      "itely": 8169,
      "ckster": 8170,
      "longest": 8171,
      "ishments": 8172,
      "bleeding": 8173,
      "hook": 8174,
      "achment": 8175,
      "arture": 8176,
      "handing": 8177,
      "handsome": 8178,
      "gey": 8179,
      "overnight": 8180,
      "overtaking": 8181,
      "overestimate": 8182,
      "assent": 8183,
      "foreigner": 8184,
      "forefathers": 8185,
      "howl": 8186,
      "Three": 8187,
      "Things": 8188,
      "Thomas": 8189,
      "stored": 8190,
      "stooped": 8191,
      "ieg": 8192,
      "ureau": 8193,
      "precau": 8194,
      "prejud": 8195,
      "prelim": 8196,
      "preference": 8197,
      "likewise": 8198,
      "blished": 8199,
      "blank": 8200,
      "blamed": 8201,
      "regain": 8202,
      "yours": 8203,
      "fulfilled": 8204,
      "thanked": 8205,
      "cling": 8206,
      "clatter": 8207,
      "clapping": 8208,
      "clamber": 8209,
      "standards": 8210,
      "grum": 8211,
      "readiness": 8212,
      "boss": 8213,
      "boot": 8214,
      "bothered": 8215,
      "bogey": 8216,
      "undertake": 8217,
      "spits": 8218,
      "sparing": 8219,
      "acts": 8220,
      "sche": 8221,
      "scrape": 8222,
      "dispos": 8223,
      "disci": 8224,
      "distor": 8225,
      "dissol": 8226,
      "dispen": 8227,
      "discre": 8228,
      "disadvantage": 8229,
      "displeased": 8230,
      "disinterested": 8231,
      "disapprove": 8232,
      "disobeyed": 8233,
      "disagreeable": 8234,
      "distraction": 8235,
      "ounces": 8236,
      "ouncing": 8237,
      "pleats": 8238,
      "lesson": 8239,
      "lessons": 8240,
      "medicine": 8241,
      "igning": 8242,
      "igned": 8243,
      "ryze": 8244,
      "presenti": 8245,
      "preserved": 8246,
      "Inter": 8247,
      "reduce": 8248,
      "cerity": 8249,
      "headache": 8250,
      "throne": 8251,
      "flame": 8252,
      "flayed": 8253,
      "flirting": 8254,
      "prince": 8255,
      "obsess": 8256,
      "obstruct": 8257,
      "smiles": 8258,
      "dice": 8259,
      "diversion": 8260,
      "dilig": 8261,
      "ilding": 8262,
      "choo": 8263,
      "choice": 8264,
      "slit": 8265,
      "slide": 8266,
      "sliding": 8267,
      "slapping": 8268,
      "slashed": 8269,
      "glim": 8270,
      "glare": 8271,
      "glided": 8272,
      "glory": 8273,
      "destru": 8274,
      "desuet": 8275,
      "designed": 8276,
      "seren": 8277,
      "serving": 8278,
      "impaired": 8279,
      "burger": 8280,
      "ticity": 8281,
      "bedded": 8282,
      "bedclothes": 8283,
      "bedding": 8284,
      "workmen": 8285,
      "distances": 8286,
      "distressed": 8287,
      "singly": 8288,
      "specul": 8289,
      "parquet": 8290,
      "paralle": 8291,
      "brim": 8292,
      "brusque": 8293,
      "embraced": 8294,
      "embracing": 8295,
      "doggish": 8296,
      "interpre": 8297,
      "interview": 8298,
      "interrog": 8299,
      "Sohn": 8300,
      "bodily": 8301,
      "bodice": 8302,
      "correl": 8303,
      "sedu": 8304,
      "helps": 8305,
      "helmsman": 8306,
      "cleaves": 8307,
      "breach": 8308,
      "needless": 8309,
      "needlessly": 8310,
      "izer": 8311,
      "izzen": 8312,
      "dened": 8313,
      "voy": 8314,
      "voke": 8315,
      "wrists": 8316,
      "childlike": 8317,
      "fiction": 8318,
      "llowship": 8319,
      "finest": 8320,
      "hindered": 8321,
      "renounced": 8322,
      "fortuit": 8323,
      "licit": 8324,
      "licant": 8325,
      "fraction": 8326,
      "nightgown": 8327,
      "intend": 8328,
      "intuition": 8329,
      "parting": 8330,
      "tort": 8331,
      "burrows": 8332,
      "burrower": 8333,
      "realm": 8334,
      "effic": 8335,
      "frill": 8336,
      "reassur": 8337,
      "reassurance": 8338,
      "findings": 8339,
      "hardship": 8340,
      "legend": 8341,
      "legacy": 8342,
      "nerungen": 8343,
      "typical": 8344,
      "wallet": 8345,
      "stepping": 8346,
      "pilot": 8347,
      "ska": 8348,
      "buf": 8349,
      "buck": 8350,
      "complex": 8351,
      "cub": 8352,
      "cuff": 8353,
      "temper": 8354,
      "caress": 8355,
      "servatorium": 8356,
      "believing": 8357,
      "incing": 8358,
      "drawings": 8359,
      "facts": 8360,
      "entially": 8361,
      "monstr": 8362,
      "monument": 8363,
      "viv": 8364,
      "arrows": 8365,
      "rods": 8366,
      "crush": 8367,
      "crash": 8368,
      "confuse": 8369,
      "confided": 8370,
      "gues": 8371,
      "guided": 8372,
      "guarant": 8373,
      "curl": 8374,
      "curt": 8375,
      "curved": 8376,
      "shared": 8377,
      "shaped": 8378,
      "shakes": 8379,
      "listeners": 8380,
      "zeug": 8381,
      "sleeps": 8382,
      "decides": 8383,
      "misunderstand": 8384,
      "mischief": 8385,
      "misunderstood": 8386,
      "misses": 8387,
      "mishap": 8388,
      "1955": 8389,
      "News": 8390,
      "arent": 8391,
      "evolutions": 8392,
      "ultural": 8393,
      "winning": 8394,
      "capture": 8395,
      "capacities": 8396,
      "suffoc": 8397,
      "suffice": 8398,
      "PRINCESS": 8399,
      "jected": 8400,
      "ordained": 8401,
      "freezing": 8402,
      "wont": 8403,
      "floating": 8404,
      "retrospe": 8405,
      "Common": 8406,
      "pleases": 8407,
      "check": 8408,
      "cheese": 8409,
      "insin": 8410,
      "insists": 8411,
      "shortcomings": 8412,
      "spool": 8413,
      "spots": 8414,
      "spokes": 8415,
      "strangest": 8416,
      "startling": 8417,
      "traverse": 8418,
      "differences": 8419,
      "drif": 8420,
      "dripping": 8421,
      "achieving": 8422,
      "slower": 8423,
      "tempts": 8424,
      "tempted": 8425,
      "tempting": 8426,
      "ordinate": 8427,
      "ordinarily": 8428,
      "privi": 8429,
      "extending": 8430,
      "rider": 8431,
      "solved": 8432,
      "shutters": 8433,
      "laden": 8434,
      "hopefully": 8435,
      "hopelessly": 8436,
      "ERE": 8437,
      "1961": 8438,
      "advise": 8439,
      "existed": 8440,
      "horrible": 8441,
      "ministr": 8442,
      "relax": 8443,
      "chairs": 8444,
      "repulsive": 8445,
      "summit": 8446,
      "mounted": 8447,
      "collector": 8448,
      "knelt": 8449,
      "pains": 8450,
      "painstaking": 8451,
      "trip": 8452,
      "trifle": 8453,
      "countries": 8454,
      "locks": 8455,
      "brooding": 8456,
      "supplicant": 8457,
      "Already": 8458,
      "ibly": 8459,
      "subscri": 8460,
      "sublime": 8461,
      "subordinate": 8462,
      "boys": 8463,
      "ruin": 8464,
      "ruthless": 8465,
      "leaders": 8466,
      "approves": 8467,
      "approxim": 8468,
      "publisher": 8469,
      "addressing": 8470,
      "accorded": 8471,
      "provoked": 8472,
      "factor": 8473,
      "arrives": 8474,
      "uttered": 8475,
      "teaching": 8476,
      "objected": 8477,
      "Conscription": 8478,
      "Consider": 8479,
      "Conservatorium": 8480,
      "LAT": 8481,
      "Tram": 8482,
      "Trades": 8483,
      "cuts": 8484,
      "seeming": 8485,
      "Samsas": 8486,
      "ahr": 8487,
      "crew": 8488,
      "crept": 8489,
      "creaking": 8490,
      "vari": 8491,
      "varied": 8492,
      "lodge": 8493,
      "committing": 8494,
      "straightened": 8495,
      "destiny": 8496,
      "numb": 8497,
      "numerable": 8498,
      "promin": 8499,
      "promise": 8500,
      "promises": 8501,
      "weaker": 8502,
      "travels": 8503,
      "pretending": 8504,
      "profit": 8505,
      "Lee": 8506,
      "blot": 8507,
      "hunched": 8508,
      "superficial": 8509,
      "superfluous": 8510,
      "spectacle": 8511,
      "spectacles": 8512,
      "laboriously": 8513,
      "powerless": 8514,
      "Dichtung": 8515,
      "market": 8516,
      "imagines": 8517,
      "posts": 8518,
      "posted": 8519,
      "posterity": 8520,
      "breathlessly": 8521,
      "ritual": 8522,
      "ritik": 8523,
      "swept": 8524,
      "trembled": 8525,
      "velvet": 8526,
      "Something": 8527,
      "Unmas": 8528,
      "Unhappiness": 8529,
      "trains": 8530,
      "fingering": 8531,
      "1883": 8532,
      "Arms": 8533,
      "secured": 8534,
      "worthless": 8535,
      "ignant": 8536,
      "executor": 8537,
      "lawn": 8538,
      "pampered": 8539,
      "racing": 8540,
      "including": 8541,
      "sufficed": 8542,
      "Felix": 8543,
      "Fellowship": 8544,
      "humor": 8545,
      "humbly": 8546,
      "possibilities": 8547,
      "preventing": 8548,
      "succeeding": 8549,
      "Both": 8550,
      "Collected": 8551,
      "Collection": 8552,
      "dropping": 8553,
      "shades": 8554,
      "doctr": 8555,
      "defend": 8556,
      "defending": 8557,
      "transition": 8558,
      "Stand": 8559,
      "Strange": 8560,
      "victory": 8561,
      "vicinity": 8562,
      "ifications": 8563,
      "collapses": 8564,
      "commanded": 8565,
      "cloudlike": 8566,
      "breaks": 8567,
      "Goes": 8568,
      "Goethe": 8569,
      "detained": 8570,
      "hasten": 8571,
      "rails": 8572,
      "thousandth": 8573,
      "142": 8574,
      "Deut": 8575,
      "fiir": 8576,
      "icht": 8577,
      "icherei": 8578,
      "pitched": 8579,
      "sunshine": 8580,
      "inquis": 8581,
      "wounds": 8582,
      "sequence": 8583,
      "placing": 8584,
      "placards": 8585,
      "producing": 8586,
      "grapes": 8587,
      "attacks": 8588,
      "attacker": 8589,
      "attacked": 8590,
      "occupations": 8591,
      "234": 8592,
      "portion": 8593,
      "metamorphosis": 8594,
      "whistled": 8595,
      "logue": 8596,
      "concluded": 8597,
      "construct": 8598,
      "demanded": 8599,
      "trusted": 8600,
      "Erzdhlungen": 8601,
      "bowl": 8602,
      "dazed": 8603,
      "steaming": 8604,
      "shopwoman": 8605,
      "involuntarily": 8606,
      "Enter": 8607,
      "Enlightenment": 8608,
      "avenues": 8609,
      "drum": 8610,
      "droning": 8611,
      "entering": 8612,
      "departed": 8613,
      "discoverer": 8614,
      "dividing": 8615,
      "supports": 8616,
      "179": 8617,
      "casts": 8618,
      "panes": 8619,
      "panther": 8620,
      "panic": 8621,
      "measured": 8622,
      "ambush": 8623,
      "extraordinarily": 8624,
      "racecourse": 8625,
      "fails": 8626,
      "establishment": 8627,
      "monthly": 8628,
      "Count": 8629,
      "furnished": 8630,
      "heightened": 8631,
      "stuff": 8632,
      "studies": 8633,
      "impressions": 8634,
      "prays": 8635,
      "prayer": 8636,
      "childishness": 8637,
      "objects": 8638,
      "nonetheless": 8639,
      "wandering": 8640,
      "throwing": 8641,
      "relieved": 8642,
      "assembly": 8643,
      "seventh": 8644,
      "separately": 8645,
      "separating": 8646,
      "neighboring": 8647,
      "consciously": 8648,
      "springing": 8649,
      "controlled": 8650,
      "insistent": 8651,
      "Rejection": 8652,
      "crossing": 8653,
      "frozen": 8654,
      "rustle": 8655,
      "thickly": 8656,
      "removal": 8657,
      "1903": 8658,
      "1907": 8659,
      "Building": 8660,
      "Betrachtung": 8661,
      "Library": 8662,
      "Trickster": 8663,
      "eagerness": 8664,
      "harmed": 8665,
      "harness": 8666,
      "ricide": 8667,
      "transi": 8668,
      "appreciated": 8669,
      "spirits": 8670,
      "streams": 8671,
      "streamed": 8672,
      "burdensome": 8673,
      "bridges": 8674,
      "confession": 8675,
      "Gesanrmelte": 8676,
      "maze": 8677,
      "mingle": 8678,
      "weariness": 8679,
      "wearisome": 8680,
      "examined": 8681,
      "persists": 8682,
      "discussion": 8683,
      "impatiently": 8684,
      "interpretations": 8685,
      "increasingly": 8686,
      "touchiness": 8687,
      "satisfy": 8688,
      "crowds": 8689,
      "characterized": 8690,
      "Upon": 8691,
      "warmed": 8692,
      "ernes": 8693,
      "stiffly": 8694,
      "excav": 8695,
      "faithfully": 8696,
      "Married": 8697,
      "frighten": 8698,
      "strove": 8699,
      "breasts": 8700,
      "incidentally": 8701,
      "Anything": 8702,
      "numberless": 8703,
      "madame": 8704,
      "swayed": 8705,
      "attracts": 8706,
      "constit": 8707,
      "blinded": 8708,
      "groups": 8709,
      "Novellen": 8710,
      "profounder": 8711,
      "XXII": 8712,
      "brightly": 8713,
      "ology": 8714,
      "innkeeper": 8715,
      "delicately": 8716,
      "delicacy": 8717,
      "grandfather": 8718,
      "granddaughter": 8719,
      "corresponding": 8720,
      "cleverly": 8721,
      "gatherings": 8722,
      "confusedly": 8723,
      "Goodbye": 8724,
      "Published": 8725,
      "nakedness": 8726,
      "roughly": 8727,
      "uselessly": 8728,
      "vastness": 8729,
      "encouraged": 8730,
      "encouragement": 8731,
      "encouraging": 8732,
      "betrayed": 8733,
      "ceaseless": 8734,
      "qualities": 8735,
      "applied": 8736,
      "storeroom": 8737,
      "thankful": 8738,
      "screaming": 8739,
      "flowers": 8740,
      "flowered": 8741,
      "obligation": 8742,
      "physically": 8743,
      "admirably": 8744,
      "collapsing": 8745,
      "intelligent": 8746,
      "intelligible": 8747,
      "paving": 8748,
      "paused": 8749,
      "sandy": 8750,
      "trotting": 8751,
      "tongues": 8752,
      "represents": 8753,
      "tolerated": 8754,
      "tolerably": 8755,
      "stamps": 8756,
      "absorption": 8757,
      "flourish": 8758,
      "specific": 8759,
      "contribut": 8760,
      "contrived": 8761,
      "contribute": 8762,
      "visitors": 8763,
      "universally": 8764,
      "pursuing": 8765,
      "honesty": 8766,
      "honestly": 8767,
      "arrangements": 8768,
      "dawning": 8769,
      "dawned": 8770,
      "fifteen": 8771,
      "nourished": 8772,
      "requests": 8773,
      "accomplishment": 8774,
      "conceit": 8775,
      "devour": 8776,
      "heroes": 8777,
      "persuas": 8778,
      "grasped": 8779,
      "diverted": 8780,
      "critic": 8781,
      "greedy": 8782,
      "experiences": 8783,
      "frequent": 8784,
      "penetrating": 8785,
      "objectionable": 8786,
      "creeps": 8787,
      "falsehood": 8788,
      "VIII": 8789,
      "bird": 8790,
      "recklessly": 8791,
      "struggles": 8792,
      "awakening": 8793,
      "survey": 8794,
      "surveying": 8795,
      "cruel": 8796,
      "crucial": 8797,
      "Anna": 8798,
      "solemnity": 8799,
      "translations": 8800,
      "twisting": 8801,
      "spiritual": 8802,
      "Jewishness": 8803,
      "embarrassment": 8804,
      "Refusal": 8805,
      "Suppose": 8806,
      "dimin": 8807,
      "frankness": 8808,
      "pupil": 8809,
      "pillows": 8810,
      "swim": 8811,
      "vaguely": 8812,
      "ascend": 8813,
      "noisy": 8814,
      "tivity": 8815,
      "feeding": 8816,
      "distracting": 8817,
      "ignorant": 8818,
      "ignorance": 8819,
      "obscure": 8820,
      "descended": 8821,
      "phenomena": 8822,
      "puddle": 8823,
      "severely": 8824,
      ",'\"": 8825,
      "Having": 8826,
      "Nachwort": 8827,
      "Poor": 8828,
      "Pollak": 8829,
      "Tomorrow": 8830,
      "biich": 8831,
      "elders": 8832,
      "elderly": 8833,
      "grip": 8834,
      "linen": 8835,
      "linked": 8836,
      "latest": 8837,
      "miracle": 8838,
      "tugging": 8839,
      "virtues": 8840,
      "ineradic": 8841,
      "totally": 8842,
      "altar": 8843,
      "stirring": 8844,
      "stumbles": 8845,
      "mechanically": 8846,
      "hampered": 8847,
      "excessively": 8848,
      "proceeding": 8849,
      "institution": 8850,
      "kneeling": 8851,
      "apprehensions": 8852,
      "contemplating": 8853,
      "brave": 8854,
      "brazen": 8855,
      "breadth": 8856,
      "knuck": 8857,
      "ramifications": 8858,
      "swooning": 8859,
      "revolt": 8860,
      "versehen": 8861,
      "washed": 8862,
      "contemptuous": 8863,
      "defined": 8864,
      "definitive": 8865,
      "trunk": 8866,
      "cogwheel": 8867,
      "pleading": 8868,
      "retreated": 8869,
      "trickle": 8870,
      "employment": 8871,
      "transpor": 8872,
      "transparent": 8873,
      "neglecting": 8874,
      "irresistibly": 8875,
      "Biicherei": 8876,
      "Bloch": 8877,
      "Blood": 8878,
      "Coat": 8879,
      "Verwand": 8880,
      "bunch": 8881,
      "coughing": 8882,
      "pinch": 8883,
      "patches": 8884,
      "tumult": 8885,
      "thighs": 8886,
      "attraction": 8887,
      "attractive": 8888,
      "alleged": 8889,
      "hammering": 8890,
      "tified": 8891,
      "forbid": 8892,
      "forbidden": 8893,
      "solitary": 8894,
      "conjure": 8895,
      "convey": 8896,
      "debts": 8897,
      "excursions": 8898,
      "coherent": 8899,
      "coherence": 8900,
      "muzzles": 8901,
      "obedient": 8902,
      "pierce": 8903,
      "vibrations": 8904,
      "merchand": 8905,
      "imaginable": 8906,
      "scrutinize": 8907,
      "Aphorisms": 8908,
      "Critical": 8909,
      "Hasid": 8910,
      "Welt": 8911,
      "Weltsch": 8912,
      "euvre": 8913,
      "einem": 8914,
      "echoed": 8915,
      "fanfares": 8916,
      "wagons": 8917,
      "receptions": 8918,
      "sulting": 8919,
      "suspecting": 8920,
      "containing": 8921,
      "expense": 8922,
      "shuffling": 8923,
      "apologize": 8924,
      "focused": 8925,
      "precious": 8926,
      "blinked": 8927,
      "blinks": 8928,
      "spurred": 8929,
      "administr": 8930,
      "brilliant": 8931,
      "marvelous": 8932,
      "postponing": 8933,
      "sniffing": 8934,
      "flickering": 8935,
      "explicitly": 8936,
      "Advocate": 8937,
      "Advocates": 8938,
      "swiftly": 8939,
      "dynasty": 8940,
      "dynasties": 8941,
      "philosophy": 8942,
      "Absent": 8943,
      "Engagement": 8944,
      "Human": 8945,
      "Hamburger": 8946,
      "Mercy": 8947,
      "Richard": 8948,
      "autumn": 8949,
      "banged": 8950,
      "fabric": 8951,
      "pallid": 8952,
      "swelling": 8953,
      "reveals": 8954,
      "rejoic": 8955,
      "associated": 8956,
      "chimney": 8957,
      "charming": 8958,
      "vehemently": 8959,
      "forgiveness": 8960,
      "soothing": 8961,
      "absurdly": 8962,
      "mobile": 8963,
      "convenience": 8964,
      "confronted": 8965,
      "declared": 8966,
      "exasperated": 8967,
      "shrink": 8968,
      "epilogue": 8969,
      "blessed": 8970,
      "dispersed": 8971,
      "awkwardly": 8972,
      "admonitions": 8973,
      "restricted": 8974,
      "monotonous": 8975,
      "vivacity": 8976,
      "pedestrians": 8977,
      "refreshing": 8978,
      "compensated": 8979,
      "gravestone": 8980,
      "Confidence": 8981,
      "Quiet": 8982,
      "splendid": 8983,
      "prophecy": 8984,
      "propagate": 8985,
      "ecstasy": 8986,
      "indubitable": 8987,
      "Gallery": 8988,
      "Irrit": 8989,
      "Karls": 8990,
      "Rudolf": 8991,
      "Tagebiich": 8992,
      "Under": 8993,
      "Visit": 8994,
      "Zurich": 8995,
      "cabin": 8996,
      "ducks": 8997,
      "fidelity": 8998,
      "fantastic": 8999,
      "knotted": 9000,
      "multitudes": 9001,
      "ninth": 9002,
      "nausea": 9003,
      "pigsty": 9004,
      "tonight": 9005,
      "twelve": 9006,
      "wafted": 9007,
      "inspection": 9008,
      "intruder": 9009,
      "reliable": 9010,
      "restraint": 9011,
      "educated": 9012,
      "orchestra": 9013,
      "esteem": 9014,
      "heaved": 9015,
      "stimulated": 9016,
      "secrets": 9017,
      "meadows": 9018,
      "befou": 9019,
      "bewildered": 9020,
      "entreaty": 9021,
      "terrifying": 9022,
      "savage": 9023,
      "indirectly": 9024,
      "ventilation": 9025,
      "opponents": 9026,
      "clerks": 9027,
      "bosoms": 9028,
      "dialogue": 9029,
      "awaiting": 9030,
      "remarked": 9031,
      "phrase": 9032,
      "emphatically": 9033,
      "handshake": 9034,
      "independence": 9035,
      "simplest": 9036,
      "synagogue": 9037,
      "recuperate": 9038,
      "Geschichten": 9039,
      "LECTED": 9040,
      "Biographie": 9041,
      "magnificent": 9042,
      "criminal": 9043,
      "vulnerable": 9044,
      "Rowohlt": 9045,
      "accompaniment": 9046,
      "apprentice": 9047,
      "Arendt": 9048,
      "Blei": 9049,
      "Bilingual": 9050,
      "Copyright": 9051,
      "Departure": 9052,
      "Directions": 9053,
      "Essays": 9054,
      "Elli": 9055,
      "Erinnerungen": 9056,
      "Friend": 9057,
      "Fratricide": 9058,
      "Gentlemen": 9059,
      "Gestalt": 9060,
      "Harry": 9061,
      "Hannah": 9062,
      "Hagenbeck": 9063,
      "Jockeys": 9064,
      "Jesenska": 9065,
      "Jiirgen": 9066,
      "Passers": 9067,
      "Rahv": 9068,
      "Skizzen": 9069,
      "Several": 9070,
      "SERVAN": 9071,
      "Troops": 9072,
      "Wohryze": 9073,
      "Wagenbach": 9074,
      "ajar": 9075,
      "aforementioned": 9076,
      "eagles": 9077,
      "henceforth": 9078,
      "janitor": 9079,
      "kirsch": 9080,
      "lonely": 9081,
      "luggage": 9082,
      "mortal": 9083,
      "maturity": 9084,
      "narrative": 9085,
      "tangled": 9086,
      "tassel": 9087,
      "wenn": 9088,
      "wakened": 9089,
      "insatiable": 9090,
      "infallible": 9091,
      "anzee": 9092,
      "atmosphere": 9093,
      "enlarged": 9094,
      "tobacco": 9095,
      "assigned": 9096,
      "aloft": 9097,
      "arbitr": 9098,
      "stabbed": 9099,
      "staggering": 9100,
      "chimpanzee": 9101,
      "implor": 9102,
      "uneasiness": 9103,
      "unapproachable": 9104,
      "unassailable": 9105,
      "suspected": 9106,
      "feminine": 9107,
      "conferences": 9108,
      "congratulate": 9109,
      "extingu": 9110,
      "exemption": 9111,
      "policy": 9112,
      "foresight": 9113,
      "plunged": 9114,
      "automatically": 9115,
      "intoxicating": 9116,
      "prejudices": 9117,
      "prelimin": 9118,
      "presentiment": 9119,
      "princely": 9120,
      "obsessed": 9121,
      "diligence": 9122,
      "desuetude": 9123,
      "reassuring": 9124,
      "guarantee": 9125,
      "retrospectively": 9126,
      "Tradesman": 9127,
      "Unmasking": 9128,
      "SERVANT": 9129,
      "Wohryzek": 9130,
      "\"\"": 9131,
      "\"?": 9132,
      ".|": 9133,
      ".),": 9134,
      "113": 9135,
      "115": 9136,
      "219": 9137,
      "214": 9138,
      "213": 9139,
      "243": 9140,
      "211": 9141,
      "31": 9142,
      "322": 9143,
      "41": 9144,
      "42": 9145,
      "519": 9146,
      "61": 9147,
      "63": 9148,
      "65": 9149,
      "68": 9150,
      "71": 9151,
      "74": 9152,
      "81": 9153,
      "85": 9154,
      "87": 9155,
      "92": 9156,
      "Ale": 9157,
      "App": 9158,
      "Ang": 9159,
      "Ask": 9160,
      "Auf": 9161,
      "About": 9162,
      "ARE": 9163,
      "BI": 9164,
      "BO": 9165,
      "BU": 9166,
      "Br": 9167,
      "Bon": 9168,
      "Ben": 9169,
      "Bar": 9170,
      "Bro": 9171,
      "Bri": 9172,
      "Bus": 9173,
      "Bod": 9174,
      "Bul": 9175,
      "Bres": 9176,
      "Back": 9177,
      "Bey": 9178,
      "Bern": 9179,
      "Brand": 9180,
      "Bureau": 9181,
      "C8": 9182,
      "CL": 9183,
      "Cor": 9184,
      "Cal": 9185,
      "Car": 9186,
      "Clif": 9187,
      "C10": 9188,
      "COL": 9189,
      "CRI": 9190,
      "D5": 9191,
      "D6": 9192,
      "Dr": 9193,
      "Dat": 9194,
      "Day": 9195,
      "Done": 9196,
      "DON": 9197,
      "DED": 9198,
      "DUR": 9199,
      "EM": 9200,
      "EV": 9201,
      "EW": 9202,
      "Ear": 9203,
      "ESS": 9204,
      "Especially": 9205,
      "Fer": 9206,
      "Fle": 9207,
      "Fur": 9208,
      "Four": 9209,
      "Fass": 9210,
      "Five": 9211,
      "Fort": 9212,
      "FAT": 9213,
      "GL": 9214,
      "Gen": 9215,
      "Gor": 9216,
      "Gap": 9217,
      "GER": 9218,
      "Garden": 9219,
      "Gru": 9220,
      "GRE": 9221,
      "HE": 9222,
      "Hi": 9223,
      "Hit": 9224,
      "Hold": 9225,
      "Hither": 9226,
      "HON": 9227,
      "HIS": 9228,
      "IL": 9229,
      "IM": 9230,
      "Il": 9231,
      "Ily": 9232,
      "Ivan": 9233,
      "IOG": 9234,
      "IBLE": 9235,
      "JU": 9236,
      "Jager": 9237,
      "Jude": 9238,
      "Jahr": 9239,
      "KN": 9240,
      "King": 9241,
      "Kle": 9242,
      "Klo": 9243,
[...]
