{
  "version": "1.0",
  "truncation": null,
  "padding": null,
  "added_tokens": [
    {
      "id": 0,
      "content": "[UNK]",
      "single_word": false,
      "lstrip": false,
      "rstrip": false,
      "normalized": false,
      "special": true
    },
    {
      "id": 1,
      "content": "[CLS]",
      "single_word": false,
      "lstrip": false,
      "rstrip": false,
      "normalized": false,
      "special": true
    },
    {
      "id": 2,
      "content": "[SEP]",
      "single_word": false,
      "lstrip": false,
      "rstrip": false,
      "normalized": false,
      "special": true
    },
    {
      "id": 3,
      "content": "[PAD]",
      "single_word": false,
      "lstrip": false,
      "rstrip": false,
      "normalized": false,
      "special": true
    },
    {
      "id": 4,
      "content": "[MASK]",
      "single_word": false,
      "lstrip": false,
      "rstrip": false,
      "normalized": false,
      "special": true
    }
  ],
  "normalizer": null,
  "pre_tokenizer": {
    "type": "Whitespace"
  },
  "post_processor": null,
  "decoder": null,
  "model": {
    "type": "BPE",
    "dropout": null,
    "unk_token": "[UNK]",
    "continuing_subword_prefix": null,
    "end_of_word_suffix": null,
    "fuse_unk": false,
    "byte_fallback": false,
    "vocab": {
      "[UNK]": 0,
      "[CLS]": 1,
      "[SEP]": 2,
      "[PAD]": 3,
      "[MASK]": 4,
      "!": 5,
      "\"": 6,
      "#": 7,
      "%": 8,
      "&": 9,
      "'": 10,
      "(": 11,
      ")": 12,
      "*": 13,
      ",": 14,
      "-": 15,
      ".": 16,
      "/": 17,
      "0": 18,
      "1": 19,
      "2": 20,
      "3": 21,
      "4": 22,
      "5": 23,
      "6": 24,
      "7": 25,
      "8": 26,
      "9": 27,
      ":": 28,
      ";": 29,
      "<": 30,
      "=": 31,
      ">": 32,
      "?": 33,
      "@": 34,
      "A": 35,
      "B": 36,
      "C": 37,
      "D": 38,
      "E": 39,
      "F": 40,
      "G": 41,
      "H": 42,
      "I": 43,
      "J": 44,
      "K": 45,
      "L": 46,
      "M": 47,
      "N": 48,
      "O": 49,
      "P": 50,
      "Q": 51,
      "R": 52,
      "S": 53,
      "T": 54,
      "U": 55,
      "V": 56,
      "W": 57,
      "X": 58,
      "Y": 59,
      "Z": 60,
      "[": 61,
      "]": 62,
      "_": 63,
      "`": 64,
      "a": 65,
      "b": 66,
      "c": 67,
      "d": 68,
      "e": 69,
      "f": 70,
      "g": 71,
      "h": 72,
      "i": 73,
      "j": 74,
      "k": 75,
      "l": 76,
      "m": 77,
      "n": 78,
      "o": 79,
      "p": 80,
      "q": 81,
      "r": 82,
      "s": 83,
      "t": 84,
      "u": 85,
      "v": 86,
      "w": 87,
      "x": 88,
      "y": 89,
      "z": 90,
      "|": 91,
      "}": 92,
      "~": 93,
      "th": 94,
      "ou": 95,
      "er": 96,
      "in": 97,
      "an": 98,
      "the": 99,
      "or": 100,
      "is": 101,
      "en": 102,
      "at": 103,
      "ar": 104,
      "ll": 105,
      "on": 106,
      "es": 107,
      "and": 108,
      "to": 109,
      "me": 110,
      "st": 111,
      "he": 112,
      "you": 113,
      "no": 114,
      "of": 115,
      "ha": 116,
      "it": 117,
      "re": 118,
      "se": 119,
      "ve": 120,
      "ing": 121,
      "le": 122,
      "wi": 123,
      "be": 124,
      "ch": 125,
      "as": 126,
      "ce": 127,
      "my": 128,
      "ow": 129,
      "for": 130,
      "hi": 131,
      "ay": 132,
      "nd": 133,
      "ld": 134,
      "ere": 135,
      "ir": 136,
      "ut": 137,
      "not": 138,
      "Th": 139,
      "ro": 140,
      "de": 141,
      "gh": 142,
      "li": 143,
      "we": 144,
      "that": 145,
      "ke": 146,
      "oo": 147,
      "with": 148,
      "our": 149,
      "And": 150,
      "ter": 151,
      "al": 152,
      "ed": 153,
      "so": 154,
      "ri": 155,
      "wh": 156,
      "ent": 157,
      "Wh": 158,
      "ad": 159,
      "your": 160,
      "et": 161,
      "us": 162,
      "co": 163,
      "his": 164,
      "ER": 165,
      "thou": 166,
      "all": 167,
      "do": 168,
      "ra": 169,
      "ther": 170,
      "un": 171,
      "ur": 172,
      "AN": 173,
      "him": 174,
      "am": 175,
      "this": 176,
      "ght": 177,
      "have": 178,
      "ly": 179,
      "IN": 180,
      "ver": 181,
      "EN": 182,
      "lo": 183,
      "US": 184,
      "ord": 185,
      "ess": 186,
      "ti": 187,
      "AR": 188,
      "ould": 189,
      "The": 190,
      "will": 191,
      "are": 192,
      "ain": 193,
      "fe": 194,
      "OR": 195,
      "est": 196,
      "pe": 197,
      "ES": 198,
      "ON": 199,
      "id": 200,
      "now": 201,
      "ood": 202,
      "man": 203,
      "sha": 204,
      "ma": 205,
      "ck": 206,
      "her": 207,
      "ne": 208,
      "thy": 209,
      "fa": 210,
      "ge": 211,
      "one": 212,
      "su": 213,
      "but": 214,
      "end": 215,
      "To": 216,
      "la": 217,
      "art": 218,
      "thee": 219,
      "ru": 220,
      "sh": 221,
      "ard": 222,
      "by": 223,
      "shall": 224,
      "TH": 225,
      "mor": 226,
      "ST": 227,
      "ill": 228,
      "That": 229,
      "con": 230,
      "rom": 231,
      "pr": 232,
      "up": 233,
      "si": 234,
      "go": 235,
      "po": 236,
      "mo": 237,
      "com": 238,
      "AL": 239,
      "sel": 240,
      "ine": 241,
      "mu": 242,
      "ta": 243,
      "ho": 244,
      "But": 245,
      "OL": 246,
      "il": 247,
      "ous": 248,
      "te": 249,
      "En": 250,
      "ight": 251,
      "What": 252,
      "ion": 253,
      "lord": 254,
      "own": 255,
      "if": 256,
      "good": 257,
      "ind": 258,
      "ble": 259,
      "EL": 260,
      "bo": 261,
      "qu": 262,
      "CH": 263,
      "ant": 264,
      "out": 265,
      "hich": 266,
      "wor": 267,
      "ct": 268,
      "what": 269,
      "ers": 270,
      "from": 271,
      "ven": 272,
      "ak": 273,
      "was": 274,
      "ong": 275,
      "love": 276,
      "ry": 277,
      "know": 278,
      "she": 279,
      "He": 280,
      "RO": 281,
      "Ex": 282,
      "well": 283,
      "would": 284,
      "sa": 285,
      "more": 286,
      "bl": 287,
      "them": 288,
      "come": 289,
      "can": 290,
      "let": 291,
      "ive": 292,
      "ate": 293,
      "self": 294,
      "TI": 295,
      "For": 296,
      "ul": 297,
      "ap": 298,
      "there": 299,
      "ast": 300,
      "see": 301,
      "Enter": 302,
      "ence": 303,
      "their": 304,
      "ie": 305,
      "they": 306,
      "ath": 307,
      "ep": 308,
      "than": 309,
      "LO": 310,
      "say": 311,
      "ome": 312,
      "sir": 313,
      "LE": 314,
      "like": 315,
      "ED": 316,
      "ag": 317,
      "ish": 318,
      "ink": 319,
      "here": 320,
      "RI": 321,
      "ING": 322,
      "mp": 323,
      "SI": 324,
      "IS": 325,
      "CO": 326,
      "then": 327,
      "wo": 328,
      "fore": 329,
      "No": 330,
      "My": 331,
      "tru": 332,
      "ith": 333,
      "You": 334,
      "ave": 335,
      "way": 336,
      "ves": 337,
      "ure": 338,
      "If": 339,
      "We": 340,
      "IA": 341,
      "thing": 342,
      "hath": 343,
      "ance": 344,
      "ue": 345,
      "spe": 346,
      "OF": 347,
      "ear": 348,
      "pro": 349,
      "men": 350,
      "too": 351,
      "reat": 352,
      "ound": 353,
      "should": 354,
      "sp": 355,
      "did": 356,
      "were": 357,
      "may": 358,
      "KING": 359,
      "au": 360,
      "As": 361,
      "Go": 362,
      "dis": 363,
      "ci": 364,
      "Be": 365,
      "make": 366,
      "who": 367,
      "ook": 368,
      "AND": 369,
      "upon": 370,
      "some": 371,
      "IC": 372,
      "which": 373,
      "row": 374,
      "unt": 375,
      "IO": 376,
      "must": 377,
      "di": 378,
      "very": 379,
      "vi": 380,
      "per": 381,
      "ple": 382,
      "had": 383,
      "In": 384,
      "word": 385,
      "oun": 386,
      "ity": 387,
      "King": 388,
      "mb": 389,
      "other": 390,
      "ex": 391,
      "hand": 392,
      "heart": 393,
      "day": 394,
      "IUS": 395,
      "UC": 396,
      "think": 397,
      "IL": 398,
      "EC": 399,
      "hon": 400,
      "such": 401,
      "tion": 402,
      "ey": 403,
      "off": 404,
      "again": 405,
      "when": 406,
      "Why": 407,
      "How": 408,
      "Thou": 409,
      "ame": 410,
      "speak": 411,
      "So": 412,
      "most": 413,
      "el": 414,
      "This": 415,
      "time": 416,
      "llow": 417,
      "ise": 418,
      "swe": 419,
      "yet": 420,
      "With": 421,
      "af": 422,
      "ment": 423,
      "TR": 424,
      "ness": 425,
      "UT": 426,
      "ac": 427,
      "ince": 428,
      "fri": 429,
      "night": 430,
      "bro": 431,
      "pl": 432,
      "any": 433,
      "take": 434,
      "ang": 435,
      "how": 436,
      "fo": 437,
      "mine": 438,
      "father": 439,
      "ady": 440,
      "these": 441,
      "give": 442,
      "urn": 443,
      "ANT": 444,
      "ans": 445,
      "ARD": 446,
      "bre": 447,
      "MA": 448,
      "PRO": 449,
      "Who": 450,
      "FOR": 451,
      "Of": 452,
      "Exe": 453,
      "great": 454,
      "CA": 455,
      "IR": 456,
      "ars": 457,
      "hea": 458,
      "mar": 459,
      "Exeunt": 460,
      "gl": 461,
      "BER": 462,
      "des": 463,
      "It": 464,
      "tell": 465,
      "ab": 466,
      "mon": 467,
      "ser": 468,
      "tr": 469,
      "gent": 470,
      "much": 471,
      "ation": 472,
      "age": 473,
      "where": 474,
      "There": 475,
      "An": 476,
      "ful": 477,
      "fair": 478,
      "friend": 479,
      "Exit": 480,
      "gn": 481,
      "ring": 482,
      "ic": 483,
      "Do": 484,
      "ty": 485,
      "king": 486,
      "hear": 487,
      "ET": 488,
      "ort": 489,
      "Come": 490,
      "ree": 491,
      "gra": 492,
      "Let": 493,
      "ase": 494,
      "BY": 495,
      "Is": 496,
      "INE": 497,
      "look": 498,
      "blood": 499,
      "EM": 500,
      "mer": 501,
      "und": 502,
      "LA": 503,
      "DI": 504,
      "ms": 505,
      "str": 506,
      "part": 507,
      "never": 508,
      "Which": 509,
      "sc": 510,
      "mis": 511,
      "ull": 512,
      "lt": 513,
      "PH": 514,
      "ies": 515,
      "son": 516,
      "death": 517,
      "fi": 518,
      "Where": 519,
      "Pr": 520,
      "INC": 521,
      "gentle": 522,
      "life": 523,
      "DU": 524,
      "ass": 525,
      "When": 526,
      "less": 527,
      "God": 528,
      "bet": 529,
      "ret": 530,
      "lie": 531,
      "tle": 532,
      "foo": 533,
      "coun": 534,
      "ward": 535,
      "ever": 536,
      "ace": 537,
      "By": 538,
      "old": 539,
      "tain": 540,
      "wr": 541,
      "ster": 542,
      "fl": 543,
      "oul": 544,
      "red": 545,
      "tis": 546,
      "Sir": 547,
      "doth": 548,
      "ces": 549,
      "ust": 550,
      "SH": 551,
      "UR": 552,
      "orn": 553,
      "hast": 554,
      "Now": 555,
      "stand": 556,
      "ite": 557,
      "cour": 558,
      "honour": 559,
      "ond": 560,
      "new": 561,
      "om": 562,
      "call": 563,
      "ough": 564,
      "ice": 565,
      "made": 566,
      "ts": 567,
      "true": 568,
      "Or": 569,
      "COM": 570,
      "ach": 571,
      "PA": 572,
      "fear": 573,
      "heaven": 574,
      "pp": 575,
      "SC": 576,
      "gu": 577,
      "sweet": 578,
      "mad": 579,
      "ESS": 580,
      "KE": 581,
      "Re": 582,
      "rown": 583,
      "Lord": 584,
      "Mar": 585,
      "hold": 586,
      "cannot": 587,
      "war": 588,
      "AB": 589,
      "pri": 590,
      "LY": 591,
      "ol": 592,
      "ENE": 593,
      "ene": 594,
      "head": 595,
      "Fr": 596,
      "pray": 597,
      "Here": 598,
      "ba": 599,
      "ving": 600,
      "world": 601,
      "PER": 602,
      "QU": 603,
      "Then": 604,
      "away": 605,
      "um": 606,
      "ouse": 607,
      "Ay": 608,
      "eyes": 609,
      "WN": 610,
      "land": 611,
      "pla": 612,
      "RIB": 613,
      "OTH": 614,
      "CI": 615,
      "ake": 616,
      "been": 617,
      "PE": 618,
      "nor": 619,
      "brother": 620,
      "ten": 621,
      "bear": 622,
      "ARE": 623,
      "FF": 624,
      "fort": 625,
      "Your": 626,
      "thought": 627,
      "done": 628,
      "name": 629,
      "MER": 630,
      "down": 631,
      "comes": 632,
      "PI": 633,
      "STRIB": 634,
      "DISTRIB": 635,
      "long": 636,
      "ded": 637,
      "SCENE": 638,
      "pre": 639,
      "tend": 640,
      "fir": 641,
      "ted": 642,
      "ud": 643,
      "shi": 644,
      "Tis": 645,
      "able": 646,
      "pres": 647,
      "two": 648,
      "ore": 649,
      "use": 650,
      "live": 651,
      "tri": 652,
      "vo": 653,
      "atch": 654,
      "uke": 655,
      "tra": 656,
      "ign": 657,
      "deed": 658,
      "put": 659,
      "before": 660,
      "ILL": 661,
      "might": 662,
      "kes": 663,
      "GE": 664,
      "BR": 665,
      "op": 666,
      "noble": 667,
      "leave": 668,
      "im": 669,
      "FIR": 670,
      "FIRST": 671,
      "Sha": 672,
      "lady": 673,
      "fool": 674,
      "ks": 675,
      "house": 676,
      "AM": 677,
      "jo": 678,
      "pur": 679,
      "thus": 680,
      "ange": 681,
      "set": 682,
      "EST": 683,
      "res": 684,
      "AT": 685,
      "gi": 686,
      "atter": 687,
      "They": 688,
      "io": 689,
      "wit": 690,
      "light": 691,
      "gr": 692,
      "LOR": 693,
      "AD": 694,
      "ose": 695,
      "Well": 696,
      "could": 697,
      "ghter": 698,
      "better": 699,
      "Will": 700,
      "ef": 701,
      "reas": 702,
      "che": 703,
      "ss": 704,
      "Ca": 705,
      "soul": 706,
      "poor": 707,
      "AS": 708,
      "cl": 709,
      "cau": 710,
      "SER": 711,
      "wer": 712,
      "into": 713,
      "OND": 714,
      "show": 715,
      "Good": 716,
      "keep": 717,
      "dead": 718,
      "find": 719,
      "SERV": 720,
      "ction": 721,
      "DUKE": 722,
      "cha": 723,
      "lit": 724,
      "dear": 725,
      "ds": 726,
      "rest": 727,
      "She": 728,
      "being": 729,
      "comp": 730,
      "Duke": 731,
      "under": 732,
      "nothing": 733,
      "cur": 734,
      "ee": 735,
      "dy": 736,
      "ft": 737,
      "cy": 738,
      "right": 739,
      "many": 740,
      "ors": 741,
      "side": 742,
      "His": 743,
      "bra": 744,
      "ower": 745,
      "master": 746,
      "ick": 747,
      "full": 748,
      "mber": 749,
      "both": 750,
      "enter": 751,
      "LUC": 752,
      "Al": 753,
      "nat": 754,
      "tent": 755,
      "char": 756,
      "cause": 757,
      "Nay": 758,
      "wife": 759,
      "Nor": 760,
      "Than": 761,
      "whi": 762,
      "ins": 763,
      "ild": 764,
      "every": 765,
      "une": 766,
      "ings": 767,
      "BE": 768,
      "myself": 769,
      "beg": 770,
      "kind": 771,
      "les": 772,
      "still": 773,
      "Engl": 774,
      "je": 775,
      "Rome": 776,
      "led": 777,
      "II": 778,
      "pt": 779,
      "till": 780,
      "ng": 781,
      "par": 782,
      "tong": 783,
      "den": 784,
      "fall": 785,
      "die": 786,
      "ps": 787,
      "AC": 788,
      "bes": 789,
      "woman": 790,
      "MAR": 791,
      "follow": 792,
      "read": 793,
      "aughter": 794,
      "reason": 795,
      "Jo": 796,
      "UCH": 797,
      "Ed": 798,
      "Ro": 799,
      "ORK": 800,
      "ESTER": 801,
      "IAN": 802,
      "daughter": 803,
      "tal": 804,
      "Not": 805,
      "ought": 806,
      "though": 807,
      "words": 808,
      "gri": 809,
      "Prince": 810,
      "TIM": 811,
      "place": 812,
      "little": 813,
      "comm": 814,
      "Ham": 815,
      "hour": 816,
      "vil": 817,
      "Shall": 818,
      "SEC": 819,
      "ANTON": 820,
      "first": 821,
      "gar": 822,
      "uck": 823,
      "air": 824,
      "igh": 825,
      "those": 826,
      "sent": 827,
      "SECOND": 828,
      "friends": 829,
      "raw": 830,
      "STA": 831,
      "young": 832,
      "after": 833,
      "best": 834,
      "bid": 835,
      "gone": 836,
      "esar": 837,
      "wel": 838,
      "boy": 839,
      "LORD": 840,
      "CE": 841,
      "lp": 842,
      "sle": 843,
      "its": 844,
      "eye": 845,
      "tress": 846,
      "against": 847,
      "ONIC": 848,
      "Have": 849,
      "ff": 850,
      ".'": 851,
      "OT": 852,
      "ENT": 853,
      "USE": 854,
      "ning": 855,
      "99": 856,
      "bring": 857,
      "Her": 858,
      "har": 859,
      "pos": 860,
      "ield": 861,
      "SION": 862,
      "199": 863,
      "DO": 864,
      "ELEC": 865,
      "COPI": 866,
      "TRONIC": 867,
      "COMMER": 868,
      "CIAL": 869,
      "DISTRIBUT": 870,
      "ELECTRONIC": 871,
      "COPIES": 872,
      "COMMERCIAL": 873,
      "ither": 874,
      "Caesar": 875,
      "DISTRIBUTED": 876,
      "himself": 877,
      "RE": 878,
      "face": 879,
      "mother": 880,
      "ire": 881,
      "conf": 882,
      "play": 883,
      "ton": 884,
      "GLO": 885,
      "band": 886,
      "UCESTER": 887,
      "GLOUCESTER": 888,
      "thine": 889,
      "ison": 890,
      "DES": 891,
      "aster": 892,
      "iness": 893,
      "forth": 894,
      "ship": 895,
      "SAL": 896,
      "cle": 897,
      "spir": 898,
      "roy": 899,
      "mind": 900,
      "ste": 901,
      "VI": 902,
      "clo": 903,
      "kill": 904,
      "race": 905,
      "sand": 906,
      "Yet": 907,
      "stay": 908,
      "fellow": 909,
      "pleas": 910,
      "All": 911,
      "car": 912,
      "esty": 913,
      "ran": 914,
      "none": 915,
      "vir": 916,
      "assi": 917,
      "sure": 918,
      "TE": 919,
      "ench": 920,
      "QUE": 921,
      "tongue": 922,
      "GO": 923,
      "answer": 924,
      "QUEEN": 925,
      "Thy": 926,
      "France": 927,
      "UN": 928,
      "hus": 929,
      "peace": 930,
      "lack": 931,
      "present": 932,
      "mean": 933,
      "SO": 934,
      "turn": 935,
      "pose": 936,
      "vill": 937,
      "LI": 938,
      "far": 939,
      "oud": 940,
      "hor": 941,
      "back": 942,
      "run": 943,
      "else": 944,
      "lay": 945,
      "temp": 946,
      "get": 947,
      "once": 948,
      "ctor": 949,
      "cious": 950,
      "ye": 951,
      "ition": 952,
      "over": 953,
      "Le": 954,
      "RY": 955,
      "mes": 956,
      "pra": 957,
      "Our": 958,
      "sor": 959,
      "thr": 960,
      "law": 961,
      "uty": 962,
      "need": 963,
      "CLO": 964,
      "crown": 965,
      "eng": 966,
      "meet": 967,
      "rep": 968,
      "bed": 969,
      "min": 970,
      "whose": 971,
      "ICK": 972,
      "FORD": 973,
      "HEN": 974,
      "matter": 975,
      "sub": 976,
      "HENRY": 977,
      "Que": 978,
      "ati": 979,
      "said": 980,
      "UM": 981,
      "ark": 982,
      "iss": 983,
      "Queen": 984,
      "Un": 985,
      "wrong": 986,
      "lau": 987,
      "letter": 988,
      "Gl": 989,
      "child": 990,
      "faith": 991,
      "count": 992,
      "RICH": 993,
      "vice": 994,
      "br": 995,
      "CHAR": 996,
      "kn": 997,
      "another": 998,
      "about": 999,
      "hither": 1000,
      "unto": 1001,
      "bus": 1002,
      "hope": 1003,
      "husband": 1004,
      "ken": 1005,
      "just": 1006,
      "Up": 1007,
      "three": 1008,
      "therefore": 1009,
      "sto": 1010,
      "ears": 1011,
      "sm": 1012,
      "sold": 1013,
      "VER": 1014,
      "fal": 1015,
      "please": 1016,
      "ber": 1017,
      "ried": 1018,
      "ORL": 1019,
      "FAL": 1020,
      "indeed": 1021,
      "STAFF": 1022,
      "FALSTAFF": 1023,
      "hn": 1024,
      "EX": 1025,
      "AST": 1026,
      "arewell": 1027,
      "home": 1028,
      "dou": 1029,
      "even": 1030,
      "heard": 1031,
      "ants": 1032,
      "sword": 1033,
      "ouch": 1034,
      "morrow": 1035,
      "earth": 1036,
      "AG": 1037,
      "selves": 1038,
      "From": 1039,
      "John": 1040,
      "has": 1041,
      "reme": 1042,
      "draw": 1043,
      "gen": 1044,
      "happ": 1045,
      "THE": 1046,
      "At": 1047,
      "St": 1048,
      "wear": 1049,
      "truth": 1050,
      "court": 1051,
      "gain": 1052,
      "thousand": 1053,
      "grace": 1054,
      "ban": 1055,
      "hence": 1056,
      "ier": 1057,
      "ister": 1058,
      "last": 1059,
      "sleep": 1060,
      "came": 1061,
      "within": 1062,
      "Mo": 1063,
      "ons": 1064,
      "ELLO": 1065,
      "RICHARD": 1066,
      "Aside": 1067,
      "dost": 1068,
      "TO": 1069,
      "du": 1070,
      "whom": 1071,
      "cer": 1072,
      "ours": 1073,
      "joy": 1074,
      "nature": 1075,
      "false": 1076,
      "Master": 1077,
      "Give": 1078,
      "cut": 1079,
      "va": 1080,
      "vy": 1081,
      "England": 1082,
      "lords": 1083,
      "madam": 1084,
      "Upon": 1085,
      "aint": 1086,
      "virt": 1087,
      "WI": 1088,
      "int": 1089,
      "villain": 1090,
      "bu": 1091,
      "sen": 1092,
      "PR": 1093,
      "ide": 1094,
      "xt": 1095,
      "shame": 1096,
      "ardon": 1097,
      "Grace": 1098,
      "MAN": 1099,
      "der": 1100,
      "CAS": 1101,
      "Are": 1102,
      "state": 1103,
      "maid": 1104,
      "Pro": 1105,
      "wind": 1106,
      "DER": 1107,
      "On": 1108,
      "fect": 1109,
      "vis": 1110,
      "hands": 1111,
      "cess": 1112,
      "power": 1113,
      "thank": 1114,
      "break": 1115,
      "gold": 1116,
      "Anton": 1117,
      "gre": 1118,
      "imp": 1119,
      "lf": 1120,
      "pa": 1121,
      "MO": 1122,
      "body": 1123,
      "news": 1124,
      "ius": 1125,
      "makes": 1126,
      "SON": 1127,
      "ious": 1128,
      "youth": 1129,
      "form": 1130,
      "lies": 1131,
      "ERS": 1132,
      "things": 1133,
      "oft": 1134,
      "PO": 1135,
      "Po": 1136,
      "worth": 1137,
      "anger": 1138,
      "high": 1139,
      "Some": 1140,
      "fight": 1141,
      "bea": 1142,
      "Ma": 1143,
      "sing": 1144,
      "que": 1145,
      "UTUS": 1146,
      "serv": 1147,
      "rant": 1148,
      "swear": 1149,
      "BRUTUS": 1150,
      "Glou": 1151,
      "Br": 1152,
      "pect": 1153,
      "LU": 1154,
      "WILL": 1155,
      "spo": 1156,
      "ceive": 1157,
      "prove": 1158,
      "em": 1159,
      "ls": 1160,
      "IAM": 1161,
      "WILLIAM": 1162,
      "help": 1163,
      "gentleman": 1164,
      "PAGE": 1165,
      "vent": 1166,
      "ury": 1167,
      "BI": 1168,
      "IP": 1169,
      "MEN": 1170,
      "ANIO": 1171,
      "ECT": 1172,
      "ANTONY": 1173,
      "EPH": 1174,
      "GH": 1175,
      "anc": 1176,
      "MAC": 1177,
      "CLOWN": 1178,
      "Would": 1179,
      "wish": 1180,
      "near": 1181,
      "Hath": 1182,
      "Look": 1183,
      "hang": 1184,
      "times": 1185,
      "PRINC": 1186,
      "enough": 1187,
      "stri": 1188,
      "rather": 1189,
      "ROSAL": 1190,
      "ates": 1191,
      "does": 1192,
      "ATH": 1193,
      "shalt": 1194,
      "De": 1195,
      "TES": 1196,
      "cap": 1197,
      "sun": 1198,
      "seen": 1199,
      "without": 1200,
      "SERVANT": 1201,
      "while": 1202,
      "ject": 1203,
      "pen": 1204,
      "since": 1205,
      "devil": 1206,
      "DEM": 1207,
      "gue": 1208,
      "ot": 1209,
      "urther": 1210,
      "ery": 1211,
      "honest": 1212,
      "Su": 1213,
      "ph": 1214,
      "gether": 1215,
      "sound": 1216,
      "ows": 1217,
      "Did": 1218,
      "LON": 1219,
      "faul": 1220,
      "gods": 1221,
      "PLE": 1222,
      "YO": 1223,
      "dr": 1224,
      "ob": 1225,
      "welcome": 1226,
      "bt": 1227,
      ".]": 1228,
      "Ar": 1229,
      "ze": 1230,
      "half": 1231,
      "ready": 1232,
      "got": 1233,
      "OTHELLO": 1234,
      "bri": 1235,
      "send": 1236,
      "ner": 1237,
      "tears": 1238,
      "IAGO": 1239,
      "fortune": 1240,
      "Fal": 1241,
      "ousin": 1242,
      "SIR": 1243,
      "strong": 1244,
      "care": 1245,
      "jesty": 1246,
      "ist": 1247,
      "ats": 1248,
      "stru": 1249,
      "breath": 1250,
      "mistress": 1251,
      "fire": 1252,
      "LONG": 1253,
      "COL": 1254,
      "UL": 1255,
      "ICE": 1256,
      "IV": 1257,
      "bit": 1258,
      "fit": 1259,
      "pal": 1260,
      "yourself": 1261,
      "seem": 1262,
      "grief": 1263,
      "command": 1264,
      "spirit": 1265,
      "horse": 1266,
      "kiss": 1267,
      "ese": 1268,
      "ween": 1269,
      "why": 1270,
      "ABLE": 1271,
      "OST": 1272,
      "strange": 1273,
      "pati": 1274,
      "arm": 1275,
      "together": 1276,
      "saw": 1277,
      "pass": 1278,
      "rem": 1279,
      "Therefore": 1280,
      "Ri": 1281,
      "mus": 1282,
      "sick": 1283,
      "lieve": 1284,
      "ream": 1285,
      "ANTI": 1286,
      "vers": 1287,
      "YORK": 1288,
      "went": 1289,
      "means": 1290,
      "alth": 1291,
      "appe": 1292,
      "Li": 1293,
      "YR": 1294,
      "low": 1295,
      "cks": 1296,
      "MAY": 1297,
      "ACT": 1298,
      "Cap": 1299,
      "wa": 1300,
      "ask": 1301,
      "weep": 1302,
      "CLE": 1303,
      "late": 1304,
      "mi": 1305,
      "swor": 1306,
      "wise": 1307,
      "OLK": 1308,
      "CLEO": 1309,
      "arms": 1310,
      "Pe": 1311,
      "ork": 1312,
      "prison": 1313,
      "Can": 1314,
      "grow": 1315,
      "ets": 1316,
      "lost": 1317,
      "ell": 1318,
      "pers": 1319,
      "pardon": 1320,
      "eral": 1321,
      "only": 1322,
      "tow": 1323,
      "sed": 1324,
      "WAR": 1325,
      "ary": 1326,
      "deli": 1327,
      "content": 1328,
      "CASSI": 1329,
      "Even": 1330,
      "La": 1331,
      "Sh": 1332,
      "sea": 1333,
      "return": 1334,
      "BAST": 1335,
      "cre": 1336,
      "tro": 1337,
      "vere": 1338,
      "stra": 1339,
      "TION": 1340,
      "TRA": 1341,
      "SE": 1342,
      "cor": 1343,
      "yours": 1344,
      "UTEN": 1345,
      "through": 1346,
      "free": 1347,
      "inter": 1348,
      "INIUS": 1349,
      "oney": 1350,
      "MESS": 1351,
      "fly": 1352,
      "hard": 1353,
      "hum": 1354,
      "prom": 1355,
      "ory": 1356,
      "WICK": 1357,
      "pain": 1358,
      "dom": 1359,
      "CLEOPA": 1360,
      "found": 1361,
      "same": 1362,
      "TIMON": 1363,
      "CLEOPATRA": 1364,
      "INO": 1365,
      "THIS": 1366,
      "thoughts": 1367,
      "WARWICK": 1368,
      "AK": 1369,
      "Lear": 1370,
      "York": 1371,
      "cus": 1372,
      "cra": 1373,
      "gro": 1374,
      "lar": 1375,
      "deser": 1376,
      "Con": 1377,
      "DA": 1378,
      "ting": 1379,
      "dam": 1380,
      "gs": 1381,
      "ren": 1382,
      "outh": 1383,
      "ments": 1384,
      "ather": 1385,
      "jud": 1386,
      "country": 1387,
      "Rich": 1388,
      "May": 1389,
      "TA": 1390,
      "PERSON": 1391,
      "KATH": 1392,
      "Lo": 1393,
      "LES": 1394,
      "These": 1395,
      "cold": 1396,
      "says": 1397,
      "royal": 1398,
      "GER": 1399,
      "bar": 1400,
      "cousin": 1401,
      "itself": 1402,
      "left": 1403,
      "sorrow": 1404,
      "EXT": 1405,
      "Cassi": 1406,
      "attend": 1407,
      "Whose": 1408,
      "serve": 1409,
      "business": 1410,
      ".,": 1411,
      "GENT": 1412,
      "born": 1413,
      "med": 1414,
      "Though": 1415,
      "GENTLE": 1416,
      "HI": 1417,
      "Hen": 1418,
      "rich": 1419,
      "worthy": 1420,
      "OTHERS": 1421,
      "field": 1422,
      "sin": 1423,
      "alone": 1424,
      "press": 1425,
      "Lu": 1426,
      "cry": 1427,
      "want": 1428,
      "told": 1429,
      "wilt": 1430,
      "ute": 1431,
      "cons": 1432,
      "sight": 1433,
      "eech": 1434,
      "charge": 1435,
      "Henry": 1436,
      "GES": 1437,
      "Was": 1438,
      "fer": 1439,
      "ople": 1440,
      "IND": 1441,
      "MACH": 1442,
      "BERG": 1443,
      "GR": 1444,
      "IMO": 1445,
      "SYR": 1446,
      "foul": 1447,
      "known": 1448,
      "ACUSE": 1449,
      "SYRACUSE": 1450,
      "COR": 1451,
      "More": 1452,
      "proud": 1453,
      "common": 1454,
      "GHT": 1455,
      "FR": 1456,
      "UTION": 1457,
      "ush": 1458,
      "service": 1459,
      "TEN": 1460,
      "bat": 1461,
      "cal": 1462,
      "van": 1463,
      "wall": 1464,
      "ANY": 1465,
      "ARY": 1466,
      "exce": 1467,
      "onder": 1468,
      "NOT": 1469,
      "cla": 1470,
      "force": 1471,
      "SHIP": 1472,
      "happy": 1473,
      "gainst": 1474,
      "Antony": 1475,
      "JO": 1476,
      "TED": 1477,
      "rew": 1478,
      "venge": 1479,
      "ETEXT": 1480,
      "TIME": 1481,
      "beauty": 1482,
      "MESSEN": 1483,
      "sister": 1484,
      "cho": 1485,
      "uncle": 1486,
      "people": 1487,
      "ESPE": 1488,
      "ides": 1489,
      "trust": 1490,
      "bloody": 1491,
      "INCLU": 1492,
      "SHAK": 1493,
      "COMPLE": 1494,
      "CHARGES": 1495,
      "MESSENGER": 1496,
      "ESPEARE": 1497,
      "SHAKESPEARE": 1498,
      "COMPLETE": 1499,
      "BO": 1500,
      "DED": 1501,
      "GUTEN": 1502,
      "JECT": 1503,
      "PY": 1504,
      "SUCH": 1505,
      "ig": 1506,
      "lead": 1507,
      "THAT": 1508,
      "ICT": 1509,
      "PROVI": 1510,
      "PROJECT": 1511,
      "course": 1512,
      "BRARY": 1513,
      "talk": 1514,
      "LIBRARY": 1515,
      "VERSION": 1516,
      "GUTENBERG": 1517,
      "PROVIDED": 1518,
      "BEN": 1519,
      "MIS": 1520,
      "MEM": 1521,
      "WORK": 1522,
      "WORL": 1523,
      "gave": 1524,
      "USED": 1525,
      "peak": 1526,
      "ONLY": 1527,
      "LOAD": 1528,
      "LEGE": 1529,
      "EDICT": 1530,
      "RIGHT": 1531,
      "COPY": 1532,
      "PROHI": 1533,
      "BERSHIP": 1534,
      "PERMIS": 1535,
      "WNLOAD": 1536,
      "DISTRIBUTION": 1537,
      "ILLINO": 1538,
      "ADABLE": 1539,
      "SERVICE": 1540,
      "1990": 1541,
      "1993": 1542,
      "DOWNLOAD": 1543,
      "COMMERCIALLY": 1544,
      "READABLE": 1545,
      "certain": 1546,
      "WITH": 1547,
      "BITED": 1548,
      "YOUR": 1549,
      "COLLEGE": 1550,
      "PERSONAL": 1551,
      "MACHINE": 1552,
      "INCLUDES": 1553,
      "BENEDICT": 1554,
      "MEMBERSHIP": 1555,
      "WORKS": 1556,
      "WORLD": 1557,
      "COPYRIGHT": 1558,
      "PROHIBITED": 1559,
      "PERMISSION": 1560,
      "ILLINOIS": 1561,
      "BENEDICTINE": 1562,
      ".>": 1563,
      "<<": 1564,
      "arn": 1565,
      "pleasure": 1566,
      ".>>": 1567,
      "DY": 1568,
      "iers": 1569,
      "ford": 1570,
      "suit": 1571,
      "hate": 1572,
      "TIT": 1573,
      "ROSALIND": 1574,
      "oath": 1575,
      "val": 1576,
      "fav": 1577,
      "purpose": 1578,
      "High": 1579,
      "bour": 1580,
      "ROM": 1581,
      "MR": 1582,
      "PAR": 1583,
      "sil": 1584,
      "MRS": 1585,
      "ied": 1586,
      "sit": 1587,
      "som": 1588,
      "days": 1589,
      "cester": 1590,
      "sad": 1591,
      "lose": 1592,
      "work": 1593,
      "plain": 1594,
      "company": 1595,
      "Leon": 1596,
      "Say": 1597,
      "Speak": 1598,
      "aw": 1599,
      "act": 1600,
      "wat": 1601,
      "loves": 1602,
      "Before": 1603,
      "bound": 1604,
      "kne": 1605,
      "ling": 1606,
      "pity": 1607,
      "quick": 1608,
      "bles": 1609,
      "seek": 1610,
      "thinks": 1611,
      "each": 1612,
      "desire": 1613,
      "Ha": 1614,
      "TRO": 1615,
      "WARD": 1616,
      "cri": 1617,
      "Pray": 1618,
      "BETH": 1619,
      "MACBETH": 1620,
      "Till": 1621,
      "Take": 1622,
      "oose": 1623,
      "sum": 1624,
      "Bo": 1625,
      "Me": 1626,
      "change": 1627,
      "aff": 1628,
      "beseech": 1629,
      "doubt": 1630,
      "soon": 1631,
      "ures": 1632,
      "knows": 1633,
      "French": 1634,
      "See": 1635,
      "OLUS": 1636,
      "looks": 1637,
      "PHOLUS": 1638,
      "foot": 1639,
      "ANTIPHOLUS": 1640,
      "AP": 1641,
      "ESSI": 1642,
      "cius": 1643,
      "LEN": 1644,
      "ones": 1645,
      "lour": 1646,
      "wound": 1647,
      "ANUS": 1648,
      "lov": 1649,
      "ief": 1650,
      "Majesty": 1651,
      "GENTLEMAN": 1652,
      "One": 1653,
      "dream": 1654,
      "fet": 1655,
      "ily": 1656,
      "gracious": 1657,
      "haste": 1658,
      "PAND": 1659,
      "Were": 1660,
      "danger": 1661,
      "comfort": 1662,
      "sake": 1663,
      "trait": 1664,
      "queen": 1665,
      "drink": 1666,
      "War": 1667,
      "emp": 1668,
      "mouth": 1669,
      "estion": 1670,
      "urse": 1671,
      "HN": 1672,
      "Mad": 1673,
      "dare": 1674,
      "sl": 1675,
      "ool": 1676,
      "ARUS": 1677,
      "given": 1678,
      "JOHN": 1679,
      "HEL": 1680,
      "Kent": 1681,
      "ian": 1682,
      "sworn": 1683,
      "HELEN": 1684,
      "CR": 1685,
      "touch": 1686,
      "ub": 1687,
      "wick": 1688,
      "prince": 1689,
      "between": 1690,
      "Edward": 1691,
      "ump": 1692,
      "cond": 1693,
      "grave": 1694,
      "general": 1695,
      "sur": 1696,
      "lives": 1697,
      "THUM": 1698,
      "Farewell": 1699,
      "HAM": 1700,
      "ris": 1701,
      "marry": 1702,
      "ABEL": 1703,
      "Most": 1704,
      "believe": 1705,
      "Ti": 1706,
      "bir": 1707,
      "burn": 1708,
      "dro": 1709,
      "sal": 1710,
      "Tell": 1711,
      "bor": 1712,
      "dow": 1713,
      "praise": 1714,
      "Like": 1715,
      "DROM": 1716,
      "ZEN": 1717,
      "years": 1718,
      "ends": 1719,
      "TIZEN": 1720,
      "CITIZEN": 1721,
      "Highness": 1722,
      "NOR": 1723,
      "VAL": 1724,
      "Whi": 1725,
      "further": 1726,
      "mn": 1727,
      "ses": 1728,
      "move": 1729,
      "holy": 1730,
      "DROMIO": 1731,
      "BEL": 1732,
      "CEL": 1733,
      "money": 1734,
      "wal": 1735,
      "utus": 1736,
      "thyself": 1737,
      "sue": 1738,
      "writ": 1739,
      "brought": 1740,
      "BUR": 1741,
      "cke": 1742,
      "past": 1743,
      "beat": 1744,
      "chance": 1745,
      "unes": 1746,
      "Marry": 1747,
      "Warwick": 1748,
      "ABELLA": 1749,
      "hu": 1750,
      "warrant": 1751,
      "Lady": 1752,
      "cent": 1753,
      "gg": 1754,
      "yield": 1755,
      "took": 1756,
      "Gloucester": 1757,
      "learn": 1758,
      "def": 1759,
      "Beat": 1760,
      "others": 1761,
      "mark": 1762,
      "brave": 1763,
      "vereign": 1764,
      "Richard": 1765,
      "Madam": 1766,
      "cro": 1767,
      "lad": 1768,
      "deep": 1769,
      "ENIUS": 1770,
      "fast": 1771,
      "sign": 1772,
      "Brutus": 1773,
      "MENENIUS": 1774,
      "VOL": 1775,
      "four": 1776,
      "pay": 1777,
      "tune": 1778,
      "ues": 1779,
      "ANO": 1780,
      "fection": 1781,
      "ground": 1782,
      "Mis": 1783,
      "POR": 1784,
      "SU": 1785,
      "Yes": 1786,
      "ens": 1787,
      "ated": 1788,
      "met": 1789,
      "hell": 1790,
      "requ": 1791,
      "Thus": 1792,
      "suff": 1793,
      "Alas": 1794,
      "virtue": 1795,
      "BUC": 1796,
      "eat": 1797,
      "ech": 1798,
      "gall": 1799,
      "pi": 1800,
      "cei": 1801,
      "sovereign": 1802,
      "EDWARD": 1803,
      "KINGHAM": 1804,
      "vile": 1805,
      "TRUCH": 1806,
      "PETRUCH": 1807,
      "PRINCE": 1808,
      "fault": 1809,
      "BUCKINGHAM": 1810,
      "PETRUCHIO": 1811,
      "Away": 1812,
      "IOL": 1813,
      "mur": 1814,
      "ONA": 1815,
      "LADY": 1816,
      "English": 1817,
      "report": 1818,
      "CORIOL": 1819,
      "CORIOLANUS": 1820,
      "Cor": 1821,
      "abo": 1822,
      "obe": 1823,
      "sla": 1824,
      "arry": 1825,
      "bot": 1826,
      "bold": 1827,
      "save": 1828,
      "women": 1829,
      "mercy": 1830,
      "SHAL": 1831,
      "FFOLK": 1832,
      "ANTONIO": 1833,
      "SUFFOLK": 1834,
      "wis": 1835,
      "Com": 1836,
      "Had": 1837,
      "ron": 1838,
      "hearts": 1839,
      "knave": 1840,
      "TITUS": 1841,
      "lan": 1842,
      "watch": 1843,
      "rel": 1844,
      "point": 1845,
      "UNT": 1846,
      "ength": 1847,
      "person": 1848,
      "CAL": 1849,
      "Per": 1850,
      "black": 1851,
      "music": 1852,
      "AU": 1853,
      "lly": 1854,
      "INA": 1855,
      "prof": 1856,
      "ilt": 1857,
      "PANDARUS": 1858,
      "BUS": 1859,
      "Ch": 1860,
      "OWN": 1861,
      "oward": 1862,
      "BEROWN": 1863,
      "TOBY": 1864,
      "BEROWNE": 1865,
      "IZ": 1866,
      "cast": 1867,
      "thri": 1868,
      "ESAR": 1869,
      "sup": 1870,
      "question": 1871,
      "CAESAR": 1872,
      "HELENA": 1873,
      "liant": 1874,
      "rum": 1875,
      "hot": 1876,
      "soldiers": 1877,
      "Ah": 1878,
      "ras": 1879,
      "esh": 1880,
      "goes": 1881,
      "iece": 1882,
      "heavy": 1883,
      "sons": 1884,
      "enemy": 1885,
      "ENTINE": 1886,
      "confess": 1887,
      "DESDEM": 1888,
      "VALENTINE": 1889,
      "DESDEMONA": 1890,
      "CL": 1891,
      "Par": 1892,
      "cord": 1893,
      "sk": 1894,
      "woo": 1895,
      "quar": 1896,
      "LOW": 1897,
      "tender": 1898,
      "ESSIDA": 1899,
      "CRESSIDA": 1900,
      "Hor": 1901,
      "Tru": 1902,
      "amp": 1903,
      "merry": 1904,
      "Make": 1905,
      "Rom": 1906,
      "hind": 1907,
      "bless": 1908,
      "subject": 1909,
      "!'": 1910,
      "Since": 1911,
      "ca": 1912,
      "farewell": 1913,
      "ga": 1914,
      "mock": 1915,
      "OLLES": 1916,
      "ions": 1917,
      "PROTE": 1918,
      "Roman": 1919,
      "PAROLLES": 1920,
      "SHALLOW": 1921,
      "PROTEUS": 1922,
      "knew": 1923,
      "lot": 1924,
      "next": 1925,
      "speech": 1926,
      "wenty": 1927,
      "pet": 1928,
      "tin": 1929,
      "lic": 1930,
      "safe": 1931,
      "appear": 1932,
      "Out": 1933,
      "SOL": 1934,
      "ior": 1935,
      "ile": 1936,
      "knight": 1937,
      "ceed": 1938,
      "ESUS": 1939,
      "ILUS": 1940,
      "EPHESUS": 1941,
      "patience": 1942,
      "water": 1943,
      "TROILUS": 1944,
      "pret": 1945,
      "ament": 1946,
      "THIR": 1947,
      "THIRD": 1948,
      "Des": 1949,
      "JA": 1950,
      "base": 1951,
      "dge": 1952,
      "vel": 1953,
      "ANCE": 1954,
      "short": 1955,
      "ils": 1956,
      "themselves": 1957,
      "Ben": 1958,
      "CUS": 1959,
      "Ped": 1960,
      "cul": 1961,
      "ea": 1962,
      "mir": 1963,
      "pit": 1964,
      "stant": 1965,
      "hair": 1966,
      "ANS": 1967,
      "coming": 1968,
      "sport": 1969,
      "voice": 1970,
      "LUCIUS": 1971,
      "town": 1972,
      ".-": 1973,
      "ges": 1974,
      "won": 1975,
      "sec": 1976,
      "lips": 1977,
      "speed": 1978,
      "desp": 1979,
      "counter": 1980,
      "LYS": 1981,
      "open": 1982,
      "III": 1983,
      "mit": 1984,
      "sat": 1985,
      "twenty": 1986,
      "dog": 1987,
      "neither": 1988,
      "Romeo": 1989,
      "banish": 1990,
      "favour": 1991,
      "Pedro": 1992,
      "Coun": 1993,
      "Swe": 1994,
      "ek": 1995,
      "behold": 1996,
      "ooth": 1997,
      "feel": 1998,
      "ISABELLA": 1999,
      "Within": 2000,
      "valiant": 2001,
      "Ju": 2002,
      "ack": 2003,
      "uous": 2004,
      "toward": 2005,
      "weak": 2006,
      "entreat": 2007,
      "ANG": 2008,
      "TIA": 2009,
      "trump": 2010,
      "Should": 2011,
      "straight": 2012,
      "PORTIA": 2013,
      "!-": 2014,
      "YM": 2015,
      "door": 2016,
      "sion": 2017,
      "something": 2018,
      "broke": 2019,
      "gentlemen": 2020,
      "remember": 2021,
      "BRO": 2022,
      "Mon": 2023,
      "len": 2024,
      "cover": 2025,
      "ally": 2026,
      "ONE": 2027,
      "worse": 2028,
      "Hector": 2029,
      "counsel": 2030,
      "justice": 2031,
      "servant": 2032,
      "palace": 2033,
      "BAR": 2034,
      "Gent": 2035,
      "HOST": 2036,
      "cas": 2037,
      "duty": 2038,
      "ger": 2039,
      "rah": 2040,
      "dden": 2041,
      "soldier": 2042,
      "claim": 2043,
      "book": 2044,
      "whe": 2045,
      "ches": 2046,
      "lia": 2047,
      "host": 2048,
      "LEON": 2049,
      "fol": 2050,
      "damn": 2051,
      ",'": 2052,
      "GAR": 2053,
      "Pri": 2054,
      "hur": 2055,
      "win": 2056,
      "wret": 2057,
      "withal": 2058,
      "loss": 2059,
      "canst": 2060,
      "married": 2061,
      "Sweet": 2062,
      "Fri": 2063,
      "GEN": 2064,
      "creat": 2065,
      "phe": 2066,
      "qual": 2067,
      "ILIA": 2068,
      "Stand": 2069,
      "Mistress": 2070,
      "Must": 2071,
      "bad": 2072,
      "ew": 2073,
      "either": 2074,
      "moun": 2075,
      "stoo": 2076,
      "wast": 2077,
      "note": 2078,
      "ways": 2079,
      "didst": 2080,
      "BROKE": 2081,
      "FE": 2082,
      "city": 2083,
      "fra": 2084,
      "pes": 2085,
      "ham": 2086,
      "Their": 2087,
      "woe": 2088,
      "els": 2089,
      "liege": 2090,
      "Peace": 2091,
      "traitor": 2092,
      "BOT": 2093,
      "CON": 2094,
      "bow": 2095,
      "coward": 2096,
      "gin": 2097,
      "iz": 2098,
      "stre": 2099,
      "rage": 2100,
      "loy": 2101,
      "STOL": 2102,
      "moon": 2103,
      "SIC": 2104,
      "action": 2105,
      "PISTOL": 2106,
      "SEN": 2107,
      "Wor": 2108,
      "dd": 2109,
      "wonder": 2110,
      "glad": 2111,
      "needs": 2112,
      "Such": 2113,
      "Cassio": 2114,
      "bury": 2115,
      "eas": 2116,
      "umber": 2117,
      "riage": 2118,
      "amb": 2119,
      "mortal": 2120,
      "OLIV": 2121,
      "rows": 2122,
      "flesh": 2123,
      "OLIVIA": 2124,
      "Against": 2125,
      "MAL": 2126,
      "OBAR": 2127,
      "ads": 2128,
      "ENOBAR": 2129,
      "feit": 2130,
      "spoke": 2131,
      "CASSIUS": 2132,
      "IMOGEN": 2133,
      "BURY": 2134,
      "ENOBARBUS": 2135,
      "MPE": 2136,
      "Troy": 2137,
      "UE": 2138,
      "emb": 2139,
      "revenge": 2140,
      "ered": 2141,
      "almost": 2142,
      "already": 2143,
      "white": 2144,
      "ANA": 2145,
      "ender": 2146,
      "THER": 2147,
      "scorn": 2148,
      "hours": 2149,
      "VIOL": 2150,
      "KATHER": 2151,
      "LEONTES": 2152,
      "Bene": 2153,
      "dest": 2154,
      "ny": 2155,
      "pow": 2156,
      "staff": 2157,
      "ENTI": 2158,
      "tage": 2159,
      "ANDO": 2160,
      "stands": 2161,
      "firm": 2162,
      "ORLANDO": 2163,
      "Lond": 2164,
      "cred": 2165,
      "iet": 2166,
      "sever": 2167,
      "dies": 2168,
      "prithee": 2169,
      "grant": 2170,
      "BOY": 2171,
      "suffer": 2172,
      "VIOLA": 2173,
      "London": 2174,
      "dish": 2175,
      "hood": 2176,
      "ELO": 2177,
      "presently": 2178,
      "ANGELO": 2179,
      "Sc": 2180,
      "bla": 2181,
      "ia": 2182,
      "sw": 2183,
      "chamber": 2184,
      "laugh": 2185,
      "Love": 2186,
      "folk": 2187,
      "SICINIUS": 2188,
      "Cla": 2189,
      "Clau": 2190,
      "Hot": 2191,
      "mand": 2192,
      "passi": 2193,
      "pluck": 2194,
      "scar": 2195,
      "Claudi": 2196,
      "Call": 2197,
      "cuse": 2198,
      "dark": 2199,
      "wars": 2200,
      "ines": 2201,
      "become": 2202,
      "chief": 2203,
      "hide": 2204,
      "lion": 2205,
      "Wel": 2206,
      "join": 2207,
      "respect": 2208,
      "Hero": 2209,
      "deliver": 2210,
      "DIO": 2211,
      "HER": 2212,
      "Mer": 2213,
      "SPER": 2214,
      "Yea": 2215,
      "bond": 2216,
      "test": 2217,
      "stir": 2218,
      "heir": 2219,
      "aside": 2220,
      "PROSPER": 2221,
      "judg": 2222,
      "walk": 2223,
      "Claudio": 2224,
      "PROSPERO": 2225,
      "aves": 2226,
      "jest": 2227,
      "main": 2228,
      "ended": 2229,
      "lock": 2230,
      "bosom": 2231,
      "flow": 2232,
      "SOLDI": 2233,
      "din": 2234,
      "eror": 2235,
      "ities": 2236,
      "rever": 2237,
      "wixt": 2238,
      "morning": 2239,
      "guard": 2240,
      "deny": 2241,
      "MARGAR": 2242,
      "ago": 2243,
      "ev": 2244,
      "often": 2245,
      "beast": 2246,
      "fell": 2247,
      "trou": 2248,
      "LAUN": 2249,
      "strength": 2250,
      "BASTARD": 2251,
      "umph": 2252,
      "slave": 2253,
      "Pol": 2254,
      "case": 2255,
      "fan": 2256,
      "ires": 2257,
      "cience": 2258,
      "died": 2259,
      "office": 2260,
      "heavens": 2261,
      "BAS": 2262,
      "dar": 2263,
      "ker": 2264,
      "uri": 2265,
      "thir": 2266,
      "reg": 2267,
      "wild": 2268,
      "feast": 2269,
      "flatter": 2270,
      "ssess": 2271,
      "letters": 2272,
      "pale": 2273,
      "battle": 2274,
      "excell": 2275,
      "Dis": 2276,
      "Mac": 2277,
      "SPE": 2278,
      "fill": 2279,
      "pap": 2280,
      "tor": 2281,
      "arl": 2282,
      "hion": 2283,
      "sudden": 2284,
      "sible": 2285,
      "thanks": 2286,
      "offer": 2287,
      "speaks": 2288,
      "TRAM": 2289,
      "BERTRAM": 2290,
      "Wi": 2291,
      "athe": 2292,
      "fas": 2293,
      "fam": 2294,
      "eds": 2295,
      "dire": 2296,
      "via": 2297,
      "harm": 2298,
      "slain": 2299,
      "Claud": 2300,
      "MARGARET": 2301,
      "SPEED": 2302,
      "SA": 2303,
      "na": 2304,
      "ost": 2305,
      "tre": 2306,
      "having": 2307,
      "lordship": 2308,
      "quo": 2309,
      "truly": 2310,
      "REY": 2311,
      "sense": 2312,
      "above": 2313,
      "BARD": 2314,
      "HOR": 2315,
      "NE": 2316,
      "PUC": 2317,
      "bur": 2318,
      "ima": 2319,
      "mess": 2320,
      "ENCE": 2321,
      "OLPH": 2322,
      "RIUS": 2323,
      "Doth": 2324,
      "ched": 2325,
      "CELIA": 2326,
      "ceiv": 2327,
      "BARDOLPH": 2328,
      "fing": 2329,
      "tit": 2330,
      "bell": 2331,
      "living": 2332,
      "suc": 2333,
      "proach": 2334,
      "fully": 2335,
      "Hast": 2336,
      "JUL": 2337,
      "por": 2338,
      "throw": 2339,
      "loving": 2340,
      "exe": 2341,
      "ENTIO": 2342,
      "Nurse": 2343,
      "fat": 2344,
      "hed": 2345,
      "mast": 2346,
      "COUNT": 2347,
      "whole": 2348,
      "undred": 2349,
      "begin": 2350,
      "children": 2351,
      "POMPE": 2352,
      "BASTIAN": 2353,
      "SEBASTIAN": 2354,
      "CLI": 2355,
      "Know": 2356,
      "spr": 2357,
      "instru": 2358,
      "ash": 2359,
      "poison": 2360,
      "ations": 2361,
      "ices": 2362,
      "kings": 2363,
      "deeds": 2364,
      "ATOR": 2365,
      "witness": 2366,
      "spirits": 2367,
      "conscience": 2368,
      "SOLDIER": 2369,
      "JULIA": 2370,
      "POMPEY": 2371,
      "Sign": 2372,
      "Tal": 2373,
      "five": 2374,
      "patch": 2375,
      "order": 2376,
      "sigh": 2377,
      "teach": 2378,
      "CHESS": 2379,
      "DUCHESS": 2380,
      "heads": 2381,
      "tempt": 2382,
      "Jul": 2383,
      "pare": 2384,
      "nock": 2385,
      "beard": 2386,
      "liber": 2387,
      "OLI": 2388,
      "marriage": 2389,
      "ETRIUS": 2390,
      "understand": 2391,
      "LUCIO": 2392,
      "strike": 2393,
      "DEMETRIUS": 2394,
      "vantage": 2395,
      "ale": 2396,
      "bast": 2397,
      "eld": 2398,
      "fle": 2399,
      "hundred": 2400,
      "mies": 2401,
      "oc": 2402,
      "erv": 2403,
      "possess": 2404,
      "aught": 2405,
      "Being": 2406,
      "breast": 2407,
      "double": 2408,
      "passion": 2409,
      "lst": 2410,
      "rey": 2411,
      "lip": 2412,
      "oot": 2413,
      "cted": 2414,
      "resol": 2415,
      "cheer": 2416,
      "Prote": 2417,
      "FRANCE": 2418,
      "cross": 2419,
      "fashion": 2420,
      "ETH": 2421,
      "Harry": 2422,
      "aven": 2423,
      "cti": 2424,
      "fres": 2425,
      "meas": 2426,
      "behind": 2427,
      "proof": 2428,
      "acqu": 2429,
      "mighty": 2430,
      "gives": 2431,
      "Friar": 2432,
      "BOL": 2433,
      "MI": 2434,
      "Never": 2435,
      "VIUS": 2436,
      "pher": 2437,
      "rough": 2438,
      "swi": 2439,
      "tom": 2440,
      "ites": 2441,
      "chur": 2442,
      "ARENCE": 2443,
      "ELIZ": 2444,
      "INGBROKE": 2445,
      "SIL": 2446,
      "affection": 2447,
      "LAFE": 2448,
      "ABETH": 2449,
      "Hamlet": 2450,
      "PRINCESS": 2451,
      "CLARENCE": 2452,
      "satis": 2453,
      "BOLINGBROKE": 2454,
      "ELIZABETH": 2455,
      "LAFEU": 2456,
      "Pom": 2457,
      "gif": 2458,
      "lust": 2459,
      "mid": 2460,
      "soft": 2461,
      "arch": 2462,
      "held": 2463,
      "ARMA": 2464,
      "tale": 2465,
      "wouldst": 2466,
      "div": 2467,
      "fortunes": 2468,
      "effect": 2469,
      "remain": 2470,
      "COUNTESS": 2471,
      "ARMADO": 2472,
      "Fa": 2473,
      "MUR": 2474,
      "bal": 2475,
      "dread": 2476,
      "drun": 2477,
      "uff": 2478,
      "ket": 2479,
      "til": 2480,
      "worship": 2481,
      "EMILIA": 2482,
      "enemies": 2483,
      "AGUE": 2484,
      "CASSIO": 2485,
      "Ind": 2486,
      "Tro": 2487,
      "cru": 2488,
      "inal": 2489,
      "inces": 2490,
      "issue": 2491,
      "stance": 2492,
      "seas": 2493,
      "choose": 2494,
      "post": 2495,
      "ALL": 2496,
      "ANTUS": 2497,
      "EMANTUS": 2498,
      "souls": 2499,
      "close": 2500,
      "APEMANTUS": 2501,
      "Scene": 2502,
      "execut": 2503,
      "Signior": 2504,
      "EV": 2505,
      "receive": 2506,
      "ANNE": 2507,
      "labour": 2508,
      "simp": 2509,
      "Laer": 2510,
      "pretty": 2511,
      "Kate": 2512,
      "match": 2513,
      "ok": 2514,
      "treason": 2515,
      "ught": 2516,
      "vow": 2517,
      "year": 2518,
      "noise": 2519,
      "ourselves": 2520,
      "along": 2521,
      "rain": 2522,
      "ung": 2523,
      "god": 2524,
      "steal": 2525,
      "promise": 2526,
      "CYM": 2527,
      "LAND": 2528,
      "SET": 2529,
      "llo": 2530,
      "stain": 2531,
      "conqu": 2532,
      "akes": 2533,
      "ext": 2534,
      "parts": 2535,
      "Reg": 2536,
      "small": 2537,
      "rememb": 2538,
      "buy": 2539,
      "BELINE": 2540,
      "secret": 2541,
      "CYMBELINE": 2542,
      "Emp": 2543,
      "Hold": 2544,
      "bas": 2545,
      "eth": 2546,
      "forget": 2547,
      "seems": 2548,
      "Because": 2549,
      "ETER": 2550,
      "write": 2551,
      "pride": 2552,
      "longer": 2553,
      "natur": 2554,
      "MARIA": 2555,
      "SENATOR": 2556,
      "paper": 2557,
      "fresh": 2558,
      "EVANS": 2559,
      "MOR": 2560,
      "ax": 2561,
      "wood": 2562,
      "health": 2563,
      "seal": 2564,
      "bears": 2565,
      "col": 2566,
      "motion": 2567,
      "quiet": 2568,
      "worst": 2569,
      "cient": 2570,
      "TRANIO": 2571,
      "patient": 2572,
      "Page": 2573,
      "Ven": 2574,
      "bb": 2575,
      "dri": 2576,
      "ners": 2577,
      "eding": 2578,
      "sol": 2579,
      "ERD": 2580,
      "vern": 2581,
      "consent": 2582,
      "going": 2583,
      "cian": 2584,
      "march": 2585,
      "Mark": 2586,
      "ADRI": 2587,
      "parti": 2588,
      "carry": 2589,
      "Lucius": 2590,
      "Timon": 2591,
      "ladies": 2592,
      "excellent": 2593,
      "Da": 2594,
      "Hark": 2595,
      "IEL": 2596,
      "Ty": 2597,
      "gates": 2598,
      "horn": 2599,
      "twas": 2600,
      "try": 2601,
      "vie": 2602,
      "second": 2603,
      "assa": 2604,
      "wealth": 2605,
      "manner": 2606,
      "Hear": 2607,
      "presence": 2608,
      "brain": 2609,
      "fetch": 2610,
      "Chris": 2611,
      "Bes": 2612,
      "Clar": 2613,
      "Qu": 2614,
      "].": 2615,
      "ised": 2616,
      "tol": 2617,
      "cher": 2618,
      "ardinal": 2619,
      "conce": 2620,
      "Gentle": 2621,
      "KATHERINA": 2622,
      "judgment": 2623,
      "trouble": 2624,
      "GU": 2625,
      "Saint": 2626,
      "awhile": 2627,
      "dull": 2628,
      "drown": 2629,
      "fine": 2630,
      "least": 2631,
      "forgot": 2632,
      "ents": 2633,
      "STARD": 2634,
      "COSTARD": 2635,
      "kingdom": 2636,
      "honourable": 2637,
      "foolish": 2638,
      "Alb": 2639,
      "birth": 2640,
      "Bet": 2641,
      "ID": 2642,
      "Mess": 2643,
      "bs": 2644,
      "tes": 2645,
      "forward": 2646,
      "limb": 2647,
      "add": 2648,
      "anything": 2649,
      "fools": 2650,
      "curse": 2651,
      "virtuous": 2652,
      "brief": 2653,
      "judge": 2654,
      "dangerous": 2655,
      "Athen": 2656,
      "Gu": 2657,
      "HAST": 2658,
      "Ver": 2659,
      "ved": 2660,
      "nder": 2661,
      "neigh": 2662,
      "taken": 2663,
      "Fortune": 2664,
      "SITES": 2665,
      "ledge": 2666,
      "SEY": 2667,
      "valour": 2668,
      "murder": 2669,
      "Paris": 2670,
      "THERSITES": 2671,
      "HASTING": 2672,
      "Bar": 2673,
      "Char": 2674,
      "Gon": 2675,
      "MOTH": 2676,
      "Sil": 2677,
      "Tit": 2678,
      "piece": 2679,
      "round": 2680,
      "inf": 2681,
      "star": 2682,
      "cell": 2683,
      "sole": 2684,
      "ARINE": 2685,
      "contin": 2686,
      "ilus": 2687,
      "blind": 2688,
      "ARDIN": 2689,
      "entertain": 2690,
      "Edg": 2691,
      "position": 2692,
      "POS": 2693,
      "faults": 2694,
      "KATHARINE": 2695,
      "VOLIO": 2696,
      "natural": 2697,
      "view": 2698,
      "Clarence": 2699,
      "HASTINGS": 2700,
      "Great": 2701,
      "dra": 2702,
      "ress": 2703,
      "ude": 2704,
      "esy": 2705,
      "leep": 2706,
      "liv": 2707,
      "iles": 2708,
      "perceive": 2709,
      "CAM": 2710,
      "month": 2711,
      "possible": 2712,
      "THUMUS": 2713,
      "quarrel": 2714,
      "MALVOLIO": 2715,
      "POSTHUMUS": 2716,
      "Am": 2717,
      "Bro": 2718,
      "Earl": 2719,
      "VIR": 2720,
      "ele": 2721,
      "fter": 2722,
      "gy": 2723,
      "anon": 2724,
      "ited": 2725,
      "reck": 2726,
      "cept": 2727,
      "kept": 2728,
      "among": 2729,
      "ider": 2730,
      "shar": 2731,
      "Helen": 2732,
      "ISBURY": 2733,
      "BERLAND": 2734,
      "beggar": 2735,
      "SALISBURY": 2736,
      "Stay": 2737,
      "Brit": 2738,
      "phy": 2739,
      "Falstaff": 2740,
      "TENSI": 2741,
      "THUMBERLAND": 2742,
      "NORTHUMBERLAND": 2743,
      "HORTENSI": 2744,
      "BAN": 2745,
      "Flour": 2746,
      "OP": 2747,
      "dain": 2748,
      "ease": 2749,
      "yond": 2750,
      "thor": 2751,
      "Think": 2752,
      "table": 2753,
      "takes": 2754,
      "ility": 2755,
      "proceed": 2756,
      "ILLO": 2757,
      "offence": 2758,
      "shows": 2759,
      "jeal": 2760,
      "IANA": 2761,
      "boys": 2762,
      "bitter": 2763,
      "troth": 2764,
      "masters": 2765,
      "Pompe": 2766,
      "Flourish": 2767,
      "FFORD": 2768,
      "Mine": 2769,
      "SES": 2770,
      "ULYS": 2771,
      "VIA": 2772,
      "evil": 2773,
      "umb": 2774,
      "depart": 2775,
      "six": 2776,
      "Heaven": 2777,
      "Nothing": 2778,
      "proper": 2779,
      "opin": 2780,
      "Attend": 2781,
      "ULYSSES": 2782,
      "WOL": 2783,
      "aid": 2784,
      "ging": 2785,
      "twere": 2786,
      "ual": 2787,
      "ato": 2788,
      "argu": 2789,
      "wed": 2790,
      "colour": 2791,
      "shake": 2792,
      "mali": 2793,
      "OLY": 2794,
      "dience": 2795,
      "angry": 2796,
      "fold": 2797,
      "Dost": 2798,
      "quickly": 2799,
      "Welcome": 2800,
      "dinner": 2801,
      "WOLSEY": 2802,
      "CK": 2803,
      "VOST": 2804,
      "rance": 2805,
      "inc": 2806,
      "orti": 2807,
      "ingly": 2808,
      "beth": 2809,
      "shape": 2810,
      "laid": 2811,
      "CHE": 2812,
      "PROVOST": 2813,
      "fied": 2814,
      "commend": 2815,
      "green": 2816,
      "summer": 2817,
      "wisdom": 2818,
      "JAQU": 2819,
      "hurt": 2820,
      "BASS": 2821,
      "title": 2822,
      "Talbot": 2823,
      "Troilus": 2824,
      "cruel": 2825,
      "Pompey": 2826,
      "Cardinal": 2827,
      "EK": 2828,
      "eed": 2829,
      "sooth": 2830,
      "vain": 2831,
      "vise": 2832,
      "herself": 2833,
      "supp": 2834,
      "ounds": 2835,
      "fearful": 2836,
      "guil": 2837,
      "purse": 2838,
      "grand": 2839,
      "humour": 2840,
      "pains": 2841,
      "cked": 2842,
      "measure": 2843,
      "Faith": 2844,
      "AGUECHE": 2845,
      "AGUECHEEK": 2846,
      "Fool": 2847,
      "Gree": 2848,
      "YLO": 2849,
      "catch": 2850,
      "gir": 2851,
      "zen": 2852,
      "rust": 2853,
      "sie": 2854,
      "blow": 2855,
      "spur": 2856,
      "Whom": 2857,
      "SHYLO": 2858,
      "LUCENTIO": 2859,
      "rank": 2860,
      "CLOTEN": 2861,
      "borne": 2862,
      "bastard": 2863,
      "Emperor": 2864,
      "SHYLOCK": 2865,
      "ACH": 2866,
      "DE": 2867,
      "Iago": 2868,
      "Under": 2869,
      "mend": 2870,
      "sus": 2871,
      "sort": 2872,
      "wra": 2873,
      "thro": 2874,
      "arum": 2875,
      "lif": 2876,
      "entine": 2877,
      "CHIMO": 2878,
      "IACHIMO": 2879,
      "Jove": 2880,
      "temper": 2881,
      "Unless": 2882,
      "Cassius": 2883,
      "Juli": 2884,
      "BOYET": 2885,
      "occas": 2886,
      "ATI": 2887,
      "Dou": 2888,
      "Fir": 2889,
      "Wal": 2890,
      "ade": 2891,
      "drum": 2892,
      "kin": 2893,
      "sch": 2894,
      "eness": 2895,
      "army": 2896,
      "vey": 2897,
      "ESCAL": 2898,
      "Into": 2899,
      "plague": 2900,
      "ILLES": 2901,
      "sorry": 2902,
      "Suf": 2903,
      "Both": 2904,
      "obey": 2905,
      "HORTENSIO": 2906,
      "ACHILLES": 2907,
      "ESCALUS": 2908,
      "Ano": 2909,
      "Corn": 2910,
      "Fair": 2911,
      "Jew": 2912,
      "cat": 2913,
      "due": 2914,
      "eks": 2915,
      "fled": 2916,
      "ged": 2917,
      "ler": 2918,
      "mut": 2919,
      "ror": 2920,
      "wine": 2921,
      "ames": 2922,
      "thence": 2923,
      "ignor": 2924,
      "golden": 2925,
      "Antonio": 2926,
      "blame": 2927,
      "drunk": 2928,
      "ADRIANA": 2929,
      "First": 2930,
      "Fie": 2931,
      "MED": 2932,
      "NON": 2933,
      "alive": 2934,
      "cir": 2935,
      "cure": 2936,
      "frown": 2937,
      "hy": 2938,
      "pin": 2939,
      "sland": 2940,
      "ature": 2941,
      "lease": 2942,
      "usur": 2943,
      "tian": 2944,
      "illes": 2945,
      "concl": 2946,
      "honesty": 2947,
      "offic": 2948,
      "glory": 2949,
      "calls": 2950,
      "train": 2951,
      "ucking": 2952,
      "drawn": 2953,
      "Moor": 2954,
      "large": 2955,
      "CONST": 2956,
      "BAP": 2957,
      "rs": 2958,
      "inno": 2959,
      "tern": 2960,
      "STONE": 2961,
      "sav": 2962,
      "TISTA": 2963,
      "COMINIUS": 2964,
      "Margar": 2965,
      "prayers": 2966,
      "QUICK": 2967,
      "jewel": 2968,
      "UCHSTONE": 2969,
      "enger": 2970,
      "stop": 2971,
      "TOUCHSTONE": 2972,
      "request": 2973,
      "BASSANIO": 2974,
      "BAPTISTA": 2975,
      "Margaret": 2976,
      "QUICKLY": 2977,
      "Ach": 2978,
      "GON": 2979,
      "ding": 2980,
      "iam": 2981,
      "wench": 2982,
      "instant": 2983,
      "reven": 2984,
      "chang": 2985,
      "unning": 2986,
      "feed": 2987,
      "blush": 2988,
      "approach": 2989,
      "broad": 2990,
      "MARCUS": 2991,
      "SOMER": 2992,
      "walls": 2993,
      "condition": 2994,
      "Count": 2995,
      "stood": 2996,
      "dishon": 2997,
      "DIOMED": 2998,
      "swift": 2999,
      "jealous": 3000,
      "Another": 3001,
      "DIOMEDES": 3002,
      "Ber": 3003,
      "hin": 3004,
      "methinks": 3005,
      "stor": 3006,
      "leg": 3007,
      "bel": 3008,
      "delight": 3009,
      "mod": 3010,
      "iffer": 3011,
      "wash": 3012,
      "exp": 3013,
      "Ange": 3014,
      "hearing": 3015,
      "Marcius": 3016,
      "holds": 3017,
      "wert": 3018,
      "laughter": 3019,
      "import": 3020,
      "Captain": 3021,
      "scarce": 3022,
      "Macbeth": 3023,
      "church": 3024,
      "CAMILLO": 3025,
      "Suffolk": 3026,
      "Fl": 3027,
      "FOLK": 3028,
      "Si": 3029,
      "TAL": 3030,
      "camp": 3031,
      "lest": 3032,
      "ption": 3033,
      "llen": 3034,
      "deal": 3035,
      "ELL": 3036,
      "glass": 3037,
      "priv": 3038,
      "wits": 3039,
      "William": 3040,
      "weary": 3041,
      "prisoner": 3042,
      "wounds": 3043,
      "NORFOLK": 3044,
      "After": 3045,
      "Ere": 3046,
      "Pis": 3047,
      "Val": 3048,
      "cr": 3049,
      "od": 3050,
      "song": 3051,
      "ug": 3052,
      "wd": 3053,
      "thither": 3054,
      "top": 3055,
      "because": 3056,
      "demand": 3057,
      "rice": 3058,
      "thout": 3059,
      "shepher": 3060,
      "viol": 3061,
      "cheek": 3062,
      "North": 3063,
      "grie": 3064,
      "LORDS": 3065,
      "struck": 3066,
      "humble": 3067,
      "trumpet": 3068,
      "Prithee": 3069,
      "several": 3070,
      "Without": 3071,
      "success": 3072,
      "opinion": 3073,
      "TALBOT": 3074,
      "Ab": 3075,
      "Bucking": 3076,
      "Di": 3077,
      "Fare": 3078,
      "NIA": 3079,
      "bright": 3080,
      "kins": 3081,
      "stone": 3082,
      "itiz": 3083,
      "Those": 3084,
      "demon": 3085,
      "taste": 3086,
      "loved": 3087,
      "blest": 3088,
      "ISH": 3089,
      "sper": 3090,
      "hadst": 3091,
      "greater": 3092,
      "CAIUS": 3093,
      "fig": 3094,
      "DUFF": 3095,
      "clock": 3096,
      "MACDUFF": 3097,
      "Art": 3098,
      "mia": 3099,
      "gross": 3100,
      "Indeed": 3101,
      "Angelo": 3102,
      "Buckingham": 3103,
      "Bring": 3104,
      "Co": 3105,
      "Fo": 3106,
      "HU": 3107,
      "Jack": 3108,
      "MON": 3109,
      "MIAN": 3110,
      "Serv": 3111,
      "cate": 3112,
      "nest": 3113,
      "vouch": 3114,
      "lean": 3115,
      "forbid": 3116,
      "rogue": 3117,
      "verse": 3118,
      "tear": 3119,
      "folly": 3120,
      "prepar": 3121,
      "Edm": 3122,
      "Rosal": 3123,
      "clear": 3124,
      "CHARMIAN": 3125,
      "greet": 3126,
      "wait": 3127,
      "GRATI": 3128,
      "street": 3129,
      "Achilles": 3130,
      "SOMERSET": 3131,
      "GRATIANO": 3132,
      "Lest": 3133,
      "PIS": 3134,
      "Se": 3135,
      "cup": 3136,
      "fru": 3137,
      "knock": 3138,
      "rous": 3139,
      "sme": 3140,
      "winter": 3141,
      "ises": 3142,
      "usion": 3143,
      "aking": 3144,
      "ages": 3145,
      "offend": 3146,
      "affair": 3147,
      "kindness": 3148,
      "Poor": 3149,
      "blessed": 3150,
      "drop": 3151,
      "MURDER": 3152,
      "PISANIO": 3153,
      "FLU": 3154,
      "bly": 3155,
      "bare": 3156,
      "cunning": 3157,
      "mere": 3158,
      "pun": 3159,
      "vell": 3160,
      "cost": 3161,
      "allow": 3162,
      "ARIUS": 3163,
      "necess": 3164,
      "endure": 3165,
      "rude": 3166,
      "govern": 3167,
      "iling": 3168,
      "ELLEN": 3169,
      "knowledge": 3170,
      "sirrah": 3171,
      "greatness": 3172,
      "monster": 3173,
      "tended": 3174,
      "precious": 3175,
      "bert": 3176,
      "visit": 3177,
      "captain": 3178,
      "BELARIUS": 3179,
      "rascal": 3180,
      "FLUELLEN": 3181,
      "Wilt": 3182,
      "brow": 3183,
      "bones": 3184,
      "mour": 3185,
      "rate": 3186,
      "sn": 3187,
      "ished": 3188,
      "ARIEL": 3189,
      "shadow": 3190,
      "neck": 3191,
      "dispatch": 3192,
      "breathe": 3193,
      "wherefore": 3194,
      "mission": 3195,
      "priest": 3196,
      "princely": 3197,
      "sharp": 3198,
      "BISH": 3199,
      "Get": 3200,
      "Lanc": 3201,
      "Mus": 3202,
      "Put": 3203,
      "TER": 3204,
      "aunt": 3205,
      "lend": 3206,
      "pier": 3207,
      "ume": 3208,
      "ancient": 3209,
      "ander": 3210,
      "ters": 3211,
      "advantage": 3212,
      "dolp": 3213,
      "safet": 3214,
      "bling": 3215,
      "author": 3216,
      "ANDER": 3217,
      "mbly": 3218,
      "excuse": 3219,
      "fright": 3220,
      "CADE": 3221,
      "fellows": 3222,
      "HOSTESS": 3223,
      "wretched": 3224,
      "LAUNCE": 3225,
      "third": 3226,
      "CLIFFORD": 3227,
      "BISHOP": 3228,
      "Lancaster": 3229,
      "ald": 3230,
      "bene": 3231,
      "corn": 3232,
      "dle": 3233,
      "gate": 3234,
      "loud": 3235,
      "nurse": 3236,
      "uch": 3237,
      "ys": 3238,
      "ona": 3239,
      "hel": 3240,
      "widow": 3241,
      "wicked": 3242,
      "terms": 3243,
      "cot": 3244,
      "ties": 3245,
      "fears": 3246,
      "STEPH": 3247,
      "uphin": 3248,
      "mund": 3249,
      "iful": 3250,
      "quite": 3251,
      "ieu": 3252,
      "ETTA": 3253,
      "compan": 3254,
      "tongues": 3255,
      "Edmund": 3256,
      "ROSALINE": 3257,
      "defend": 3258,
      "Bened": 3259,
      "Dauphin": 3260,
      "IDIUS": 3261,
      "safety": 3262,
      "AUT": 3263,
      "FLA": 3264,
      "Hence": 3265,
      "IDER": 3266,
      "JUS": 3267,
      "Stri": 3268,
      "boun": 3269,
      "intent": 3270,
      "heels": 3271,
      "seven": 3272,
      "yourselves": 3273,
      "goodly": 3274,
      "perform": 3275,
      "expect": 3276,
      "BERT": 3277,
      "triumph": 3278,
      "clou": 3279,
      "UMIO": 3280,
      "wrongs": 3281,
      "GRUMIO": 3282,
      "Time": 3283,
      "embrace": 3284,
      "SILVIA": 3285,
      "Christian": 3286,
      "GUIDER": 3287,
      "OLYCUS": 3288,
      "occasion": 3289,
      "itizens": 3290,
      "STEPHANO": 3291,
      "AUTOLYCUS": 3292,
      "JUSTI": 3293,
      "GUIDERIUS": 3294,
      "AAR": 3295,
      "Bl": 3296,
      "Ke": 3297,
      "luck": 3298,
      "ming": 3299,
      "twi": 3300,
      "ua": 3301,
      "zard": 3302,
      "inj": 3303,
      "ores": 3304,
      "memor": 3305,
      "sem": 3306,
      "ley": 3307,
      "former": 3308,
      "rose": 3309,
      "lius": 3310,
      "rid": 3311,
      "urg": 3312,
      "tic": 3313,
      "ident": 3314,
      "manners": 3315,
      "STR": 3316,
      "princes": 3317,
      "poin": 3318,
      "comple": 3319,
      "shouldst": 3320,
      "foes": 3321,
      "PHIL": 3322,
      "courage": 3323,
      "Reads": 3324,
      "brothers": 3325,
      "Unto": 3326,
      "EXETER": 3327,
      "ECTOR": 3328,
      "grows": 3329,
      "creature": 3330,
      "spring": 3331,
      "simple": 3332,
      "physi": 3333,
      "JAQUES": 3334,
      "Juliet": 3335,
      "private": 3336,
      "shepherd": 3337,
      "MURDERER": 3338,
      "AARON": 3339,
      "Could": 3340,
      "HECTOR": 3341,
      "dwell": 3342,
      "rise": 3343,
      "leaves": 3344,
      "owe": 3345,
      "uten": 3346,
      "ked": 3347,
      "hop": 3348,
      "sail": 3349,
      "spend": 3350,
      "victor": 3351,
      "miss": 3352,
      "Sirrah": 3353,
      "cheeks": 3354,
      "bestow": 3355,
      "lawful": 3356,
      "choly": 3357,
      "choice": 3358,
      "employ": 3359,
      "VOLUM": 3360,
      "ronic": 3361,
      "liberty": 3362,
      "Athens": 3363,
      "wrath": 3364,
      "Keep": 3365,
      "Ac": 3366,
      "Ford": 3367,
      "SLEN": 3368,
      "fain": 3369,
      "threat": 3370,
      "ano": 3371,
      "ora": 3372,
      "orge": 3373,
      "meat": 3374,
      "melan": 3375,
      "stud": 3376,
      "reput": 3377,
      "sequ": 3378,
      "legs": 3379,
      "forest": 3380,
      "weap": 3381,
      "persu": 3382,
      "witch": 3383,
      "paid": 3384,
      "Poins": 3385,
      "While": 3386,
      "Bardolp": 3387,
      "malice": 3388,
      "JUSTICE": 3389,
      "SLENDER": 3390,
      "Bardolph": 3391,
      "'-": 3392,
      "Ad": 3393,
      "Au": 3394,
      "Cast": 3395,
      "CARDIN": 3396,
      "FIC": 3397,
      "Ste": 3398,
      "fish": 3399,
      "pure": 3400,
      "sy": 3401,
      "yes": 3402,
      "intend": 3403,
      "stro": 3404,
      "nose": 3405,
      "hill": 3406,
      "utter": 3407,
      "roar": 3408,
      "room": 3409,
      "weigh": 3410,
      "als": 3411,
      "cock": 3412,
      "majesty": 3413,
      "shine": 3414,
      "contr": 3415,
      "constant": 3416,
      "tail": 3417,
      "blows": 3418,
      "OFFIC": 3419,
      "spent": 3420,
      "Somer": 3421,
      "desires": 3422,
      "tray": 3423,
      "Anne": 3424,
      "EMIO": 3425,
      "wards": 3426,
      "stern": 3427,
      "PAUL": 3428,
      "keeps": 3429,
      "steel": 3430,
      "CHARLES": 3431,
      "smile": 3432,
      "GREMIO": 3433,
      "Methinks": 3434,
      "thrice": 3435,
      "credit": 3436,
      "finger": 3437,
      "particul": 3438,
      "guilty": 3439,
      "Follow": 3440,
      "Benedick": 3441,
      "melancholy": 3442,
      "CARDINAL": 3443,
      "PAULINA": 3444,
      "Gi": 3445,
      "Pardon": 3446,
      "POLI": 3447,
      "Tower": 3448,
      "XEN": 3449,
      "cil": 3450,
      "dance": 3451,
      "fie": 3452,
      "hunt": 3453,
      "hors": 3454,
      "nay": 3455,
      "wing": 3456,
      "yra": 3457,
      "thief": 3458,
      "anio": 3459,
      "stars": 3460,
      "heed": 3461,
      "habit": 3462,
      "revo": 3463,
      "leis": 3464,
      "rot": 3465,
      "ourish": 3466,
      "doing": 3467,
      "ama": 3468,
      "tire": 3469,
      "tial": 3470,
      "iff": 3471,
      "perfect": 3472,
      "angu": 3473,
      "foe": 3474,
      "abs": 3475,
      "EMNON": 3476,
      "strous": 3477,
      "AMEMNON": 3478,
      "chain": 3479,
      "falls": 3480,
      "commit": 3481,
      "AGAMEMNON": 3482,
      "maiden": 3483,
      "Made": 3484,
      "venture": 3485,
      "oaths": 3486,
      "loyal": 3487,
      "circ": 3488,
      "MONT": 3489,
      "Somerset": 3490,
      "POLIXEN": 3491,
      "POLIXENES": 3492,
      "Bid": 3493,
      "Bol": 3494,
      "FAB": 3495,
      "Ho": 3496,
      "Hang": 3497,
      "Please": 3498,
      "Sen": 3499,
      "West": 3500,
      "cta": 3501,
      "cried": 3502,
      "fought": 3503,
      "gard": 3504,
      "murther": 3505,
      "net": 3506,
      "pub": 3507,
      "swords": 3508,
      "tur": 3509,
      "wond": 3510,
      "story": 3511,
      "stuff": 3512,
      "ingbroke": 3513,
      "betray": 3514,
      "liver": 3515,
      "few": 3516,
      "CHI": 3517,
      "mony": 3518,
      "honours": 3519,
      "madness": 3520,
      "lands": 3521,
      "throne": 3522,
      "wanton": 3523,
      "silver": 3524,
      "fancy": 3525,
      "argument": 3526,
      "VOLUMNIA": 3527,
      "Bolingbroke": 3528,
      "FABIAN": 3529,
      "AJA": 3530,
      "BIAN": 3531,
      "DOL": 3532,
      "Show": 3533,
      "URI": 3534,
      "VIL": 3535,
      "bon": 3536,
      "dry": 3537,
      "fond": 3538,
      "gown": 3539,
      "ife": 3540,
      "lament": 3541,
      "mal": 3542,
      "wag": 3543,
      "wake": 3544,
      "incess": 3545,
      "ense": 3546,
      "sell": 3547,
      "unless": 3548,
      "fee": 3549,
      "idle": 3550,
      "mach": 3551,
      "fame": 3552,
      "ify": 3553,
      "ELLE": 3554,
      "dig": 3555,
      "monstrous": 3556,
      "wherein": 3557,
      "Wherein": 3558,
      "bearing": 3559,
      "follows": 3560,
      "duc": 3561,
      "knee": 3562,
      "kneel": 3563,
      "mountain": 3564,
      "PUCELLE": 3565,
      "gift": 3566,
      "Tybal": 3567,
      "Britain": 3568,
      "Valentine": 3569,
      "smell": 3570,
      "affairs": 3571,
      "public": 3572,
      "AJAX": 3573,
      "BIANCA": 3574,
      "Clif": 3575,
      "Men": 3576,
      "Still": 3577,
      "ape": 3578,
      "dur": 3579,
      "grown": 3580,
      "port": 3581,
      "vows": 3582,
      "thunder": 3583,
      "medi": 3584,
      "heat": 3585,
      "demn": 3586,
      "oom": 3587,
      "ries": 3588,
      "lover": 3589,
      "fail": 3590,
      "app": 3591,
      "protest": 3592,
      "mayst": 3593,
      "cians": 3594,
      "civil": 3595,
      "accus": 3596,
      "fiend": 3597,
      "Wherefore": 3598,
      "assur": 3599,
      "clam": 3600,
      "chase": 3601,
      "repent": 3602,
      "courtesy": 3603,
      "vail": 3604,
      "Desdemon": 3605,
      "easy": 3606,
      "neighbour": 3607,
      "solemn": 3608,
      "leisure": 3609,
      "VILLE": 3610,
      "Tybalt": 3611,
      "Cam": 3612,
      "EF": 3613,
      "GA": 3614,
      "Hu": 3615,
      "Sal": 3616,
      "Two": 3617,
      "dru": 3618,
      "ffi": 3619,
      "line": 3620,
      "tree": 3621,
      "treas": 3622,
      "vest": 3623,
      "ances": 3624,
      "enjoy": 3625,
      "step": 3626,
      "real": 3627,
      "liar": 3628,
      "tide": 3629,
      "ORA": 3630,
      "neg": 3631,
      "faction": 3632,
      "sho": 3633,
      "conj": 3634,
      "sack": 3635,
      "agger": 3636,
      "reasons": 3637,
      "deri": 3638,
      "corru": 3639,
      "consider": 3640,
      "awake": 3641,
      "Percy": 3642,
      "counterfeit": 3643,
      "trumpets": 3644,
      "Venice": 3645,
      "CHIEF": 3646,
      "Clifford": 3647,
      "Draw": 3648,
      "Egy": 3649,
      "TAM": 3650,
      "abroad": 3651,
      "fare": 3652,
      "food": 3653,
      "fif": 3654,
      "plot": 3655,
      "rare": 3656,
      "var": 3657,
      "weight": 3658,
      "ney": 3659,
      "fac": 3660,
      "mov": 3661,
      "ously": 3662,
      "dign": 3663,
      "honor": 3664,
      "MAIN": 3665,
      "trans": 3666,
      "miser": 3667,
      "preh": 3668,
      "silence": 3669,
      "Leonato": 3670,
      "Attendants": 3671,
      "study": 3672,
      "';": 3673,
      "Aj": 3674,
      "Ale": 3675,
      "Hal": 3676,
      "HOL": 3677,
      "bend": 3678,
      "dust": 3679,
      "fury": 3680,
      "non": 3681,
      "orious": 3682,
      "tomb": 3683,
      "start": 3684,
      "stones": 3685,
      "forsworn": 3686,
      "adieu": 3687,
      "ENCH": 3688,
      "sau": 3689,
      "cial": 3690,
      "exam": 3691,
      "Off": 3692,
      "abuse": 3693,
      "DUMAIN": 3694,
      "warm": 3695,
      "virgin": 3696,
      "minister": 3697,
      "FRENCH": 3698,
      "cket": 3699,
      "supper": 3700,
      "LYSANDER": 3701,
      "quoth": 3702,
      "execution": 3703,
      "remembrance": 3704,
      "slander": 3705,
      "HUBERT": 3706,
      "twice": 3707,
      "Desdemona": 3708,
      "TAMORA": 3709,
      "Ajax": 3710,
      "FLOR": 3711,
      "IBAN": 3712,
      "NER": 3713,
      "SAT": 3714,
      "Tri": 3715,
      "big": 3716,
      "duke": 3717,
      "differ": 3718,
      "faint": 3719,
      "ial": 3720,
      "niece": 3721,
      "skill": 3722,
      "trem": 3723,
      "anus": 3724,
      "ences": 3725,
      "reign": 3726,
      "wives": 3727,
      "liest": 3728,
      "doors": 3729,
      "ARVIR": 3730,
      "teen": 3731,
      "quit": 3732,
      "TIUS": 3733,
      "provi": 3734,
      "spite": 3735,
      "express": 3736,
      "friar": 3737,
      "broken": 3738,
      "Dog": 3739,
      "ONDELLO": 3740,
      "Alarum": 3741,
      "stomach": 3742,
      "AGUS": 3743,
      "Only": 3744,
      "BIONDELLO": 3745,
      "CALIBAN": 3746,
      "horses": 3747,
      "revolt": 3748,
      "ARVIRAGUS": 3749,
      "CIUS": 3750,
      "FIDIUS": 3751,
      "IGO": 3752,
      "Mil": 3753,
      "MIR": 3754,
      "NES": 3755,
      "Too": 3756,
      "cen": 3757,
      "flies": 3758,
      "hat": 3759,
      "slow": 3760,
      "seat": 3761,
      "ride": 3762,
      "ERNES": 3763,
      "INUS": 3764,
      "ARL": 3765,
      "sheep": 3766,
      "RODER": 3767,
      "apt": 3768,
      "OFERNES": 3769,
      "ANDA": 3770,
      "perate": 3771,
      "fix": 3772,
      "counten": 3773,
      "URN": 3774,
      "trial": 3775,
      "MARCIUS": 3776,
      "ransom": 3777,
      "yea": 3778,
      "sooner": 3779,
      "centio": 3780,
      "gallant": 3781,
      "AUFIDIUS": 3782,
      "wretch": 3783,
      "umberland": 3784,
      "Besides": 3785,
      "fruit": 3786,
      "punish": 3787,
      "URIO": 3788,
      "HOLOFERNES": 3789,
      "SATURN": 3790,
      "MIRANDA": 3791,
      "RODERIGO": 3792,
      "Ban": 3793,
      "Don": 3794,
      "Othe": 3795,
      "WEST": 3796,
      "ZAL": 3797,
      "fy": 3798,
      "hit": 3799,
      "yonder": 3800,
      "reed": 3801,
      "asleep": 3802,
      "cease": 3803,
      "forgive": 3804,
      "always": 3805,
      "whis": 3806,
      "condu": 3807,
      "condemn": 3808,
      "SIM": 3809,
      "prov": 3810,
      "sometime": 3811,
      "whereof": 3812,
      "flood": 3813,
      "SHEPH": 3814,
      "whilst": 3815,
      "welve": 3816,
      "stol": 3817,
      "remedy": 3818,
      "seeming": 3819,
      "swore": 3820,
      "deserve": 3821,
      "profess": 3822,
      "True": 3823,
      "subjects": 3824,
      "Monta": 3825,
      "burden": 3826,
      "dreadful": 3827,
      "colours": 3828,
      "Silvia": 3829,
      "school": 3830,
      "GONZAL": 3831,
      "Alex": 3832,
      "SATURNINUS": 3833,
      "Othello": 3834,
      "SHEPHERD": 3835,
      "GONZALO": 3836,
      "--": 3837,
      "MIA": 3838,
      "Oph": 3839,
      "Phi": 3840,
      "Scot": 3841,
      "Twas": 3842,
      "Vol": 3843,
      "WIS": 3844,
      "cuck": 3845,
      "fun": 3846,
      "furn": 3847,
      "game": 3848,
      "ize": 3849,
      "mat": 3850,
      "ping": 3851,
      "pul": 3852,
      "tw": 3853,
      "wn": 3854,
      "encounter": 3855,
      "wide": 3856,
      "whence": 3857,
      "loath": 3858,
      "feet": 3859,
      "ruin": 3860,
      "womb": 3861,
      "discourse": 3862,
      "affect": 3863,
      "tyrant": 3864,
      "practi": 3865,
      "single": 3866,
      "spoken": 3867,
      "towards": 3868,
      "quality": 3869,
      "HERMIA": 3870,
      "messenger": 3871,
      "Proteus": 3872,
      "memory": 3873,
      "particular": 3874,
      "AENE": 3875,
      "Alack": 3876,
      "Lay": 3877,
      "Save": 3878,
      "ZO": 3879,
      "buck": 3880,
      "citizens": 3881,
      "fits": 3882,
      "loose": 3883,
      "number": 3884,
      "numb": 3885,
      "vin": 3886,
      "thrust": 3887,
      "hap": 3888,
      "receiv": 3889,
      "dec": 3890,
      "deter": 3891,
      "ENZO": 3892,
      "idius": 3893,
      "hers": 3894,
      "shut": 3895,
      "consu": 3896,
      "LEWIS": 3897,
      "peril": 3898,
      "acle": 3899,
      "ical": 3900,
      "merit": 3901,
      "guilt": 3902,
      "warlike": 3903,
      "purpos": 3904,
      "LORENZO": 3905,
      "crowns": 3906,
      "happiness": 3907,
      "TOM": 3908,
      "dress": 3909,
      "troop": 3910,
      "vered": 3911,
      "Beatrice": 3912,
      "BOTTOM": 3913,
      "powers": 3914,
      "reverend": 3915,
      "direct": 3916,
      "Charles": 3917,
      "FLAVIUS": 3918,
      "clouds": 3919,
      "circum": 3920,
      "AENEAS": 3921,
      "Amen": 3922,
      "Bear": 3923,
      "Cup": 3924,
      "EUS": 3925,
      "Either": 3926,
      "Man": 3927,
      "Ret": 3928,
      "Turn": 3929,
      "pound": 3930,
      "pick": 3931,
      "twelve": 3932,
      "ESEUS": 3933,
      "making": 3934,
      "THESEUS": 3935,
      "hopes": 3936,
      "ELAND": 3937,
      "Believe": 3938,
      "acc": 3939,
      "Lords": 3940,
      "aked": 3941,
      "dearest": 3942,
      "knife": 3943,
      "buried": 3944,
      "imper": 3945,
      "servants": 3946,
      "weeping": 3947,
      "promis": 3948,
      "Whilst": 3949,
      "obedience": 3950,
      "IZEL": 3951,
      "thrive": 3952,
      "whether": 3953,
      "MORELAND": 3954,
      "Titus": 3955,
      "Northumberland": 3956,
      "FLORIZEL": 3957,
      "countenance": 3958,
      "WESTMORELAND": 3959,
      "Cl": 3960,
      "Long": 3961,
      "Lie": 3962,
      "Set": 3963,
      "Very": 3964,
      "bull": 3965,
      "flight": 3966,
      "mas": 3967,
      "page": 3968,
      "twixt": 3969,
      "inius": 3970,
      "ators": 3971,
      "itude": 3972,
      "debt": 3973,
      "lovers": 3974,
      "shot": 3975,
      "teeth": 3976,
      "goodness": 3977,
      "outward": 3978,
      "cture": 3979,
      "Myself": 3980,
      "breed": 3981,
      "standing": 3982,
      "guest": 3983,
      "trick": 3984,
      "tribut": 3985,
      "voices": 3986,
      "angel": 3987,
      "LUCIANA": 3988,
      "daughters": 3989,
      "bids": 3990,
      "minds": 3991,
      "meaning": 3992,
      "Death": 3993,
      "griefs": 3994,
      "borrow": 3995,
      "moved": 3996,
      "learned": 3997,
      "Romans": 3998,
      "season": 3999,
      "Castle": 4000,
      "absence": 4001,
      "Bi": 4002,
      "Cy": 4003,
      "Cress": 4004,
      "Gre": 4005,
      "Ne": 4006,
      "None": 4007,
      "WAT": 4008,
      "cere": 4009,
      "dings": 4010,
      "doom": 4011,
      "ible": 4012,
      "list": 4013,
      "langu": 4014,
      "nine": 4015,
      "nought": 4016,
      "naked": 4017,
      "wings": 4018,
      "iter": 4019,
      "ref": 4020,
      "Three": 4021,
      "Thom": 4022,
      "lod": 4023,
      "tier": 4024,
      "ARCH": 4025,
      "disgu": 4026,
      "vices": 4027,
      "desperate": 4028,
      "LAIN": 4029,
      "heavenly": 4030,
      "Marcus": 4031,
      "LUCETTA": 4032,
      "charity": 4033,
      "drops": 4034,
      "CELOT": 4035,
      "LAUNCELOT": 4036,
      "Protector": 4037,
      "satisfied": 4038,
      "innocent": 4039,
      "utenant": 4040,
      "Cupid": 4041,
      "Thomas": 4042,
      "?'": 4043,
      "?-": 4044,
      "Fear": 4045,
      "Nature": 4046,
      "OX": 4047,
      "Pet": 4048,
      "ball": 4049,
      "dit": 4050,
      "iest": 4051,
      "mil": 4052,
      "mild": 4053,
      "ns": 4054,
      "rat": 4055,
      "squ": 4056,
      "slaughter": 4057,
      "tread": 4058,
      "vol": 4059,
      "incl": 4060,
      "arti": 4061,
      "arded": 4062,
      "meant": 4063,
      "melt": 4064,
      "ution": 4065,
      "ainted": 4066,
      "faces": 4067,
      "shri": 4068,
      "ards": 4069,
      "taught": 4070,
      "CHAM": 4071,
      "lovely": 4072,
      "prosper": 4073,
      "BERLAIN": 4074,
      "March": 4075,
      "prevent": 4076,
      "void": 4077,
      "tract": 4078,
      "Caius": 4079,
      "begins": 4080,
      "anca": 4081,
      "bride": 4082,
      "sickness": 4083,
      "traitors": 4084,
      "humbly": 4085,
      "castle": 4086,
      "sieur": 4087,
      "officer": 4088,
      "ducats": 4089,
      "treasure": 4090,
      "realm": 4091,
      "Montague": 4092,
      "Cressid": 4093,
      "CHAMBERLAIN": 4094,
      "Humph": 4095,
      "OC": 4096,
      "da": 4097,
      "fla": 4098,
      "gree": 4099,
      "jour": 4100,
      "ni": 4101,
      "ned": 4102,
      "pair": 4103,
      "ishop": 4104,
      "envy": 4105,
      "member": 4106,
      "below": 4107,
      "rible": 4108,
      "whore": 4109,
      "advis": 4110,
      "rule": 4111,
      "taking": 4112,
      "saying": 4113,
      "prophe": 4114,
      "vious": 4115,
      "ILIUS": 4116,
      "undone": 4117,
      "DIANA": 4118,
      "guess": 4119,
      "denied": 4120,
      "Capu": 4121,
      "strain": 4122,
      "freely": 4123,
      "painted": 4124,
      "cries": 4125,
      "profit": 4126,
      "mirth": 4127,
      "despair": 4128,
      "waste": 4129,
      "maintain": 4130,
      "SAY": 4131,
      "acquaint": 4132,
      "Wales": 4133,
      "dishonour": 4134,
      "storm": 4135,
      "PHILIP": 4136,
      "Den": 4137,
      "Ge": 4138,
      "Mal": 4139,
      "Might": 4140,
      "Morti": 4141,
      "Os": 4142,
      "SS": 4143,
      "bought": 4144,
      "cu": 4145,
      "cing": 4146,
      "fro": 4147,
      "lamb": 4148,
      "pie": 4149,
      "sour": 4150,
      "swell": 4151,
      "invent": 4152,
      "arri": 4153,
      "esti": 4154,
      "haps": 4155,
      "becomes": 4156,
      "dep": 4157,
      "dew": 4158,
      "ria": 4159,
      "tidings": 4160,
      "suck": 4161,
      "convey": 4162,
      "bled": 4163,
      "ROSS": 4164,
      "earnest": 4165,
      "disdain": 4166,
      "greatest": 4167,
      "Doctor": 4168,
      "tyran": 4169,
      "party": 4170,
      "MERLE": 4171,
      "Shallow": 4172,
      "brings": 4173,
      "stock": 4174,
      "object": 4175,
      "armour": 4176,
      "crack": 4177,
      "uteous": 4178,
      "knees": 4179,
      "empty": 4180,
      "burning": 4181,
      "Whiles": 4182,
      "AUMERLE": 4183,
      "treach": 4184,
      "Hastings": 4185,
      "girl": 4186,
      "throat": 4187,
      "authority": 4188,
      "Bianca": 4189,
      "Humphrey": 4190,
      "Capulet": 4191,
      "Old": 4192,
      "TCH": 4193,
      "UPH": 4194,
      "WER": 4195,
      "Whither": 4196,
      "bunes": 4197,
      "eag": 4198,
      "honey": 4199,
      "pat": 4200,
      "ray": 4201,
      "vish": 4202,
      "ane": 4203,
      "isbury": 4204,
      "enforce": 4205,
      "stable": 4206,
      "search": 4207,
      "forbear": 4208,
      "rob": 4209,
      "lig": 4210,
      "lio": 4211,
      "ades": 4212,
      "estate": 4213,
      "estee": 4214,
      "shrew": 4215,
      "hollow": 4216,
      "Help": 4217,
      "proclaim": 4218,
      "disgrace": 4219,
      "disposition": 4220,
      "perj": 4221,
      "Pres": 4222,
      "gentlewoman": 4223,
      "flower": 4224,
      "flourish": 4225,
      "pping": 4226,
      "tedious": 4227,
      "deadly": 4228,
      "meeting": 4229,
      "Glend": 4230,
      "WITCH": 4231,
      "winds": 4232,
      "salt": 4233,
      "streets": 4234,
      "PUCK": 4235,
      "sighs": 4236,
      "horns": 4237,
      "modesty": 4238,
      "figure": 4239,
      "garden": 4240,
      "Salisbury": 4241,
      "Mortimer": 4242,
      "AVILLE": 4243,
      "Cle": 4244,
      "CLA": 4245,
      "NEST": 4246,
      "OUT": 4247,
      "Octa": 4248,
      "RA": 4249,
      "Sound": 4250,
      "SUR": 4251,
      "bud": 4252,
      "bark": 4253,
      "bility": 4254,
      "equal": 4255,
      "names": 4256,
      "render": 4257,
      "wink": 4258,
      "thick": 4259,
      "err": 4260,
      "metri": 4261,
      "noon": 4262,
      "ghost": 4263,
      "adv": 4264,
      "willing": 4265,
      "shore": 4266,
      "pron": 4267,
      "poli": 4268,
      "commission": 4269,
      "shed": 4270,
      "appreh": 4271,
      "early": 4272,
      "bred": 4273,
      "CATES": 4274,
      "merch": 4275,
      "mischief": 4276,
      "oler": 4277,
      "PID": 4278,
      "volio": 4279,
      "Shakes": 4280,
      "Thanks": 4281,
      "begg": 4282,
      "besides": 4283,
      "virtues": 4284,
      "Demetri": 4285,
      "LONGAVILLE": 4286,
      "appears": 4287,
      "human": 4288,
      "despite": 4289,
      "urious": 4290,
      "OLIVER": 4291,
      "divine": 4292,
      "limbs": 4293,
      "suspect": 4294,
      "Egypt": 4295,
      "George": 4296,
      "NESTOR": 4297,
      "CATESBY": 4298,
      "Demetrius": 4299,
      "EARL": 4300,
      "GREY": 4301,
      "Sings": 4302,
      "UDIO": 4303,
      "boot": 4304,
      "etern": 4305,
      "fin": 4306,
      "fed": 4307,
      "hung": 4308,
      "ient": 4309,
      "rhy": 4310,
      "sway": 4311,
      "sore": 4312,
      "tance": 4313,
      "tort": 4314,
      "vity": 4315,
      "zz": 4316,
      "orous": 4317,
      "vex": 4318,
      "leag": 4319,
      "belie": 4320,
      "ced": 4321,
      "Andronic": 4322,
      "whores": 4323,
      "ado": 4324,
      "uses": 4325,
      "raise": 4326,
      "tily": 4327,
      "ONSO": 4328,
      "THURIO": 4329,
      "ALONSO": 4330,
      "ISSA": 4331,
      "spare": 4332,
      "sometimes": 4333,
      "plead": 4334,
      "strang": 4335,
      "Franc": 4336,
      "prepare": 4337,
      "oppos": 4338,
      "gious": 4339,
      "Norfolk": 4340,
      "griev": 4341,
      "garments": 4342,
      "clothe": 4343,
      "tempest": 4344,
      "laws": 4345,
      "smooth": 4346,
      "window": 4347,
      "renown": 4348,
      "attendants": 4349,
      "vengeance": 4350,
      "bird": 4351,
      "beaten": 4352,
      "Truly": 4353,
      "suddenly": 4354,
      "ignorant": 4355,
      "llenge": 4356,
      "Rosalind": 4357,
      "NERISSA": 4358,
      "CLAUDIO": 4359,
      "Andronicus": 4360,
      "Francis": 4361,
      "Bra": 4362,
      "Dear": 4363,
      "Each": 4364,
      "Ly": 4365,
      "Rep": 4366,
      "Wind": 4367,
      "aim": 4368,
      "brows": 4369,
      "cli": 4370,
      "pent": 4371,
      "sits": 4372,
      "sides": 4373,
      "thorn": 4374,
      "oured": 4375,
      "iny": 4376,
      "inher": 4377,
      "atio": 4378,
      "forfeit": 4379,
      "alas": 4380,
      "INCH": 4381,
      "tied": 4382,
      "shallow": 4383,
      "appare": 4384,
      "therein": 4385,
      "accord": 4386,
      "plant": 4387,
      "fathers": 4388,
      "Anti": 4389,
      "fiery": 4390,
      "INCE": 4391,
      "PATRO": 4392,
      "prize": 4393,
      "QUINCE": 4394,
      "voy": 4395,
      "ctions": 4396,
      "challenge": 4397,
      "compass": 4398,
      "following": 4399,
      "followers": 4400,
      "Ros": 4401,
      "Roderi": 4402,
      "confer": 4403,
      "tonight": 4404,
      "turns": 4405,
      "Leave": 4406,
      "build": 4407,
      "CLUS": 4408,
      "Horatio": 4409,
      "wont": 4410,
      "flowers": 4411,
      "Laertes": 4412,
      "violent": 4413,
      "kinsman": 4414,
      "complex": 4415,
      "contrary": 4416,
      "amaz": 4417,
      "conduct": 4418,
      "furnish": 4419,
      "PATROCLUS": 4420,
      "Roderigo": 4421,
      "BIA": 4422,
      "PPA": 4423,
      "PTA": 4424,
      "ULO": 4425,
      "Watch": 4426,
      "pill": 4427,
      "pic": 4428,
      "passa": 4429,
      "slight": 4430,
      "thrown": 4431,
      "rede": 4432,
      "behalf": 4433,
      "assure": 4434,
      "devise": 4435,
      "degree": 4436,
      "ALCI": 4437,
      "sacred": 4438,
      "RIPPA": 4439,
      "provo": 4440,
      "sweat": 4441,
      "TRINC": 4442,
      "account": 4443,
      "CAPTA": 4444,
      "monu": 4445,
      "merri": 4446,
      "scri": 4447,
      "score": 4448,
      "gues": 4449,
      "used": 4450,
      "chair": 4451,
      "undertake": 4452,
      "cursed": 4453,
      "Hermia": 4454,
      "hark": 4455,
      "posed": 4456,
      "AGRIPPA": 4457,
      "gener": 4458,
      "dumb": 4459,
      "maids": 4460,
      "Peter": 4461,
      "custom": 4462,
      "rash": 4463,
      "ambition": 4464,
      "dares": 4465,
      "imagin": 4466,
      "portion": 4467,
      "gifts": 4468,
      "Between": 4469,
      "Brother": 4470,
      "CONSTABLE": 4471,
      "victory": 4472,
      "BIADES": 4473,
      "ALCIBIADES": 4474,
      "TRINCULO": 4475,
      "CAPTAIN": 4476,
      "FERD": 4477,
      "Has": 4478,
      "Makes": 4479,
      "Pyra": 4480,
      "bill": 4481,
      "bind": 4482,
      "crow": 4483,
      "fret": 4484,
      "iliar": 4485,
      "pu": 4486,
      "rush": 4487,
      "thie": 4488,
      "erve": 4489,
      "chide": 4490,
      "cop": 4491,
      "dogs": 4492,
      "INAND": 4493,
      "peare": 4494,
      "idence": 4495,
      "shr": 4496,
      "illo": 4497,
      "concer": 4498,
      "contempt": 4499,
      "sire": 4500,
      "modest": 4501,
      "CHIR": 4502,
      "hereafter": 4503,
      "spake": 4504,
      "Behold": 4505,
      "ounce": 4506,
      "brook": 4507,
      "parted": 4508,
      "cles": 4509,
      "dying": 4510,
      "brains": 4511,
      "native": 4512,
      "sleeping": 4513,
      "Once": 4514,
      "sounds": 4515,
      "Capi": 4516,
      "dreams": 4517,
      "murd": 4518,
      "frame": 4519,
      "dding": 4520,
      "HERMI": 4521,
      "image": 4522,
      "MISTR": 4523,
      "reputation": 4524,
      "durst": 4525,
      "WATCH": 4526,
      "ARCHBISHOP": 4527,
      "policy": 4528,
      "Shakespeare": 4529,
      "FERDINAND": 4530,
      "Pyramus": 4531,
      "CHIRON": 4532,
      "HERMIONE": 4533,
      "MISTRESS": 4534,
      "Burg": 4535,
      "FO": 4536,
      "NYM": 4537,
      "Play": 4538,
      "Plan": 4539,
      "Sat": 4540,
      "Whe": 4541,
      "WELL": 4542,
      "chaste": 4543,
      "dagger": 4544,
      "fil": 4545,
      "lu": 4546,
      "rent": 4547,
      "smo": 4548,
      "vour": 4549,
      "ths": 4550,
      "ining": 4551,
      "inite": 4552,
      "inform": 4553,
      "token": 4554,
      "store": 4555,
      "forces": 4556,
      "hid": 4557,
      "iron": 4558,
      "root": 4559,
      "ripe": 4560,
      "suffi": 4561,
      "confirm": 4562,
      "comb": 4563,
      "tagen": 4564,
      "bodies": 4565,
      "worn": 4566,
      "seeing": 4567,
      "discre": 4568,
      "undy": 4569,
      "prevail": 4570,
      "DOW": 4571,
      "knaves": 4572,
      "WIDOW": 4573,
      "MENAS": 4574,
      "bridge": 4575,
      "prisoners": 4576,
      "Cannot": 4577,
      "groan": 4578,
      "desert": 4579,
      "picture": 4580,
      "shortly": 4581,
      "reverence": 4582,
      "regard": 4583,
      "About": 4584,
      "Burgundy": 4585,
      "Plantagen": 4586,
      "El": 4587,
      "EPER": 4588,
      "Fe": 4589,
      "Just": 4590,
      "Many": 4591,
      "NI": 4592,
      "cave": 4593,
      "gon": 4594,
      "knot": 4595,
      "sings": 4596,
      "twill": 4597,
      "ws": 4598,
      "ensi": 4599,
      "attended": 4600,
      "stan": 4601,
      "stream": 4602,
      "hazard": 4603,
      "seest": 4604,
      "belly": 4605,
      "beyond": 4606,
      "utes": 4607,
      "roll": 4608,
      "rock": 4609,
      "delay": 4610,
      "device": 4611,
      "deceive": 4612,
      "deceiv": 4613,
      "key": 4614,
      "alo": 4615,
      "edge": 4616,
      "advice": 4617,
      "admir": 4618,
      "admit": 4619,
      "ERIO": 4620,
      "until": 4621,
      "lying": 4622,
      "herald": 4623,
      "boast": 4624,
      "ult": 4625,
      "LEPID": 4626,
      "discover": 4627,
      "perforce": 4628,
      "offended": 4629,
      "speaking": 4630,
      "Sold": 4631,
      "fairly": 4632,
      "courtier": 4633,
      "KEEPER": 4634,
      "prefer": 4635,
      "ladyship": 4636,
      "SALERIO": 4637,
      "atience": 4638,
      "smiles": 4639,
      "vision": 4640,
      "pack": 4641,
      "wax": 4642,
      "contented": 4643,
      "wallow": 4644,
      "affli": 4645,
      "sky": 4646,
      "damned": 4647,
      "fingers": 4648,
      "elder": 4649,
      "Gentlemen": 4650,
      "infinite": 4651,
      "odds": 4652,
      "Camillo": 4653,
      "OCTA": 4654,
      "Capitol": 4655,
      "LEPIDUS": 4656,
      "'?": 4657,
      "Bass": 4658,
      "Gra": 4659,
      "Him": 4660,
      "Pad": 4661,
      "cou": 4662,
      "cam": 4663,
      "cue": 4664,
      "mill": 4665,
      "thur": 4666,
      "ina": 4667,
      "intell": 4668,
      "ising": 4669,
      "att": 4670,
      "stick": 4671,
      "havi": 4672,
      "sees": 4673,
      "owl": 4674,
      "forsooth": 4675,
      "weeds": 4676,
      "alter": 4677,
      "soci": 4678,
      "ERO": 4679,
      "doms": 4680,
      "blown": 4681,
      "lets": 4682,
      "apart": 4683,
      "appet": 4684,
      "woes": 4685,
      "thinking": 4686,
      "nights": 4687,
      "glorious": 4688,
      "rings": 4689,
      "graces": 4690,
      "Princess": 4691,
      "wrought": 4692,
      "prick": 4693,
      "prey": 4694,
      "curs": 4695,
      "Although": 4696,
      "farther": 4697,
      "Arthur": 4698,
      "Lavin": 4699,
      "crave": 4700,
      "sorrows": 4701,
      "blessing": 4702,
      "familiar": 4703,
      "fatal": 4704,
      "Greek": 4705,
      "Senate": 4706,
      "cuckold": 4707,
      "numbers": 4708,
      "Clown": 4709,
      "Plantagenet": 4710,
      "Bassanio": 4711,
      "Ap": 4712,
      "Dun": 4713,
      "Mars": 4714,
      "Soft": 4715,
      "Wr": 4716,
      "Wit": 4717,
      "afe": 4718,
      "alike": 4719,
      "mong": 4720,
      "pour": 4721,
      "pau": 4722,
      "snow": 4723,
      "tar": 4724,
      "tall": 4725,
      "wreck": 4726,
      "inv": 4727,
      "orch": 4728,
      "sty": 4729,
      "stret": 4730,
      "lied": 4731,
      "aly": 4732,
      "raid": 4733,
      "rail": 4734,
      "unknown": 4735,
      "tive": 4736,
      "contro": 4737,
      "prise": 4738,
      "comfor": 4739,
      "OLD": 4740,
      "special": 4741,
      "spar": 4742,
      "displeasure": 4743,
      "afraid": 4744,
      "glas": 4745,
      "fairy": 4746,
      "fairest": 4747,
      "friendship": 4748,
      "stranger": 4749,
      "fier": 4750,
      "assad": 4751,
      "bawd": 4752,
      "puts": 4753,
      "dearly": 4754,
      "charg": 4755,
      "everything": 4756,
      "sander": 4757,
      "carried": 4758,
      "GOWER": 4759,
      "repair": 4760,
      "substance": 4761,
      "villains": 4762,
      "penny": 4763,
      "COLM": 4764,
      "Lucentio": 4765,
      "leness": 4766,
      "MALCOLM": 4767,
      "acquainted": 4768,
      "midnight": 4769,
      "conquer": 4770,
      "extrem": 4771,
      "Brook": 4772,
      "Douglas": 4773,
      "bounty": 4774,
      "pointed": 4775,
      "stroke": 4776,
      "OFFICER": 4777,
      "Banquo": 4778,
      "practice": 4779,
      "clothes": 4780,
      "Lysander": 4781,
      "complexion": 4782,
      "Whether": 4783,
      "Padua": 4784,
      "Lavinia": 4785,
      "AE": 4786,
      "AUS": 4787,
      "Bre": 4788,
      "Came": 4789,
      "Fall": 4790,
      "Full": 4791,
      "Much": 4792,
      "Tran": 4793,
      "bran": 4794,
      "cend": 4795,
      "event": 4796,
      "length": 4797,
      "pite": 4798,
      "yo": 4799,
      "inst": 4800,
      "isle": 4801,
      "ator": 4802,
      "vet": 4803,
      "forc": 4804,
      "coat": 4805,
      "unate": 4806,
      "END": 4807,
      "willingly": 4808,
      "ORLE": 4809,
      "peers": 4810,
      "nephe": 4811,
      "super": 4812,
      "seless": 4813,
      "tame": 4814,
      "tast": 4815,
      "teous": 4816,
      "worm": 4817,
      "LOV": 4818,
      "wholes": 4819,
      "divi": 4820,
      "vius": 4821,
      "fox": 4822,
      "tells": 4823,
      "mond": 4824,
      "privile": 4825,
      "Hereford": 4826,
      "bade": 4827,
      "ships": 4828,
      "ATTEN": 4829,
      "kindly": 4830,
      "MARIANA": 4831,
      "confound": 4832,
      "knit": 4833,
      "lasting": 4834,
      "CASCA": 4835,
      "mile": 4836,
      "countrymen": 4837,
      "barren": 4838,
      "attending": 4839,
      "PARIS": 4840,
      "wounded": 4841,
      "Welsh": 4842,
      "affections": 4843,
      "CONSTANCE": 4844,
      "Flor": 4845,
      "Pistol": 4846,
      "Diome": 4847,
      "mourn": 4848,
      "Music": 4849,
      "benefit": 4850,
      "weapons": 4851,
      "negle": 4852,
      "Milan": 4853,
      "purposes": 4854,
      "monument": 4855,
      "ORLEANS": 4856,
      "ATTEND": 4857,
      "AY": 4858,
      "Adie": 4859,
      "Cry": 4860,
      "Every": 4861,
      "Emi": 4862,
      "GUN": 4863,
      "Ghost": 4864,
      "Host": 4865,
      "Ja": 4866,
      "Kather": 4867,
      "RAT": 4868,
      "Send": 4869,
      "SAND": 4870,
      "WINCH": 4871,
      "aded": 4872,
      "bent": 4873,
      "bite": 4874,
      "chast": 4875,
      "eight": 4876,
      "fron": 4877,
      "fidius": 4878,
      "lun": 4879,
      "odd": 4880,
      "phi": 4881,
      "ped": 4882,
      "sink": 4883,
      "swallow": 4884,
      "tory": 4885,
      "tarry": 4886,
      "wants": 4887,
      "island": 4888,
      "stat": 4889,
      "deer": 4890,
      "also": 4891,
      "edi": 4892,
      "ety": 4893,
      "morn": 4894,
      "moment": 4895,
      "mult": 4896,
      "TIS": 4897,
      "approve": 4898,
      "mpet": 4899,
      "Young": 4900,
      "handker": 4901,
      "hearted": 4902,
      "tres": 4903,
      "Does": 4904,
      "scene": 4905,
      "Remember": 4906,
      "babe": 4907,
      "places": 4908,
      "check": 4909,
      "charm": 4910,
      "whither": 4911,
      "reading": 4912,
      "sentence": 4913,
      "minute": 4914,
      "grey": 4915,
      "POET": 4916,
      "DAUPH": 4917,
      "calm": 4918,
      "hateful": 4919,
      "favours": 4920,
      "banishment": 4921,
      "books": 4922,
      "solute": 4923,
      "conceit": 4924,
      "ignorance": 4925,
      "grieve": 4926,
      "whisper": 4927,
      "SIMPLE": 4928,
      "pieces": 4929,
      "whoreson": 4930,
      "apparel": 4931,
      "Soldiers": 4932,
      "wholesome": 4933,
      "ATTENDANT": 4934,
      "Adieu": 4935,
      "Emilia": 4936,
      "WINCHESTER": 4937,
      "DAUPHIN": 4938,
      "BED": 4939,
      "DOR": 4940,
      "Em": 4941,
      "Find": 4942,
      "Father": 4943,
      "Kne": 4944,
      "Knock": 4945,
      "Osw": 4946,
      "Str": 4947,
      "WBR": 4948,
      "bag": 4949,
      "iol": 4950,
      "mood": 4951,
      "nice": 4952,
      "pil": 4953,
      "pted": 4954,
      "sought": 4955,
      "ware": 4956,
      "west": 4957,
      "inches": 4958,
      "nobly": 4959,
      "retire": 4960,
      "beam": 4961,
      "chio": 4962,
      "asp": 4963,
      "deb": 4964,
      "dece": 4965,
      "weather": 4966,
      "adventure": 4967,
      "cope": 4968,
      "felt": 4969,
      "feather": 4970,
      "ruchio": 4971,
      "potent": 4972,
      "bolt": 4973,
      "moreland": 4974,
      "LEY": 4975,
      "aged": 4976,
      "acy": 4977,
      "accuse": 4978,
      "market": 4979,
      "abhor": 4980,
      "LAW": 4981,
      "scur": 4982,
      "betwixt": 4983,
      "prayer": 4984,
      "trade": 4985,
      "giving": 4986,
      "finds": 4987,
      "parent": 4988,
      "afterwards": 4989,
      "runs": 4990,
      "engers": 4991,
      "bush": 4992,
      "MOWBR": 4993,
      "devils": 4994,
      "Didst": 4995,
      "observ": 4996,
      "zeal": 4997,
      "deserv": 4998,
      "calf": 4999,
      "Hail": 5000,
      "Coriol": 5001,
      "bottom": 5002,
      "pitch": 5003,
      "instrument": 5004,
      "months": 5005,
      "companion": 5006,
      "Strike": 5007,
      "Aufidius": 5008,
      "rotten": 5009,
      "Westmoreland": 5010,
      "Offic": 5011,
      "twain": 5012,
      "Petruchio": 5013,
      "SURREY": 5014,
      "Windsor": 5015,
      "inherit": 5016,
      "appetite": 5017,
      "fierce": 5018,
      "BEDFORD": 5019,
      "MOWBRAY": 5020,
      "Coriolanus": 5021,
      "Bora": 5022,
      "Drom": 5023,
      "Dian": 5024,
      "Gr": 5025,
      "GNI": 5026,
      "JESSI": 5027,
      "OBER": 5028,
      "Pat": 5029,
      "Sp": 5030,
      "Sleep": 5031,
      "Tur": 5032,
      "blo": 5033,
      "dst": 5034,
      "dows": 5035,
      "fate": 5036,
      "fran": 5037,
      "rt": 5038,
      "sli": 5039,
      "inous": 5040,
      "infect": 5041,
      "ating": 5042,
      "arrest": 5043,
      "onius": 5044,
      "stage": 5045,
      "nobles": 5046,
      "recover": 5047,
      "leans": 5048,
      "belong": 5049,
      "begot": 5050,
      "hie": 5051,
      "ala": 5052,
      "although": 5053,
      "unfold": 5054,
      "ANLEY": 5055,
      "INTER": 5056,
      "Toby": 5057,
      "STANLEY": 5058,
      "moe": 5059,
      "ALEX": 5060,
      "blunt": 5061,
      "Thisby": 5062,
      "marks": 5063,
      "scape": 5064,
      "misery": 5065,
      "wrest": 5066,
      "udge": 5067,
      "impossible": 5068,
      "joint": 5069,
      "cler": 5070,
      "followed": 5071,
      "slew": 5072,
      "stead": 5073,
      "pleasures": 5074,
      "pract": 5075,
      "banqu": 5076,
      "villainy": 5077,
      "sends": 5078,
      "stronger": 5079,
      "MAYOR": 5080,
      "craft": 5081,
      "Richmond": 5082,
      "clai": 5083,
      "silent": 5084,
      "defence": 5085,
      "KATHERINE": 5086,
      "darkness": 5087,
      "entertainment": 5088,
      "Sici": 5089,
      "vouchsafe": 5090,
      "yester": 5091,
      "drums": 5092,
      "dignity": 5093,
      "difference": 5094,
      "advance": 5095,
      "eternal": 5096,
      "thieves": 5097,
      "EROS": 5098,
      "Empress": 5099,
      "Dromio": 5100,
      "JESSICA": 5101,
      "OBERON": 5102,
      "Cousin": 5103,
      "Hon": 5104,
      "IT": 5105,
      "Sl": 5106,
      "Tr": 5107,
      "TUS": 5108,
      "VAR": 5109,
      "Vill": 5110,
      "avoid": 5111,
      "cand": 5112,
      "glove": 5113,
      "lis": 5114,
      "mate": 5115,
      "mask": 5116,
      "pate": 5117,
      "paint": 5118,
      "sins": 5119,
      "tles": 5120,
      "atra": 5121,
      "stab": 5122,
      "height": 5123,
      "nobility": 5124,
      "haunt": 5125,
      "leap": 5126,
      "befall": 5127,
      "Through": 5128,
      "weal": 5129,
      "wears": 5130,
      "wither": 5131,
      "coz": 5132,
      "raven": 5133,
      "unce": 5134,
      "unnatural": 5135,
      "amiss": 5136,
      "pomp": 5137,
      "complain": 5138,
      "bleed": 5139,
      "aptis": 5140,
      "thereof": 5141,
      "wolf": 5142,
      "vessel": 5143,
      "prote": 5144,
      "proportion": 5145,
      "spit": 5146,
      "breach": 5147,
      "desir": 5148,
      "serves": 5149,
      "trun": 5150,
      "fairer": 5151,
      "heartily": 5152,
      "north": 5153,
      "opatra": 5154,
      "gress": 5155,
      "charac": 5156,
      "Edgar": 5157,
      "Robert": 5158,
      "slept": 5159,
      "pleasant": 5160,
      "cares": 5161,
      "banished": 5162,
      "sleeps": 5163,
      "beauteous": 5164,
      "hanging": 5165,
      "Arch": 5166,
      "contents": 5167,
      "hardly": 5168,
      "groans": 5169,
      "Bohe": 5170,
      "mouths": 5171,
      "huge": 5172,
      "Priam": 5173,
      "Polonius": 5174,
      "torment": 5175,
      "Wife": 5176,
      "basket": 5177,
      "Verona": 5178,
      "usurp": 5179,
      "Scotland": 5180,
      "decay": 5181,
      "language": 5182,
      "milk": 5183,
      "acquaintance": 5184,
      "shrewd": 5185,
      "Cleopatra": 5186,
      "stretch": 5187,
      "Diomed": 5188,
      "Ger": 5189,
      "Gen": 5190,
      "GILIA": 5191,
      "IOR": 5192,
      "IGNI": 5193,
      "LANT": 5194,
      "Mother": 5195,
      "PLANT": 5196,
      "Res": 5197,
      "bi": 5198,
      "bab": 5199,
      "freed": 5200,
      "hous": 5201,
      "ip": 5202,
      "mm": 5203,
      "slip": 5204,
      "scept": 5205,
      "anti": 5206,
      "envious": 5207,
      "hall": 5208,
      "hail": 5209,
      "reward": 5210,
      "reach": 5211,
      "rejo": 5212,
      "rebell": 5213,
      "bels": 5214,
      "irt": 5215,
      "decl": 5216,
      "soms": 5217,
      "ENET": 5218,
      "male": 5219,
      "mage": 5220,
      "shun": 5221,
      "contain": 5222,
      "pot": 5223,
      "poet": 5224,
      "pocket": 5225,
      "ified": 5226,
      "knowing": 5227,
      "sacri": 5228,
      "bler": 5229,
      "peri": 5230,
      "perish": 5231,
      "marvel": 5232,
      "Italy": 5233,
      "abide": 5234,
      "friendly": 5235,
      "LAV": 5236,
      "mistake": 5237,
      "assist": 5238,
      "tled": 5239,
      "PAINTER": 5240,
      "guarded": 5241,
      "angels": 5242,
      "Hercul": 5243,
      "REIGNI": 5244,
      "surely": 5245,
      "Until": 5246,
      "VERS": 5247,
      "AGENET": 5248,
      "senses": 5249,
      "visible": 5250,
      "commanded": 5251,
      "Launce": 5252,
      "coron": 5253,
      "corre": 5254,
      "Luci": 5255,
      "Boy": 5256,
      "birds": 5257,
      "BURGUN": 5258,
      "gged": 5259,
      "slaves": 5260,
      "skin": 5261,
      "feeling": 5262,
      "creatures": 5263,
      "SENIOR": 5264,
      "Troyan": 5265,
      "CLIFF": 5266,
      "lusty": 5267,
      "remains": 5268,
      "addition": 5269,
      "Among": 5270,
      "VIRGILIA": 5271,
      "reveng": 5272,
      "jealousy": 5273,
      "Blunt": 5274,
      "tailor": 5275,
      "DOLL": 5276,
      "mediate": 5277,
      "esteem": 5278,
      "passage": 5279,
      "discretion": 5280,
      "yoke": 5281,
      "nephew": 5282,
      "RATCLIFF": 5283,
      "banquet": 5284,
      "Villain": 5285,
      "PLANTAGENET": 5286,
      "Hercules": 5287,
      "REIGNIER": 5288,
      "BURGUNDY": 5289,
      "**": 5290,
      "Apo": 5291,
      "Cas": 5292,
      "Chi": 5293,
      "Jup": 5294,
      "MOND": 5295,
      "Nap": 5296,
      "PETER": 5297,
      "Sit": 5298,
      "Sing": 5299,
      "Sure": 5300,
      "VEN": 5301,
      "Wo": 5302,
      "bours": 5303,
      "lin": 5304,
      "lat": 5305,
      "naught": 5306,
      "oak": 5307,
      "task": 5308,
      "wak": 5309,
      "attempt": 5310,
      "behavi": 5311,
      "chid": 5312,
      "asy": 5313,
      "formed": 5314,
      "uties": 5315,
      "robb": 5316,
      "oots": 5317,
      "doctor": 5318,
      "unhappy": 5319,
      "ambit": 5320,
      "INIA": 5321,
      "conven": 5322,
      "CHANT": 5323,
      "appointed": 5324,
      "LODO": 5325,
      "cies": 5326,
      "dient": 5327,
      "accept": 5328,
      "IRAS": 5329,
      "monarch": 5330,
      "services": 5331,
      "undo": 5332,
      "lieutenant": 5333,
      "SC_": 5334,
      "QUO": 5335,
      "OTHSAY": 5336,
      "MERCHANT": 5337,
      "tricks": 5338,
      "travel": 5339,
      "gild": 5340,
      "cheap": 5341,
      "harsh": 5342,
      "VICO": 5343,
      "cloak": 5344,
      "stays": 5345,
      "SOOTHSAY": 5346,
      "subtle": 5347,
      "faithful": 5348,
      "RICHMOND": 5349,
      "falsehood": 5350,
      "visage": 5351,
      "spot": 5352,
      "hangs": 5353,
      "pense": 5354,
      "passing": 5355,
      "Having": 5356,
      "written": 5357,
      "signs": 5358,
      "secure": 5359,
      "Julia": 5360,
      "frail": 5361,
      "Worthy": 5362,
      "beasts": 5363,
      "uries": 5364,
      "SILVIUS": 5365,
      "Guil": 5366,
      "Guild": 5367,
      "reckon": 5368,
      "BANQUO": 5369,
      "necessity": 5370,
      "Gives": 5371,
      "committed": 5372,
      "wondrous": 5373,
      "GAUNT": 5374,
      "Hubert": 5375,
      "fifty": 5376,
      "determin": 5377,
      "circumstance": 5378,
      "tyranny": 5379,
      "OUTLAW": 5380,
      "rhyme": 5381,
      "league": 5382,
      "pause": 5383,
      "Tranio": 5384,
      "handkerchief": 5385,
      "Bohemia": 5386,
      "LAVINIA": 5387,
      "Jupiter": 5388,
      "ambitious": 5389,
      "LODOVICO": 5390,
      "SOOTHSAYER": 5391,
      "Agame": 5392,
      "Baptis": 5393,
      "CAN": 5394,
      "HUM": 5395,
      "LAR": 5396,
      "Sta": 5397,
      "Tut": 5398,
      "Tam": 5399,
      "WO": 5400,
      "aving": 5401,
      "bble": 5402,
      "cool": 5403,
      "drew": 5404,
      "goose": 5405,
      "lain": 5406,
      "lines": 5407,
      "nar": 5408,
      "nam": 5409,
      "nation": 5410,
      "pup": 5411,
      "sine": 5412,
      "swer": 5413,
      "ums": 5414,
      "vous": 5415,
      "armed": 5416,
      "stamp": 5417,
      "hears": 5418,
      "repe": 5419,
      "ros": 5420,
      "wedding": 5421,
      "soever": 5422,
      "dozen": 5423,
      "INS": 5424,
      "ordin": 5425,
      "aine": 5426,
      "pear": 5427,
      "peas": 5428,
      "mag": 5429,
      "lap": 5430,
      "arts": 5431,
      "illon": 5432,
      "sions": 5433,
      "combat": 5434,
      "mul": 5435,
      "ELBO": 5436,
      "qua": 5437,
      "outs": 5438,
      "venom": 5439,
      "sple": 5440,
      "disease": 5441,
      "otherwise": 5442,
      "bread": 5443,
      "design": 5444,
      "absent": 5445,
      "Anon": 5446,
      "DITA": 5447,
      "partly": 5448,
      "lief": 5449,
      "achie": 5450,
      "PERDITA": 5451,
      "fortunate": 5452,
      "SERVING": 5453,
      "parley": 5454,
      "irect": 5455,
      "plays": 5456,
      "justly": 5457,
      "pawn": 5458,
      "POINS": 5459,
      "Pos": 5460,
      "spoil": 5461,
      "creep": 5462,
      "humours": 5463,
      "bravely": 5464,
      "gait": 5465,
      "satisfaction": 5466,
      "MURTHER": 5467,
      "Quick": 5468,
      "savage": 5469,
      "exped": 5470,
      "physic": 5471,
      "miserable": 5472,
      "example": 5473,
      "provided": 5474,
      "tribute": 5475,
      "Grecian": 5476,
      "Casca": 5477,
      "Naples": 5478,
      "Baptista": 5479,
      "LARTIUS": 5480,
      "ELBOW": 5481,
      "!\"": 5482,
      "Gaunt": 5483,
      "Other": 5484,
      "PEM": 5485,
      "Porti": 5486,
      "Run": 5487,
      "Rather": 5488,
      "Ur": 5489,
      "cise": 5490,
      "eve": 5491,
      "gid": 5492,
      "vul": 5493,
      "thum": 5494,
      "eril": 5495,
      "inward": 5496,
      "attain": 5497,
      "arus": 5498,
      "toil": 5499,
      "sting": 5500,
      "stub": 5501,
      "remor": 5502,
      "record": 5503,
      "choler": 5504,
      "assu": 5505,
      "ldom": 5506,
      "roses": 5507,
      "deput": 5508,
      "liqu": 5509,
      "term": 5510,
      "whit": 5511,
      "cozen": 5512,
      "alle": 5513,
      "urs": 5514,
      "ANIA": 5515,
      "amity": 5516,
      "ENCON": 5517,
      "logue": 5518,
      "tick": 5519,
      "ARTH": 5520,
      "mak": 5521,
      "suits": 5522,
      "shown": 5523,
      "godd": 5524,
      "ALENCON": 5525,
      "bleeding": 5526,
      "RIVERS": 5527,
      "tooth": 5528,
      "shoulders": 5529,
      "audience": 5530,
      "Goths": 5531,
      "distra": 5532,
      "perfection": 5533,
      "perhaps": 5534,
      "serpent": 5535,
      "gently": 5536,
      "Orleans": 5537,
      "Marg": 5538,
      "shire": 5539,
      "imprison": 5540,
      "pursu": 5541,
      "caught": 5542,
      "curst": 5543,
      "brand": 5544,
      "bray": 5545,
      "earthly": 5546,
      "draws": 5547,
      "WILLIAMS": 5548,
      "strife": 5549,
      "YOU": 5550,
      "ACT_": 5551,
      "wisely": 5552,
      "crease": 5553,
      "deserves": 5554,
      "CORIN": 5555,
      "leads": 5556,
      "TITANIA": 5557,
      "Mean": 5558,
      "mnon": 5559,
      "Commend": 5560,
      "petition": 5561,
      "liberal": 5562,
      "possession": 5563,
      "conquest": 5564,
      "Regan": 5565,
      "drive": 5566,
      "Goneril": 5567,
      "officers": 5568,
      "conjure": 5569,
      "saucy": 5570,
      "consul": 5571,
      "journey": 5572,
      "Malvolio": 5573,
      "torture": 5574,
      "conference": 5575,
      "picion": 5576,
      "redeem": 5577,
      "LOVELL": 5578,
      "sceptre": 5579,
      "Agamemnon": 5580,
      "Posthum": 5581,
      "PEMBROKE": 5582,
      "Portia": 5583,
      "ARTHUR": 5584,
      "goddess": 5585,
      "Posthumus": 5586,
      "BL": 5587,
      "Car": 5588,
      "Dies": 5589,
      "Hort": 5590,
      "Ire": 5591,
      "Isa": 5592,
      "Kill": 5593,
      "VINC": 5594,
      "aul": 5595,
      "bay": 5596,
      "bru": 5597,
      "bul": 5598,
      "bishop": 5599,
      "climb": 5600,
      "hun": 5601,
      "mart": 5602,
      "mass": 5603,
      "oce": 5604,
      "pho": 5605,
      "pace": 5606,
      "rend": 5607,
      "swo": 5608,
      "ued": 5609,
      "yard": 5610,
      "arning": 5611,
      "recei": 5612,
      "rebels": 5613,
      "bey": 5614,
      "begu": 5615,
      "belov": 5616,
      "uts": 5617,
      "detest": 5618,
      "soil": 5619,
      "advise": 5620,
      "dote": 5621,
      "unworthy": 5622,
      "wills": 5623,
      "geon": 5624,
      "Tom": 5625,
      "rul": 5626,
      "compl": 5627,
      "commod": 5628,
      "hole": 5629,
      "tem": 5630,
      "quis": 5631,
      "quire": 5632,
      "quench": 5633,
      "shoulder": 5634,
      "perf": 5635,
      "exchange": 5636,
      "offices": 5637,
      "plent": 5638,
      "heav": 5639,
      "heavi": 5640,
      "abus": 5641,
      "looking": 5642,
      "scour": 5643,
      "redress": 5644,
      "ABANTI": 5645,
      "BRABANTI": 5646,
      "enterprise": 5647,
      "whip": 5648,
      "kindred": 5649,
      "Lewis": 5650,
      "prais": 5651,
      "smiling": 5652,
      "bank": 5653,
      "joyful": 5654,
      "youthful": 5655,
      "Something": 5656,
      "wishes": 5657,
      "observe": 5658,
      "palm": 5659,
      "kisses": 5660,
      "delia": 5661,
      "cription": 5662,
      "Cordelia": 5663,
      "obedient": 5664,
      "hairs": 5665,
      "towns": 5666,
      "mount": 5667,
      "destroy": 5668,
      "urio": 5669,
      "nails": 5670,
      "trees": 5671,
      "message": 5672,
      "resolv": 5673,
      "siege": 5674,
      "DOLABELLA": 5675,
      "daily": 5676,
      "depend": 5677,
      "merchant": 5678,
      "orchard": 5679,
      "privilege": 5680,
      "Slender": 5681,
      "freedom": 5682,
      "spleen": 5683,
      "MURTHERER": 5684,
      "Hortensi": 5685,
      "Ireland": 5686,
      "VINCENTIO": 5687,
      "BRABANTIO": 5688,
      "Balth": 5689,
      "Down": 5690,
      "Fly": 5691,
      "Live": 5692,
      "Neither": 5693,
      "Open": 5694,
      "Ophe": 5695,
      "Right": 5696,
      "Twere": 5697,
      "WAL": 5698,
      "coff": 5699,
      "crest": 5700,
      "east": 5701,
      "ians": 5702,
      "iled": 5703,
      "ju": 5704,
      "lent": 5705,
      "nes": 5706,
      "tut": 5707,
      "wander": 5708,
      "zing": 5709,
      "error": 5710,
      "inch": 5711,
      "invisible": 5712,
      "ank": 5713,
      "enstern": 5714,
      "aries": 5715,
      "stu": 5716,
      "recomp": 5717,
      "learning": 5718,
      "aspect": 5719,
      "asham": 5720,
      "fores": 5721,
      "hip": 5722,
      "del": 5723,
      "likes": 5724,
      "wept": 5725,
      "week": 5726,
      "terror": 5727,
      "uring": 5728,
      "amen": 5729,
      "feat": 5730,
      "peer": 5731,
      "nel": 5732,
      "shines": 5733,
      "shoot": 5734,
      "conceive": 5735,
      "pris": 5736,
      "wot": 5737,
      "foreign": 5738,
      "Noble": 5739,
      "spurn": 5740,
      "breeding": 5741,
      "scru": 5742,
      "Princes": 5743,
      "URTH": 5744,
      "warri": 5745,
      "grat": 5746,
      "sses": 5747,
      "began": 5748,
      "park": 5749,
      "younger": 5750,
      "pleasing": 5751,
      "fares": 5752,
      "running": 5753,
      "yellow": 5754,
      "duff": 5755,
      "senators": 5756,
      "higher": 5757,
      "SERVANTS": 5758,
      "weeps": 5759,
      "lately": 5760,
      "growing": 5761,
      "delivered": 5762,
      "corse": 5763,
      "groom": 5764,
      "granted": 5765,
      "Macduff": 5766,
      "torch": 5767,
      "famous": 5768,
      "troubled": 5769,
      "continue": 5770,
      "pinch": 5771,
      "injury": 5772,
      "points": 5773,
      "weapon": 5774,
      "GAOL": 5775,
      "tremble": 5776,
      "troops": 5777,
      "OXFORD": 5778,
      "invention": 5779,
      "FOURTH": 5780,
      "Else": 5781,
      "afeard": 5782,
      "Katherine": 5783,
      "ATTENDANTS": 5784,
      "VARRO": 5785,
      "houses": 5786,
      "Guildenstern": 5787,
      "stubborn": 5788,
      "remorse": 5789,
      "Hortensio": 5790,
      "Ophelia": 5791,
      "),": 5792,
      "BOTH": 5793,
      "CT": 5794,
      "Cha": 5795,
      "EB": 5796,
      "EBE": 5797,
      "GARDIN": 5798,
      "Mant": 5799,
      "Rous": 5800,
      "Ser": 5801,
      "bore": 5802,
      "cation": 5803,
      "ec": 5804,
      "equ": 5805,
      "hatch": 5806,
      "iance": 5807,
      "ided": 5808,
      "pas": 5809,
      "scope": 5810,
      "tu": 5811,
      "zo": 5812,
      "thin": 5813,
      "ined": 5814,
      "increase": 5815,
      "ency": 5816,
      "lling": 5817,
      "rear": 5818,
      "sex": 5819,
      "forms": 5820,
      "roo": 5821,
      "robe": 5822,
      "deaf": 5823,
      "load": 5824,
      "peev": 5825,
      "shapes": 5826,
      "sies": 5827,
      "polit": 5828,
      "theirs": 5829,
      "spy": 5830,
      "space": 5831,
      "ache": 5832,
      "ples": 5833,
      "absolute": 5834,
      "graves": 5835,
      "PHEBE": 5836,
      "wrink": 5837,
      "ornament": 5838,
      "newly": 5839,
      "price": 5840,
      "oppress": 5841,
      "imble": 5842,
      "chas": 5843,
      "curses": 5844,
      "braw": 5845,
      "whiles": 5846,
      "needful": 5847,
      "Provo": 5848,
      "breaking": 5849,
      "grew": 5850,
      "ancing": 5851,
      "ancest": 5852,
      "strive": 5853,
      "strongly": 5854,
      "commands": 5855,
      "wail": 5856,
      "fields": 5857,
      "quarter": 5858,
      "petty": 5859,
      "knights": 5860,
      "hostess": 5861,
      "ashes": 5862,
      "fleet": 5863,
      "resolution": 5864,
      "divor": 5865,
      "Better": 5866,
      "evils": 5867,
      "Greeks": 5868,
      "suspicion": 5869,
      "corrupt": 5870,
      "Return": 5871,
      "accident": 5872,
      "pilgri": 5873,
      "giddy": 5874,
      "ocean": 5875,
      "GARDINER": 5876,
      "peevish": 5877,
      "Four": 5878,
      "FENT": 5879,
      "GUE": 5880,
      "Imp": 5881,
      "Item": 5882,
      "Mow": 5883,
      "Pand": 5884,
      "PED": 5885,
      "SLY": 5886,
      "blast": 5887,
      "don": 5888,
      "gather": 5889,
      "hated": 5890,
      "hounds": 5891,
      "ope": 5892,
      "pence": 5893,
      "rhe": 5894,
      "ratch": 5895,
      "slay": 5896,
      "erous": 5897,
      "inted": 5898,
      "theme": 5899,
      "ories": 5900,
      "metal": 5901,
      "stit": 5902,
      "straw": 5903,
      "reli": 5904,
      "reco": 5905,
      "beloved": 5906,
      "forswear": 5907,
      "hire": 5908,
      "notice": 5909,
      "dea": 5910,
      "liking": 5911,
      "lift": 5912,
      "withdraw": 5913,
      "cox": 5914,
      "rase": 5915,
      "rapier": 5916,
      "unkind": 5917,
      "ANMER": 5918,
      "INOR": 5919,
      "loso": 5920,
      "fever": 5921,
      "feign": 5922,
      "shadows": 5923,
      "butcher": 5924,
      "ruction": 5925,
      "shook": 5926,
      "conspir": 5927,
      "prus": 5928,
      "tap": 5929,
      "ELINOR": 5930,
      "headed": 5931,
      "telling": 5932,
      "ably": 5933,
      "serious": 5934,
      "fice": 5935,
      "flat": 5936,
      "Read": 5937,
      "shift": 5938,
      "travell": 5939,
      "purchase": 5940,
      "clus": 5941,
      "cloud": 5942,
      "current": 5943,
      "rightly": 5944,
      "Thane": 5945,
      "BEAU": 5946,
      "DOCT": 5947,
      "confusion": 5948,
      "steep": 5949,
      "praises": 5950,
      "kna": 5951,
      "happily": 5952,
      "joys": 5953,
      "thankful": 5954,
      "strumpet": 5955,
      "ULL": 5956,
      "ULPH": 5957,
      "delicate": 5958,
      "interest": 5959,
      "commons": 5960,
      "commonwealth": 5961,
      "value": 5962,
      "waters": 5963,
      "PANDULPH": 5964,
      "drinking": 5965,
      "CRANMER": 5966,
      "mettle": 5967,
      "SOLANIO": 5968,
      "pitiful": 5969,
      "Council": 5970,
      "Monsieur": 5971,
      "stoop": 5972,
      "Worcester": 5973,
      "easily": 5974,
      "ambassad": 5975,
      "burst": 5976,
      "received": 5977,
      "cherish": 5978,
      "conclusion": 5979,
      "conditions": 5980,
      "preparation": 5981,
      "OFFICERS": 5982,
      "assurance": 5983,
      "provide": 5984,
      "Alexand": 5985,
      "haply": 5986,
      "directly": 5987,
      "Cyprus": 5988,
      "Saturn": 5989,
      "philoso": 5990,
      "Officers": 5991,
      "Sicilia": 5992,
      "rebellion": 5993,
      "Launcelot": 5994,
      "Tamora": 5995,
      "FENTON": 5996,
      "Mowbray": 5997,
      "PEDANT": 5998,
      "DOCTOR": 5999,
      "15": 6000,
      "Abo": 6001,
      "Bor": 6002,
      "Bless": 6003,
      "Cer": 6004,
      "Cour": 6005,
      "Drum": 6006,
      "East": 6007,
      "Eros": 6008,
      "Hy": 6009,
      "Jes": 6010,
      "Lep": 6011,
      "Making": 6012,
      "NATH": 6013,
      "Ox": 6014,
      "Paul": 6015,
      "Swear": 6016,
      "Ten": 6017,
      "TRI": 6018,
      "Winches": 6019,
      "ail": 6020,
      "dine": 6021,
      "date": 6022,
      "dame": 6023,
      "kno": 6024,
      "miles": 6025,
      "vass": 6026,
      "xen": 6027,
      "zy": 6028,
      "ero": 6029,
      "anie": 6030,
      "ative": 6031,
      "strew": 6032,
      "stale": 6033,
      "heap": 6034,
      "nod": 6035,
      "hal": 6036,
      "remove": 6037,
      "sets": 6038,
      "veins": 6039,
      "owne": 6040,
      "forty": 6041,
      "noted": 6042,
      "rope": 6043,
      "alarum": 6044,
      "advers": 6045,
      "coll": 6046,
      "ERICK": 6047,
      "rack": 6048,
      "unity": 6049,
      "ANIEL": 6050,
      "idus": 6051,
      "manhood": 6052,
      "shade": 6053,
      "contri": 6054,
      "contract": 6055,
      "moving": 6056,
      "mogen": 6057,
      "compe": 6058,
      "box": 6059,
      "bosoms": 6060,
      "EDERICK": 6061,
      "agree": 6062,
      "proph": 6063,
      "disco": 6064,
      "discharge": 6065,
      "distance": 6066,
      "perchance": 6067,
      "experi": 6068,
      "access": 6069,
      "gnant": 6070,
      "parting": 6071,
      "flout": 6072,
      "tribunes": 6073,
      "mightst": 6074,
      "pursue": 6075,
      "Cade": 6076,
      "keeping": 6077,
      "compound": 6078,
      "begun": 6079,
      "falling": 6080,
      "afternoon": 6081,
      "clean": 6082,
      "closet": 6083,
      "carri": 6084,
      "busy": 6085,
      "husbands": 6086,
      "breaks": 6087,
      "strikes": 6088,
      "Dead": 6089,
      "phrase": 6090,
      "mian": 6091,
      "barbar": 6092,
      "crying": 6093,
      "FREDERICK": 6094,
      "igence": 6095,
      "bottle": 6096,
      "Comes": 6097,
      "cape": 6098,
      "gaze": 6099,
      "beholding": 6100,
      "woeful": 6101,
      "cowards": 6102,
      "Hotspur": 6103,
      "thirty": 6104,
      "instruct": 6105,
      "instruments": 6106,
      "eldest": 6107,
      "amongst": 6108,
      "supply": 6109,
      "throats": 6110,
      "conclude": 6111,
      "jewels": 6112,
      "Berowne": 6113,
      "physician": 6114,
      "censure": 6115,
      "refuse": 6116,
      "eagle": 6117,
      "hungry": 6118,
      "Justice": 6119,
      "beams": 6120,
      "Turk": 6121,
      "Archbishop": 6122,
      "Apollo": 6123,
      "recompense": 6124,
      "Lepidus": 6125,
      "NATHANIEL": 6126,
      "Oxford": 6127,
      "Winchester": 6128,
      ".\"": 6129,
      "BRI": 6130,
      "CROM": 6131,
      "Dra": 6132,
      "DICK": 6133,
      "EUTEN": 6134,
      "Imogen": 6135,
      "Lor": 6136,
      "Lend": 6137,
      "Pur": 6138,
      "Pho": 6139,
      "Touch": 6140,
      "boots": 6141,
      "cine": 6142,
      "cull": 6143,
      "couch": 6144,
      "crant": 6145,
      "eded": 6146,
      "gers": 6147,
      "hue": 6148,
      "icians": 6149,
      "mation": 6150,
      "pac": 6151,
      "rouse": 6152,
      "saint": 6153,
      "south": 6154,
      "wand": 6155,
      "wart": 6156,
      "waking": 6157,
      "oracle": 6158,
      "arise": 6159,
      "ital": 6160,
      "seize": 6161,
      "seldom": 6162,
      "beheld": 6163,
      "chin": 6164,
      "utch": 6165,
      "Thers": 6166,
      "roclus": 6167,
      "devo": 6168,
      "lier": 6169,
      "limit": 6170,
      "terrible": 6171,
      "ently": 6172,
      "coin": 6173,
      "vert": 6174,
      "tie": 6175,
      "pearl": 6176,
      "manif": 6177,
      "rupt": 6178,
      "ALICE": 6179,
      "wore": 6180,
      "ctors": 6181,
      "bleness": 6182,
      "apace": 6183,
      "appla": 6184,
      "apparent": 6185,
      "likely": 6186,
      "likewise": 6187,
      "SILEN": 6188,
      "process": 6189,
      "disci": 6190,
      "dispos": 6191,
      "dissem": 6192,
      "perpet": 6193,
      "mbers": 6194,
      "swee": 6195,
      "Exeter": 6196,
      "trench": 6197,
      "fairies": 6198,
      "ica": 6199,
      "kingly": 6200,
      "deaths": 6201,
      "lesser": 6202,
      "Orland": 6203,
      "immediate": 6204,
      "rescue": 6205,
      "giance": 6206,
      "ioli": 6207,
      "lights": 6208,
      "lightning": 6209,
      "couldst": 6210,
      "compar": 6211,
      "curtain": 6212,
      "brace": 6213,
      "Rosen": 6214,
      "LIEUTEN": 6215,
      "Lead": 6216,
      "matters": 6217,
      "stopp": 6218,
      "cutio": 6219,
      "Proceed": 6220,
      "sounded": 6221,
      "Canst": 6222,
      "Laur": 6223,
      "royalty": 6224,
      "acts": 6225,
      "surfeit": 6226,
      "survey": 6227,
      "signior": 6228,
      "Corioli": 6229,
      "aboard": 6230,
      "miracle": 6231,
      "actions": 6232,
      "swain": 6233,
      "Mercutio": 6234,
      "Titinius": 6235,
      "grandsire": 6236,
      "Pisanio": 6237,
      "Comp": 6238,
      "government": 6239,
      "Giving": 6240,
      "loyalty": 6241,
      "turb": 6242,
      "ceremony": 6243,
      "inclin": 6244,
      "treacherous": 6245,
      "Glendower": 6246,
      "opposite": 6247,
      "intelligence": 6248,
      "society": 6249,
      "extremity": 6250,
      "neglect": 6251,
      "Jaqu": 6252,
      "Patroclus": 6253,
      "claims": 6254,
      "General": 6255,
      "behaviour": 6256,
      "Isabel": 6257,
      "Rousillon": 6258,
      "CROMWELL": 6259,
      "crantz": 6260,
      "Thersites": 6261,
      "SILENCE": 6262,
      "Orlando": 6263,
      "Rosencrantz": 6264,
      "LIEUTENANT": 6265,
      "Aar": 6266,
      "Aene": 6267,
      "Adam": 6268,
      "Cur": 6269,
      "CANT": 6270,
      "Cons": 6271,
      "Ever": 6272,
      "FA": 6273,
      "Gall": 6274,
      "Greg": 6275,
      "Happ": 6276,
      "Mort": 6277,
      "Pub": 6278,
      "Patience": 6279,
      "SN": 6280,
      "Samp": 6281,
      "Tra": 6282,
      "UG": 6283,
      "ah": 6284,
      "ali": 6285,
      "blot": 6286,
      "frank": 6287,
      "gru": 6288,
      "gage": 6289,
      "ired": 6290,
      "liness": 6291,
      "mish": 6292,
      "nap": 6293,
      "nimble": 6294,
      "pull": 6295,
      "rish": 6296,
      "tus": 6297,
      "wers": 6298,
      "thread": 6299,
      "org": 6300,
      "itch": 6301,
      "recon": 6302,
      "rebel": 6303,
      "vels": 6304,
      "level": 6305,
      "wil": 6306,
      "beds": 6307,
      "owes": 6308,
      "Things": 6309,
      "roof": 6310,
      "liament": 6311,
      "keen": 6312,
      "aloud": 6313,
      "etch": 6314,
      "coats": 6315,
      "ERBURY": 6316,
      "ragged": 6317,
      "urge": 6318,
      "ENAS": 6319,
      "locks": 6320,
      "share": 6321,
      "moral": 6322,
      "tax": 6323,
      "board": 6324,
      "working": 6325,
      "Excell": 6326,
      "blish": 6327,
      "COUR": 6328,
      "distress": 6329,
      "diseas": 6330,
      "Bel": 6331,
      "exile": 6332,
      "ECENAS": 6333,
      "swears": 6334,
      "angers": 6335,
      "MAECENAS": 6336,
      "Answer": 6337,
      "grac": 6338,
      "lting": 6339,
      "file": 6340,
      "fearing": 6341,
      "sweetly": 6342,
      "Revenge": 6343,
      "fires": 6344,
      "shield": 6345,
      "trifle": 6346,
      "grass": 6347,
      "rights": 6348,
      "natures": 6349,
      "beside": 6350,
      "garland": 6351,
      "kills": 6352,
      "UNG": 6353,
      "ville": 6354,
      "stocks": 6355,
      "henceforth": 6356,
      "YOUNG": 6357,
      "strangely": 6358,
      "ANTIGON": 6359,
      "deserving": 6360,
      "vanish": 6361,
      "except": 6362,
      "suitor": 6363,
      "Seek": 6364,
      "burns": 6365,
      "defy": 6366,
      "signify": 6367,
      "sovereignty": 6368,
      "quarre": 6369,
      "County": 6370,
      "weakness": 6371,
      "destruction": 6372,
      "iety": 6373,
      "fantast": 6374,
      "doublet": 6375,
      "ctive": 6376,
      "satisfy": 6377,
      "effects": 6378,
      "axe": 6379,
      "Davy": 6380,
      "conceal": 6381,
      "Gentleman": 6382,
      "GUARD": 6383,
      "Messala": 6384,
      "Charmian": 6385,
      "Silence": 6386,
      "Helena": 6387,
      "Servants": 6388,
      "persuade": 6389,
      "MONTANO": 6390,
      "clamation": 6391,
      "Hugh": 6392,
      "steps": 6393,
      "funeral": 6394,
      "flame": 6395,
      "Denmark": 6396,
      "Osr": 6397,
      "Octavius": 6398,
      "grievous": 6399,
      "imagination": 6400,
      "copy": 6401,
      "Break": 6402,
      "front": 6403,
      "deceit": 6404,
      "trunk": 6405,
      "rejoice": 6406,
      "vulgar": 6407,
      "allegiance": 6408,
      "Mantua": 6409,
      "Alexandria": 6410,
      "aniel": 6411,
      "discipl": 6412,
      "Aaron": 6413,
      "Aeneas": 6414,
      "CANTERBURY": 6415,
      "ANTIGONUS": 6416,
      "BBO": 6417,
      "CY": 6418,
      "Cal": 6419,
      "Dor": 6420,
      "Gar": 6421,
      "HY": 6422,
      "ITH": 6423,
      "ILO": 6424,
      "Kiss": 6425,
      "New": 6426,
      "Pers": 6427,
      "Pluck": 6428,
      "Sm": 6429,
      "Ye": 6430,
      "bin": 6431,
      "brown": 6432,
      "bits": 6433,
      "cook": 6434,
      "cudge": 6435,
      "ix": 6436,
      "lark": 6437,
      "mould": 6438,
      "push": 6439,
      "sbury": 6440,
      "ym": 6441,
      "enzo": 6442,
      "endea": 6443,
      "arums": 6444,
      "today": 6445,
      "meth": 6446,
      "stout": 6447,
      "haw": 6448,
      "itable": 6449,
      "repose": 6450,
      "sey": 6451,
      "chan": 6452,
      "cep": 6453,
      "cet": 6454,
      "Thurio": 6455,
      "liken": 6456,
      "lions": 6457,
      "altogether": 6458,
      "riot": 6459,
      "coast": 6460,
      "dove": 6461,
      "rais": 6462,
      "aming": 6463,
      "amends": 6464,
      "lots": 6465,
      "willow": 6466,
      "sugg": 6467,
      "lace": 6468,
      "consequ": 6469,
      "moves": 6470,
      "mud": 6471,
      "ELY": 6472,
      "worms": 6473,
      "works": 6474,
      "knowest": 6475,
      "blue": 6476,
      "appoint": 6477,
      "thereby": 6478,
      "seeks": 6479,
      "sirs": 6480,
      "SIANUS": 6481,
      "mended": 6482,
      "split": 6483,
      "spread": 6484,
      "dismiss": 6485,
      "offences": 6486,
      "timely": 6487,
      "plan": 6488,
      "angle": 6489,
      "answers": 6490,
      "LADI": 6491,
      "PHILO": 6492,
      "flu": 6493,
      "guide": 6494,
      "sweetest": 6495,
      "baw": 6496,
      "AMUS": 6497,
      "beget": 6498,
      "talking": 6499,
      "bidding": 6500,
      "steward": 6501,
      "GOBBO": 6502,
      "temple": 6503,
      "GHOST": 6504,
      "capable": 6505,
      "kissing": 6506,
      "bargain": 6507,
      "medit": 6508,
      "exceeding": 6509,
      "burnt": 6510,
      "walks": 6511,
      "humor": 6512,
      "pays": 6513,
      "PORTER": 6514,
      "eaten": 6515,
      "wheel": 6516,
      "qualities": 6517,
      "wonderful": 6518,
      "severally": 6519,
      "BASSIANUS": 6520,
      "drunken": 6521,
      "secrets": 6522,
      "Athenian": 6523,
      "proceeding": 6524,
      "grandam": 6525,
      "ugly": 6526,
      "Servant": 6527,
      "pierce": 6528,
      "dukedom": 6529,
      "imperial": 6530,
      "lodging": 6531,
      "Octavia": 6532,
      "pronounce": 6533,
      "according": 6534,
      "Fellow": 6535,
      "couple": 6536,
      "comforts": 6537,
      "scurvy": 6538,
      "ALEXAS": 6539,
      "clerk": 6540,
      "yesterday": 6541,
      "expedition": 6542,
      "deputy": 6543,
      "beguile": 6544,
      "WALES": 6545,
      "GAOLER": 6546,
      "Lorenzo": 6547,
      "LADIES": 6548,
      "10": 6549,
      "Ape": 6550,
      "Black": 6551,
      "Clo": 6552,
      "CUR": 6553,
      "Cates": 6554,
      "DRA": 6555,
      "Els": 6556,
      "Five": 6557,
      "Grem": 6558,
      "Grum": 6559,
      "Hap": 6560,
      "Mur": 6561,
      "Mic": 6562,
      "NOX": 6563,
      "Over": 6564,
      "Son": 6565,
      "Sup": 6566,
      "Stoo": 6567,
      "bere": 6568,
      "bone": 6569,
      "foun": 6570,
      "threw": 6571,
      "inore": 6572,
      "instance": 6573,
      "atic": 6574,
      "andal": 6575,
      "stal": 6576,
      "hack": 6577,
      "hael": 6578,
      "reproach": 6579,
      "betimes": 6580,
      "asion": 6581,
      "forsake": 6582,
      "iring": 6583,
      "utt": 6584,
      "lim": 6585,
      "withstanding": 6586,
      "solic": 6587,
      "river": 6588,
      "adle": 6589,
      "alliance": 6590,
      "amorous": 6591,
      "verty": 6592,
      "lodge": 6593,
      "tified": 6594,
      "ORGE": 6595,
      "peep": 6596,
      "ONIUS": 6597,
      "manage": 6598,
      "mantus": 6599,
      "lame": 6600,
      "shout": 6601,
      "STER": 6602,
      "converse": 6603,
      "constan": 6604,
      "upright": 6605,
      "poster": 6606,
      "poverty": 6607,
      "moan": 6608,
      "hose": 6609,
      "goods": 6610,
      "indign": 6611,
      "blance": 6612,
      "apes": 6613,
      "forehead": 6614,
      "prob": 6615,
      "prodig": 6616,
      "discord": 6617,
      "diet": 6618,
      "exer": 6619,
      "afoot": 6620,
      "accent": 6621,
      "serving": 6622,
      "kingdoms": 6623,
      "scal": 6624,
      "scratch": 6625,
      "Whereof": 6626,
      "council": 6627,
      "called": 6628,
      "madman": 6629,
      "Fran": 6630,
      "bald": 6631,
      "PERCY": 6632,
      "shill": 6633,
      "preserve": 6634,
      "GEORGE": 6635,
      "impress": 6636,
      "immortal": 6637,
      "settled": 6638,
      "keeper": 6639,
      "cursions": 6640,
      "bragg": 6641,
      "parce": 6642,
      "besee": 6643,
      "reasonable": 6644,
      "youngest": 6645,
      "carries": 6646,
      "vaunt": 6647,
      "senseless": 6648,
      "Prosper": 6649,
      "DERBY": 6650,
      "Deliver": 6651,
      "penit": 6652,
      "Sub": 6653,
      "careful": 6654,
      "breathing": 6655,
      "verses": 6656,
      "Shrew": 6657,
      "create": 6658,
      "Constable": 6659,
      "sisters": 6660,
      "sadness": 6661,
      "LENNOX": 6662,
      "touches": 6663,
      "dowry": 6664,
      "writes": 6665,
      "yielded": 6666,
      "lads": 6667,
      "pipe": 6668,
      "Command": 6669,
      "wooing": 6670,
      "pitied": 6671,
      "sufferance": 6672,
      "hideous": 6673,
      "bonds": 6674,
      "heirs": 6675,
      "direction": 6676,
      "nail": 6677,
      "succeed": 6678,
      "resolve": 6679,
      "churl": 6680,
      "Beseech": 6681,
      "murderer": 6682,
      "elements": 6683,
      "schol": 6684,
      "Cornwall": 6685,
      "mutiny": 6686,
      "conclu": 6687,
      "instantly": 6688,
      "explo": 6689,
      "greeting": 6690,
      "necessary": 6691,
      "expectation": 6692,
      "injuries": 6693,
      "strokes": 6694,
      "roaring": 6695,
      "wager": 6696,
      "varlet": 6697,
      "ministers": 6698,
      "Tribunes": 6699,
      "determine": 6700,
      "treachery": 6701,
      "ligence": 6702,
      "perjur": 6703,
      "beggars": 6704,
      "renowned": 6705,
      "blos": 6706,
      "character": 6707,
      "convenient": 6708,
      "Above": 6709,
      "likeness": 6710,
      "Apemantus": 6711,
      "CURTIS": 6712,
      "Catesby": 6713,
      "Elsinore": 6714,
      "Gremio": 6715,
      "Grumio": 6716,
      "Michael": 6717,
      "CU": 6718,
      "CIN": 6719,
      "Fetch": 6720,
      "Gri": 6721,
      "House": 6722,
      "Im": 6723,
      "Jess": 6724,
      "Jud": 6725,
      "LL": 6726,
      "Murther": 6727,
      "Ned": 6728,
      "Nym": 6729,
      "Saw": 6730,
      "Zounds": 6731,
      "cence": 6732,
      "dat": 6733,
      "fur": 6734,
      "fty": 6735,
      "hare": 6736,
      "hound": 6737,
      "lower": 6738,
      "opp": 6739,
      "rar": 6740,
      "ssi": 6741,
      "sanc": 6742,
      "yr": 6743,
      "insol": 6744,
      "anley": 6745,
      "wipe": 6746,
      "belike": 6747,
      "chery": 6748,
      "notes": 6749,
      "Thine": 6750,
      "rial": 6751,
      "adul": 6752,
      "domin": 6753,
      "ANTH": 6754,
      "amend": 6755,
      "amond": 6756,
      "manly": 6757,
      "shal": 6758,
      "THO": 6759,
      "moder": 6760,
      "ALA": 6761,
      "ALD": 6762,
      "Enough": 6763,
      "quaint": 6764,
      "sheet": 6765,
      "mpets": 6766,
      "proves": 6767,
      "cially": 6768,
      "diest": 6769,
      "divers": 6770,
      "Ant": 6771,
      "sces": 6772,
      "hasty": 6773,
      "bait": 6774,
      "trim": 6775,
      "Cawd": 6776,
      "Almost": 6777,
      "whipt": 6778,
      "Joan": 6779,
      "tales": 6780,
      "sleeve": 6781,
      "cloth": 6782,
      "carriage": 6783,
      "horrible": 6784,
      "throng": 6785,
      "doub": 6786,
      "Stanley": 6787,
      "duce": 6788,
      "sensible": 6789,
      "impedi": 6790,
      "beaut": 6791,
      "MESSALA": 6792,
      "promised": 6793,
      "riches": 6794,
      "sitting": 6795,
      "summon": 6796,
      "Methought": 6797,
      "doubtful": 6798,
      "writing": 6799,
      "fourteen": 6800,
      "requite": 6801,
      "gallows": 6802,
      "Perchance": 6803,
      "suppose": 6804,
      "speeches": 6805,
      "safely": 6806,
      "acknow": 6807,
      "Stands": 6808,
      "bowels": 6809,
      "HERALD": 6810,
      "flattery": 6811,
      "poral": 6812,
      "conqueror": 6813,
      "testi": 6814,
      "infant": 6815,
      "innocence": 6816,
      "mourning": 6817,
      "snatch": 6818,
      "Accord": 6819,
      "Steph": 6820,
      "fixed": 6821,
      "Volsces": 6822,
      "disguised": 6823,
      "nicious": 6824,
      "merrily": 6825,
      "OCTAVIUS": 6826,
      "piteous": 6827,
      "divide": 6828,
      "Kneel": 6829,
      "Grati": 6830,
      "babes": 6831,
      "VENICE": 6832,
      "narrow": 6833,
      "sinews": 6834,
      "scruple": 6835,
      "divorce": 6836,
      "Laurence": 6837,
      "Publius": 6838,
      "constancy": 6839,
      "Jessica": 6840,
      "Cawdor": 6841,
      "'!": 6842,
      "16": 6843,
      "Ari": 6844,
      "Amb": 6845,
      "BAL": 6846,
      "Bassi": 6847,
      "Barn": 6848,
      "Besh": 6849,
      "Bishop": 6850,
      "CIS": 6851,
      "Col": 6852,
      "Die": 6853,
      "Hie": 6854,
      "Lies": 6855,
      "NA": 6856,
      "Oli": 6857,
      "PRI": 6858,
      "Twill": 6859,
      "Toward": 6860,
      "VY": 6861,
      "YS": 6862,
      "awe": 6863,
      "bac": 6864,
      "buke": 6865,
      "ebb": 6866,
      "gorge": 6867,
      "loo": 6868,
      "lus": 6869,
      "nup": 6870,
      "path": 6871,
      "rated": 6872,
      "rites": 6873,
      "san": 6874,
      "zes": 6875,
      "inct": 6876,
      "inate": 6877,
      "infer": 6878,
      "infection": 6879,
      "ony": 6880,
      "methought": 6881,
      "hedge": 6882,
      "itors": 6883,
      "seed": 6884,
      "seiz": 6885,
      "myster": 6886,
      "notwithstanding": 6887,
      "devis": 6888,
      "livery": 6889,
      "wet": 6890,
      "keys": 6891,
      "aloft": 6892,
      "alack": 6893,
      "sober": 6894,
      "etell": 6895,
      "history": 6896,
      "rag": 6897,
      "ram": 6898,
      "unjust": 6899,
      "unkindness": 6900,
      "ANCIS": 6901,
      "amour": 6902,
      "ests": 6903,
      "butter": 6904,
      "ending": 6905,
      "contemp": 6906,
      "constru": 6907,
      "gossi": 6908,
      "holi": 6909,
      "teth": 6910,
      "text": 6911,
      "indiffer": 6912,
      "boar": 6913,
      "canker": 6914,
      "asters": 6915,
      "herein": 6916,
      "proclamation": 6917,
      "spark": 6918,
      "Ask": 6919,
      "dismal": 6920,
      "Beg": 6921,
      "division": 6922,
      "afar": 6923,
      "breeds": 6924,
      "MAS": 6925,
      "marvell": 6926,
      "tran": 6927,
      "unders": 6928,
      "DULL": 6929,
      "counsell": 6930,
      "evermore": 6931,
      "umn": 6932,
      "plac": 6933,
      "preced": 6934,
      "shipp": 6935,
      "nobleman": 6936,
      "jot": 6937,
      "resign": 6938,
      "dearer": 6939,
      "charms": 6940,
      "Ross": 6941,
      "confident": 6942,
      "players": 6943,
      "surety": 6944,
      "backs": 6945,
      "backward": 6946,
      "crowned": 6947,
      "subdu": 6948,
      "subscri": 6949,
      "atient": 6950,
      "stole": 6951,
      "worthiness": 6952,
      "swearing": 6953,
      "Arm": 6954,
      "careless": 6955,
      "promises": 6956,
      "craves": 6957,
      "deserts": 6958,
      "DAVY": 6959,
      "sights": 6960,
      "FRANCIS": 6961,
      "salute": 6962,
      "require": 6963,
      "Hadst": 6964,
      "suppos": 6965,
      "Trumpets": 6966,
      "stirring": 6967,
      "beastly": 6968,
      "troubles": 6969,
      "titles": 6970,
      "Talk": 6971,
      "middle": 6972,
      "Venus": 6973,
      "marching": 6974,
      "dainty": 6975,
      "incu": 6976,
      "cruelty": 6977,
      "Walter": 6978,
      "wenches": 6979,
      "changes": 6980,
      "grieves": 6981,
      "merely": 6982,
      "corner": 6983,
      "employment": 6984,
      "amaze": 6985,
      "feeble": 6986,
      "miseries": 6987,
      "virginity": 6988,
      "punishment": 6989,
      "Alexander": 6990,
      "Philip": 6991,
      "prosperous": 6992,
      "prophet": 6993,
      "estimation": 6994,
      "voyage": 6995,
      "concerns": 6996,
      "OCTAVIA": 6997,
      "Duncan": 6998,
      "Witness": 6999,
      "SANDYS": 7000,
      "chastity": 7001,
      "trespass": 7002,
      "candle": 7003,
      "sacrifice": 7004,
      "correction": 7005,
      "peasant": 7006,
      "Provost": 7007,
      "religious": 7008,
      "Jesu": 7009,
      "prophesy": 7010,
      "perpetual": 7011,
      "Cloten": 7012,
      "probation": 7013,
      "Shrewsbury": 7014,
      "CINNA": 7015,
      "opport": 7016,
      "THOMAS": 7017,
      "According": 7018,
      "Gratiano": 7019,
      "Bassianus": 7020,
      "Beshrew": 7021,
      "bachel": 7022,
      "nuptial": 7023,
      "AIN": 7024,
      "AED": 7025,
      "Cin": 7026,
      "Cut": 7027,
      "Grey": 7028,
      "MUS": 7029,
      "Nep": 7030,
      "Phe": 7031,
      "PCO": 7032,
      "POLY": 7033,
      "PANTH": 7034,
      "Sur": 7035,
      "SMAN": 7036,
      "TRIB": 7037,
      "Takes": 7038,
      "Use": 7039,
      "Uly": 7040,
      "VII": 7041,
      "ciful": 7042,
      "duties": 7043,
      "fts": 7044,
      "gour": 7045,
      "gap": 7046,
      "hoo": 7047,
      "ky": 7048,
      "mity": 7049,
      "nigh": 7050,
      "oman": 7051,
      "pper": 7052,
      "pang": 7053,
      "sill": 7054,
      "tard": 7055,
      "vive": 7056,
      "ylock": 7057,
      "inte": 7058,
      "issu": 7059,
      "escape": 7060,
      "hey": 7061,
      "heal": 7062,
      "reap": 7063,
      "separ": 7064,
      "beats": 7065,
      "beware": 7066,
      "chronic": 7067,
      "ays": 7068,
      "Throw": 7069,
      "roth": 7070,
      "rogues": 7071,
      "deck": 7072,
      "depos": 7073,
      "devour": 7074,
      "lipp": 7075,
      "terr": 7076,
      "alty": 7077,
      "alms": 7078,
      "eder": 7079,
      "enton": 7080,
      "adies": 7081,
      "etext": 7082,
      "ERIA": 7083,
      "rages": 7084,
      "ravish": 7085,
      "uni": 7086,
      "ENETTA": 7087,
      "losing": 7088,
      "loathe": 7089,
      "tiers": 7090,
      "tired": 7091,
      "ARIO": 7092,
      "ORUS": 7093,
      "estor": 7094,
      "conbridge": 7095,
      "muse": 7096,
      "ELAUS": 7097,
      "cts": 7098,
      "ular": 7099,
      "aph": 7100,
      "dispose": 7101,
      "Belike": 7102,
      "muster": 7103,
      "vio": 7104,
      "vied": 7105,
      "pernicious": 7106,
      "handsome": 7107,
      "isement": 7108,
      "afford": 7109,
      "nightly": 7110,
      "arson": 7111,
      "merle": 7112,
      "strate": 7113,
      "mistook": 7114,
      "PHREY": 7115,
      "Proud": 7116,
      "retreat": 7117,
      "everlasting": 7118,
      "omit": 7119,
      "SCARUS": 7120,
      "Reign": 7121,
      "umes": 7122,
      "presume": 7123,
      "lived": 7124,
      "tried": 7125,
      "trifl": 7126,
      "GEON": 7127,
      "household": 7128,
      "giant": 7129,
      "grate": 7130,
      "restor": 7131,
      "restore": 7132,
      "compli": 7133,
      "compare": 7134,
      "tents": 7135,
      "charged": 7136,
      "hourly": 7137,
      "harbour": 7138,
      "mothers": 7139,
      "lays": 7140,
      "Uncle": 7141,
      "Moon": 7142,
      "burial": 7143,
      "greed": 7144,
      "Pope": 7145,
      "MENELAUS": 7146,
      "caps": 7147,
      "soundly": 7148,
      "obtain": 7149,
      "sickly": 7150,
      "Shylock": 7151,
      "meddle": 7152,
      "vanity": 7153,
      "chosen": 7154,
      "leading": 7155,
      "silk": 7156,
      "aws": 7157,
      "bounds": 7158,
      "Meet": 7159,
      "drinks": 7160,
      "VALERIA": 7161,
      "saved": 7162,
      "BUSHY": 7163,
      "skull": 7164,
      "Trust": 7165,
      "blessings": 7166,
      "Mont": 7167,
      "pestil": 7168,
      "scorns": 7169,
      "bondage": 7170,
      "bastian": 7171,
      "execute": 7172,
      "executed": 7173,
      "treasons": 7174,
      "extreme": 7175,
      "SENATORS": 7176,
      "mannerly": 7177,
      "Albany": 7178,
      "election": 7179,
      "departure": 7180,
      "JAQUENETTA": 7181,
      "legions": 7182,
      "Rosaline": 7183,
      "waiting": 7184,
      "Sebastian": 7185,
      "onae": 7186,
      "Strikes": 7187,
      "intents": 7188,
      "semblance": 7189,
      "complete": 7190,
      "PHILARIO": 7191,
      "Aumerle": 7192,
      "MONTAGUE": 7193,
      "mountains": 7194,
      "shoe": 7195,
      "shoes": 7196,
      "SIMPCO": 7197,
      "matis": 7198,
      "guiltless": 7199,
      "Lieutenant": 7200,
      "guests": 7201,
      "borrowed": 7202,
      "balls": 7203,
      "errand": 7204,
      "puiss": 7205,
      "filthy": 7206,
      "sufficient": 7207,
      "million": 7208,
      "AEGEON": 7209,
      "AUSTRI": 7210,
      "Florence": 7211,
      "coronation": 7212,
      "gilded": 7213,
      "HUMPHREY": 7214,
      "Quickly": 7215,
      "liquor": 7216,
      "ancestors": 7217,
      "ULLUS": 7218,
      "knocks": 7219,
      "vassal": 7220,
      "barbarous": 7221,
      "Dramatis": 7222,
      "diseases": 7223,
      "Garter": 7224,
      "Personae": 7225,
      "Murder": 7226,
      "scholar": 7227,
      "Olivia": 7228,
      "sanct": 7229,
      "PANTHINO": 7230,
      "TRIBUN": 7231,
      "Ulysses": 7232,
      "integr": 7233,
      "SIMPCOX": 7234,
      "AUSTRIA": 7235,
      "12": 7236,
      "Bri": 7237,
      "BIN": 7238,
      "Bull": 7239,
      "BESS": 7240,
      "Crom": 7241,
      "DONE": 7242,
      "Fle": 7243,
      "Ful": 7244,
      "Har": 7245,
      "HIP": 7246,
      "Moun": 7247,
      "Maine": 7248,
      "Ner": 7249,
      "NCAN": 7250,
      "Nestor": 7251,
      "OVER": 7252,
      "Rey": 7253,
      "Tear": 7254,
      "Twixt": 7255,
      "Urs": 7256,
      "VE": 7257,
      "Virt": 7258,
      "Yield": 7259,
      "ben": 7260,
      "coo": 7261,
      "dower": 7262,
      "drows": 7263,
      "diff": 7264,
      "dancing": 7265,
      "fant": 7266,
      "fray": 7267,
      "ime": 7268,
      "jump": 7269,
      "lorn": 7270,
      "pine": 7271,
      "treat": 7272,
      "vine": 7273,
      "vast": 7274,
      "wre": 7275,
      "yon": 7276,
      "zon": 7277,
      "enc": 7278,
      "enmity": 7279,
      "arro": 7280,
      "lla": 7281,
      "esp": 7282,
      "ester": 7283,
      "stum": 7284,
      "stake": 7285,
      "stuck": 7286,
      "states": 7287,
      "nobler": 7288,
      "hallow": 7289,
      "removed": 7290,
      "ingrat": 7291,
      "leas": 7292,
      "beit": 7293,
      "became": 7294,
      "asse": 7295,
      "forman": 7296,
      "hir": 7297,
      "utmost": 7298,
      "ross": 7299,
      "robes": 7300,
      "rocks": 7301,
      "decre": 7302,
      "lihood": 7303,
      "ourself": 7304,
      "edu": 7305,
      "soe": 7306,
      "entrance": 7307,
      "etc": 7308,
      "raging": 7309,
      "unch": 7310,
      "INTUS": 7311,
      "loqu": 7312,
      "Thee": 7313,
      "mantle": 7314,
      "mankind": 7315,
      "maker": 7316,
      "ckle": 7317,
      "neat": 7318,
      "sustain": 7319,
      "rue": 7320,
      "conver": 7321,
      "print": 7322,
      "pox": 7323,
      "holp": 7324,
      "outrage": 7325,
      "shel": 7326,
      "sheets": 7327,
      "ROOP": 7328,
      "ROBIN": 7329,
      "sails": 7330,
      "cannon": 7331,
      "Fore": 7332,
      "astard": 7333,
      "inking": 7334,
      "wol": 7335,
      "prover": 7336,
      "prologue": 7337,
      "distemper": 7338,
      "disturb": 7339,
      "Beau": 7340,
      "dious": 7341,
      "diamond": 7342,
      "pledge": 7343,
      "expense": 7344,
      "elbow": 7345,
      "affright": 7346,
      "pless": 7347,
      "CAMPE": 7348,
      "desc": 7349,
      "descend": 7350,
      "mont": 7351,
      "Ang": 7352,
      "hearse": 7353,
      "scandal": 7354,
      "mischance": 7355,
      "lts": 7356,
      "DUNCAN": 7357,
      "counted": 7358,
      "flint": 7359,
      "courses": 7360,
      "SCROOP": 7361,
      "ABBESS": 7362,
      "prays": 7363,
      "QUINTUS": 7364,
      "longing": 7365,
      "imit": 7366,
      "purge": 7367,
      "setting": 7368,
      "resem": 7369,
      "ATE": 7370,
      "iot": 7371,
      "clown": 7372,
      "champ": 7373,
      "MARTIUS": 7374,
      "IANS": 7375,
      "garter": 7376,
      "airs": 7377,
      "STAFFORD": 7378,
      "harvest": 7379,
      "confeder": 7380,
      "reply": 7381,
      "minded": 7382,
      "evening": 7383,
      "Prove": 7384,
      "windows": 7385,
      "grees": 7386,
      "fighting": 7387,
      "Wouldst": 7388,
      "nearer": 7389,
      "hangman": 7390,
      "capti": 7391,
      "penance": 7392,
      "appeal": 7393,
      "wald": 7394,
      "deserved": 7395,
      "Conf": 7396,
      "countryman": 7397,
      "Mayor": 7398,
      "attendant": 7399,
      "certainly": 7400,
      "awn": 7401,
      "droop": 7402,
      "ladder": 7403,
      "Cominius": 7404,
      "relish": 7405,
      "thrift": 7406,
      "speedy": 7407,
      "creation": 7408,
      "stool": 7409,
      "destiny": 7410,
      "imag": 7411,
      "colm": 7412,
      "drift": 7413,
      "Messenger": 7414,
      "starve": 7415,
      "eleven": 7416,
      "Greece": 7417,
      "Doug": 7418,
      "blushing": 7419,
      "delights": 7420,
      "Six": 7421,
      "demands": 7422,
      "persuaded": 7423,
      "medicine": 7424,
      "Milford": 7425,
      "ceremon": 7426,
      "articles": 7427,
      "prevented": 7428,
      "Malcolm": 7429,
      "arriv": 7430,
      "perjury": 7431,
      "Present": 7432,
      "smoke": 7433,
      "Write": 7434,
      "mongst": 7435,
      "style": 7436,
      "control": 7437,
      "lungs": 7438,
      "multitude": 7439,
      "Knocking": 7440,
      "franch": 7441,
      "infected": 7442,
      "tutor": 7443,
      "Chamber": 7444,
      "coxcomb": 7445,
      "Phoe": 7446,
      "Excellent": 7447,
      "consequence": 7448,
      "fountain": 7449,
      "prodigal": 7450,
      "Judas": 7451,
      "precedent": 7452,
      "Cinna": 7453,
      "Neptune": 7454,
      "POLYTA": 7455,
      "integrity": 7456,
      "HIPPOLYTA": 7457,
      "OVERDONE": 7458,
      "CAMPEIUS": 7459,
      ",-": 7460,
      "Apri": 7461,
      "Bed": 7462,
      "Cesar": 7463,
      "Dr": 7464,
      "Dar": 7465,
      "DREY": 7466,
      "Duch": 7467,
      "Fenton": 7468,
      "Ill": 7469,
      "JU": 7470,
      "Light": 7471,
      "MILL": 7472,
      "Near": 7473,
      "Pre": 7474,
      "RUG": 7475,
      "Sn": 7476,
      "Tush": 7477,
      "Vin": 7478,
      "Wed": 7479,
      "YRE": 7480,
      "cab": 7481,
      "crows": 7482,
      "eous": 7483,
      "eats": 7484,
      "egg": 7485,
      "flock": 7486,
      "gment": 7487,
      "ician": 7488,
      "lur": 7489,
      "lam": 7490,
      "mire": 7491,
      "nut": 7492,
      "os": 7493,
      "plight": 7494,
      "rene": 7495,
      "tun": 7496,
      "wakes": 7497,
      "anch": 7498,
      "anim": 7499,
      "issa": 7500,
      "encon": 7501,
      "encount": 7502,
      "atta": 7503,
      "toe": 7504,
      "sters": 7505,
      "noblest": 7506,
      "ofty": 7507,
      "haught": 7508,
      "habits": 7509,
      "rebuke": 7510,
      "leather": 7511,
      "chose": 7512,
      "forlorn": 7513,
      "road": 7514,
      "weed": 7515,
      "kets": 7516,
      "rival": 7517,
      "dole": 7518,
      "ample": 7519,
      "ENBURY": 7520,
      "tile": 7521,
      "peach": 7522,
      "shames": 7523,
      "sullen": 7524,
      "butt": 7525,
      "rub": 7526,
      "ruffi": 7527,
      "THYRE": 7528,
      "constable": 7529,
      "princess": 7530,
      "mocks": 7531,
      "tages": 7532,
      "quake": 7533,
      "anting": 7534,
      "ROMAN": 7535,
      "Except": 7536,
      "bliss": 7537,
      "mph": 7538,
      "specta": 7539,
      "procure": 7540,
      "performan": 7541,
      "extend": 7542,
      "offers": 7543,
      "MAMILL": 7544,
      "description": 7545,
      "abund": 7546,
      "gentleness": 7547,
      "Any": 7548,
      "Angi": 7549,
      "grain": 7550,
      "partner": 7551,
      "Whereto": 7552,
      "Sirs": 7553,
      "courteous": 7554,
      "Ready": 7555,
      "Receive": 7556,
      "ABHOR": 7557,
      "pregnant": 7558,
      "putting": 7559,
      "BRAK": 7560,
      "chall": 7561,
      "Alarums": 7562,
      "Alencon": 7563,
      "charitable": 7564,
      "whipp": 7565,
      "reads": 7566,
      "Robin": 7567,
      "garment": 7568,
      "Hermi": 7569,
      "harmony": 7570,
      "fellowship": 7571,
      "horrid": 7572,
      "tempted": 7573,
      "thren": 7574,
      "minate": 7575,
      "bras": 7576,
      "brass": 7577,
      "VERNON": 7578,
      "berg": 7579,
      "thousands": 7580,
      "CASSAND": 7581,
      "impatience": 7582,
      "SONG": 7583,
      "Sometime": 7584,
      "singing": 7585,
      "strict": 7586,
      "False": 7587,
      "Peto": 7588,
      "persons": 7589,
      "creant": 7590,
      "Content": 7591,
      "wanting": 7592,
      "battles": 7593,
      "vanqu": 7594,
      "trusty": 7595,
      "sadly": 7596,
      "Frenchmen": 7597,
      "dreamt": 7598,
      "slumber": 7599,
      "relent": 7600,
      "AUDREY": 7601,
      "profane": 7602,
      "confession": 7603,
      "velvet": 7604,
      "despise": 7605,
      "Juno": 7606,
      "counsels": 7607,
      "whel": 7608,
      "embra": 7609,
      "joints": 7610,
      "respects": 7611,
      "famish": 7612,
      "messengers": 7613,
      "porter": 7614,
      "understanding": 7615,
      "Betwixt": 7616,
      "Verg": 7617,
      "neighbours": 7618,
      "continent": 7619,
      "grandfather": 7620,
      "frowns": 7621,
      "changing": 7622,
      "violence": 7623,
      "grossly": 7624,
      "helm": 7625,
      "persuasion": 7626,
      "witchcraft": 7627,
      "symp": 7628,
      "digest": 7629,
      "honorable": 7630,
      "bending": 7631,
      "Vols": 7632,
      "affected": 7633,
      "bully": 7634,
      "ballad": 7635,
      "squire": 7636,
      "article": 7637,
      "Oswald": 7638,
      "swelling": 7639,
      "patri": 7640,
      "aloof": 7641,
      "divided": 7642,
      "belongs": 7643,
      "practise": 7644,
      "painting": 7645,
      "stabb": 7646,
      "Lucilius": 7647,
      "linen": 7648,
      "achieve": 7649,
      "Meantime": 7650,
      "hunger": 7651,
      "politic": 7652,
      "rheum": 7653,
      "devotion": 7654,
      "exercise": 7655,
      "bachelor": 7656,
      "Phebe": 7657,
      "Cromwell": 7658,
      "Fulvia": 7659,
      "Nerissa": 7660,
      "ingratitude": 7661,
      "imagine": 7662,
      "April": 7663,
      "Cesario": 7664,
      "Duchess": 7665,
      "RUGBY": 7666,
      "Vincentio": 7667,
      "THYREUS": 7668,
      "MAMILLIUS": 7669,
      "Angiers": 7670,
      "ABHORSON": 7671,
      "BRAKENBURY": 7672,
      "Hermione": 7673,
      "CASSANDRA": 7674,
      "BAND": 7675,
      "Che": 7676,
      "DGE": 7677,
      "End": 7678,
      "Fif": 7679,
      "Free": 7680,
      "Gain": 7681,
      "GRE": 7682,
      "Gads": 7683,
      "ILE": 7684,
      "Last": 7685,
      "Ladies": 7686,
      "Masters": 7687,
      "Part": 7688,
      "Prep": 7689,
      "Rut": 7690,
      "Syra": 7691,
      "Vouch": 7692,
      "ZAN": 7693,
      "block": 7694,
      "dangers": 7695,
      "emul": 7696,
      "ffl": 7697,
      "gilt": 7698,
      "hook": 7699,
      "hates": 7700,
      "ives": 7701,
      "jou": 7702,
      "latter": 7703,
      "lute": 7704,
      "lofty": 7705,
      "nun": 7706,
      "nourish": 7707,
      "pple": 7708,
      "patter": 7709,
      "pounds": 7710,
      "tum": 7711,
      "vap": 7712,
      "wring": 7713,
      "inth": 7714,
      "infirm": 7715,
      "intended": 7716,
      "anks": 7717,
      "enrich": 7718,
      "tock": 7719,
      "tomorrow": 7720,
      "heel": 7721,
      "heinous": 7722,
      "remov": 7723,
      "lewd": 7724,
      "bethink": 7725,
      "assay": 7726,
      "utation": 7727,
      "Thrice": 7728,
      "Thurs": 7729,
      "dedi": 7730,
      "defect": 7731,
      "lian": 7732,
      "lily": 7733,
      "lids": 7734,
      "web": 7735,
      "ribs": 7736,
      "Whence": 7737,
      "coal": 7738,
      "covet": 7739,
      "allay": 7740,
      "rails": 7741,
      "unseen": 7742,
      "aints": 7743,
      "female": 7744,
      "sham": 7745,
      "maj": 7746,
      "magn": 7747,
      "herd": 7748,
      "sums": 7749,
      "ruth": 7750,
      "shores": 7751,
      "ills": 7752,
      "contend": 7753,
      "consum": 7754,
      "sive": 7755,
      "poke": 7756,
      "taunt": 7757,
      "homage": 7758,
      "indirect": 7759,
      "worser": 7760,
      "likelihood": 7761,
      "aggers": 7762,
      "inks": 7763,
      "SIWARD": 7764,
      "wered": 7765,
      "dissol": 7766,
      "Beyond": 7767,
      "ILOR": 7768,
      "acles": 7769,
      "angling": 7770,
      "answered": 7771,
      "brethren": 7772,
      "CAPH": 7773,
      "marble": 7774,
      "descent": 7775,
      "Anjou": 7776,
      "Dover": 7777,
      "merciful": 7778,
      "mistrust": 7779,
      "tainted": 7780,
      "oughs": 7781,
      "Regent": 7782,
      "priz": 7783,
      "prime": 7784,
      "baby": 7785,
      "tendom": 7786,
      "pressed": 7787,
      "purg": 7788,
      "reserv": 7789,
      "ADAM": 7790,
      "restrain": 7791,
      "undergo": 7792,
      "LUCY": 7793,
      "LUCILIUS": 7794,
      "parents": 7795,
      "grim": 7796,
      "welkin": 7797,
      "bands": 7798,
      "isons": 7799,
      "forthwith": 7800,
      "killing": 7801,
      "pleases": 7802,
      "ranks": 7803,
      "TEZAN": 7804,
      "hush": 7805,
      "lacks": 7806,
      "tempor": 7807,
      "substit": 7808,
      "stops": 7809,
      "wearing": 7810,
      "Project": 7811,
      "worthless": 7812,
      "Lives": 7813,
      "waves": 7814,
      "growth": 7815,
      "humility": 7816,
      "THISBY": 7817,
      "GENTLEMEN": 7818,
      "consort": 7819,
      "leader": 7820,
      "suitors": 7821,
      "silken": 7822,
      "plainly": 7823,
      "crimes": 7824,
      "emperor": 7825,
      "surpris": 7826,
      "rising": 7827,
      "yielding": 7828,
      "profound": 7829,
      "skir": 7830,
      "Benvolio": 7831,
      "Monmouth": 7832,
      "mounted": 7833,
      "Worth": 7834,
      "nymph": 7835,
      "jests": 7836,
      "flattering": 7837,
      "torches": 7838,
      "cheerful": 7839,
      "ctious": 7840,
      "softly": 7841,
      "smallest": 7842,
      "baseness": 7843,
      "Tyb": 7844,
      "Albans": 7845,
      "continu": 7846,
      "revenue": 7847,
      "crush": 7848,
      "succession": 7849,
      "HUGH": 7850,
      "visitation": 7851,
      "rascals": 7852,
      "bounteous": 7853,
      "dwells": 7854,
      "anointed": 7855,
      "Adv": 7856,
      "hunting": 7857,
      "wonders": 7858,
      "conjur": 7859,
      "fifteen": 7860,
      "transform": 7861,
      "Half": 7862,
      "hatred": 7863,
      "profession": 7864,
      "Philipp": 7865,
      "function": 7866,
      "tyrann": 7867,
      "ligion": 7868,
      "buds": 7869,
      "pronoun": 7870,
      "apprehend": 7871,
      "bootless": 7872,
      "Brave": 7873,
      "cliff": 7874,
      "Antipho": 7875,
      "amazed": 7876,
      "Appear": 7877,
      "invite": 7878,
      "branch": 7879,
      "statue": 7880,
      "DORSET": 7881,
      "Diana": 7882,
      "Honour": 7883,
      "Trincu": 7884,
      "Lucio": 7885,
      "ordinary": 7886,
      "SERVINGMAN": 7887,
      "swoon": 7888,
      "commodity": 7889,
      "scourge": 7890,
      "Pandarus": 7891,
      "ambassador": 7892,
      "Paulina": 7893,
      "BRIDGE": 7894,
      "Happy": 7895,
      "wilful": 7896,
      "COURTEZAN": 7897,
      "quarrels": 7898,
      "Haply": 7899,
      "concluded": 7900,
      "exploit": 7901,
      "blossom": 7902,
      "adulter": 7903,
      "Stephano": 7904,
      "Ariel": 7905,
      "mystery": 7906,
      "AEDILE": 7907,
      "silly": 7908,
      "univers": 7909,
      "TRIBUNES": 7910,
      "drowsy": 7911,
      "BANDIT": 7912,
      "Fifth": 7913,
      "GREEN": 7914,
      "Prepare": 7915,
      "Rutland": 7916,
      "Thursday": 7917,
      "CAPHIS": 7918,
      "Trinculo": 7919,
      "Aud": 7920,
      "Awake": 7921,
      "Best": 7922,
      "Bard": 7923,
      "Cost": 7924,
      "Citizens": 7925,
      "Der": 7926,
      "Direct": 7927,
      "Emb": 7928,
      "IEN": 7929,
      "Ita": 7930,
      "MINIUS": 7931,
      "NY": 7932,
      "NEL": 7933,
      "Name": 7934,
      "NUR": 7935,
      "OGUE": 7936,
      "Pal": 7937,
      "Pity": 7938,
      "PSA": 7939,
      "SW": 7940,
      "Teach": 7941,
      "Vi": 7942,
      "bate": 7943,
      "bath": 7944,
      "bune": 7945,
      "bide": 7946,
      "dried": 7947,
      "dash": 7948,
      "eun": 7949,
      "gli": 7950,
      "gloves": 7951,
      "lings": 7952,
      "mouse": 7953,
      "nuncle": 7954,
      "ox": 7955,
      "pend": 7956,
      "sall": 7957,
      "slo": 7958,
      "slau": 7959,
      "scold": 7960,
      "tam": 7961,
      "uary": 7962,
      "wan": 7963,
      "throws": 7964,
      "ert": 7965,
      "inde": 7966,
      "inhabit": 7967,
      "anno": 7968,
      "thest": 7969,
      "ension": 7970,
      "envoy": 7971,
      "atus": 7972,
      "arrant": 7973,
      "espe": 7974,
      "toad": 7975,
      "meed": 7976,
      "nobody": 7977,
      "hale": 7978,
      "itive": 7979,
      "revel": 7980,
      "vein": 7981,
      "leek": 7982,
      "chi": 7983,
      "asar": 7984,
      "fords": 7985,
      "aye": 7986,
      "uture": 7987,
      "Thunder": 7988,
      "rod": 7989,
      "defeat": 7990,
      "degrees": 7991,
      "lik": 7992,
      "lime": 7993,
      "lixen": 7994,
      "wea": 7995,
      "terbury": 7996,
      "added": 7997,
      "rags": 7998,
      "unction": 7999,
      "vernor": 8000,
      "tio": 8001,
      "feature": 8002,
      "pel": 8003,
      "idly": 8004,
      "heriff": 8005,
      "fawn": 8006,
      "geons": 8007,
      "sula": 8008,
      "Together": 8009,
      "Topas": 8010,
      "shop": 8011,
      "ardine": 8012,
      "conta": 8013,
      "upbra": 8014,
      "motive": 8015,
      "moiety": 8016,
      "composition": 8017,
      "tavern": 8018,
      "OLOGUE": 8019,
      "quant": 8020,
      "quity": 8021,
      "CHORUS": 8022,
      "outlive": 8023,
      "ulous": 8024,
      "thereto": 8025,
      "seeking": 8026,
      "LEIUS": 8027,
      "truer": 8028,
      "trude": 8029,
      "Wear": 8030,
      "spell": 8031,
      "discontent": 8032,
      "distin": 8033,
      "dim": 8034,
      "vial": 8035,
      "perio": 8036,
      "plex": 8037,
      "excus": 8038,
      "exact": 8039,
      "ILD": 8040,
      "sweep": 8041,
      "howl": 8042,
      "foil": 8043,
      "MATIS": 8044,
      "PROCU": 8045,
      "Oft": 8046,
      "desol": 8047,
      "whereon": 8048,
      "Doll": 8049,
      "stray": 8050,
      "fiance": 8051,
      "fluous": 8052,
      "courts": 8053,
      "tsy": 8054,
      "holding": 8055,
      "warning": 8056,
      "bail": 8057,
      "bearer": 8058,
      "purple": 8059,
      "pursuit": 8060,
      "ATSW": 8061,
      "eff": 8062,
      "clay": 8063,
      "curity": 8064,
      "enters": 8065,
      "whir": 8066,
      "everywhere": 8067,
      "talents": 8068,
      "commends": 8069,
      "harms": 8070,
      "REW": 8071,
      "confine": 8072,
      "confidence": 8073,
      "playing": 8074,
      "steed": 8075,
      "sands": 8076,
      "horror": 8077,
      "overthrow": 8078,
      "engthen": 8079,
      "minion": 8080,
      "minster": 8081,
      "minable": 8082,
      "minutes": 8083,
      "banks": 8084,
      "falsely": 8085,
      "vault": 8086,
      "built": 8087,
      "PROLOGUE": 8088,
      "impatient": 8089,
      "MOPSA": 8090,
      "Polixen": 8091,
      "worthiest": 8092,
      "proved": 8093,
      "phes": 8094,
      "obsequ": 8095,
      "isting": 8096,
      "passes": 8097,
      "Canterbury": 8098,
      "crept": 8099,
      "prompt": 8100,
      "custo": 8101,
      "PERSONAE": 8102,
      "attends": 8103,
      "GENTLEWO": 8104,
      "CORNEL": 8105,
      "forced": 8106,
      "JOY": 8107,
      "choke": 8108,
      "BOATSW": 8109,
      "leaden": 8110,
      "empire": 8111,
      "walking": 8112,
      "ckets": 8113,
      "beating": 8114,
      "deeply": 8115,
      "reports": 8116,
      "supposed": 8117,
      "mocking": 8118,
      "whet": 8119,
      "created": 8120,
      "wasted": 8121,
      "cowardice": 8122,
      "swagger": 8123,
      "passions": 8124,
      "stirs": 8125,
      "feasts": 8126,
      "flatterer": 8127,
      "excellence": 8128,
      "Dispatch": 8129,
      "succour": 8130,
      "beards": 8131,
      "occup": 8132,
      "resolute": 8133,
      "Pomfret": 8134,
      "patiently": 8135,
      "assault": 8136,
      "Christendom": 8137,
      "judgement": 8138,
      "dram": 8139,
      "proceedings": 8140,
      "Heavens": 8141,
      "wedded": 8142,
      "support": 8143,
      "spurs": 8144,
      "Julius": 8145,
      "occasions": 8146,
      "Doubt": 8147,
      "mutual": 8148,
      "storms": 8149,
      "scarcely": 8150,
      "dealing": 8151,
      "cradle": 8152,
      "beneath": 8153,
      "FLAMINIUS": 8154,
      "MONTJOY": 8155,
      "Westminster": 8156,
      "apply": 8157,
      "Draws": 8158,
      "abused": 8159,
      "trembling": 8160,
      "fruitful": 8161,
      "cuckoo": 8162,
      "loathsome": 8163,
      "bridegroom": 8164,
      "frost": 8165,
      "strangers": 8166,
      "thorns": 8167,
      "pillow": 8168,
      "suffice": 8169,
      "deceived": 8170,
      "affliction": 8171,
      "branches": 8172,
      "Kneels": 8173,
      "debate": 8174,
      "debts": 8175,
      "frantic": 8176,
      "practis": 8177,
      "Chief": 8178,
      "Women": 8179,
      "latest": 8180,
      "spotted": 8181,
      "Ursula": 8182,
      "assured": 8183,
      "distracted": 8184,
      "imprisonment": 8185,
      "ACT_4": 8186,
      "bulk": 8187,
      "Balthasar": 8188,
      "coffin": 8189,
      "warriors": 8190,
      "brawl": 8191,
      "pilgrimage": 8192,
      "Saturnine": 8193,
      "159": 8194,
      "compell": 8195,
      "experience": 8196,
      "manifest": 8197,
      "sweeter": 8198,
      "Jaques": 8199,
      "reconci": 8200,
      "Belmont": 8201,
      "DRAMATIS": 8202,
      "bereft": 8203,
      "solicit": 8204,
      "acknowledge": 8205,
      "160": 8206,
      "Barnardine": 8207,
      "marvellous": 8208,
      "transport": 8209,
      "opportunity": 8210,
      "Virtue": 8211,
      "wolves": 8212,
      "Phoebus": 8213,
      "attach": 8214,
      "performance": 8215,
      "Gainst": 8216,
      "Philippi": 8217,
      "Antipholus": 8218,
      "Italian": 8219,
      "NURSE": 8220,
      "eunuch": 8221,
      "slaught": 8222,
      "PROCULEIUS": 8223,
      "Polixenes": 8224,
      "GENTLEWOMAN": 8225,
      "CORNELIUS": 8226,
      "BOATSWAIN": 8227,
      "'\"": 8228,
      "',": 8229,
      "13": 8230,
      "Ci": 8231,
      "Cold": 8232,
      "Dum": 8233,
      "Er": 8234,
      "Eno": 8235,
      "FL": 8236,
      "Fit": 8237,
      "Hol": 8238,
      "Kind": 8239,
      "Knight": 8240,
      "MARD": 8241,
      "Nell": 8242,
      "Pl": 8243,
      "Pu": 8244,
      "PYR": 8245,
      "Ra": 8246,
      "Rou": 8247,
      "Rug": 8248,
      "SP": 8249,
      "Sister": 8250,
      "Tar": 8251,
      "TON": 8252,
      "Wood": 8253,
      "Yonder": 8254,
      "aby": 8255,
      "apo": 8256,
      "avar": 8257,
      "batter": 8258,
      "bows": 8259,
      "dre": 8260,
      "dung": 8261,
      "een": 8262,
      "eloqu": 8263,
      "fted": 8264,
      "furious": 8265,
      "gun": 8266,
      "gam": 8267,
      "glo": 8268,
      "gul": 8269,
      "guts": 8270,
      "ido": 8271,
      "jer": 8272,
      "lance": 8273,
      "mers": 8274,
      "oil": 8275,
      "pere": 8276,
      "sow": 8277,
      "trow": 8278,
      "torn": 8279,
      "uc": 8280,
      "zed": 8281,
      "thumb": 8282,
      "oub": 8283,
      "ino": 8284,
      "ancy": 8285,
      "thed": 8286,
      "ists": 8287,
      "enius": 8288,
      "atage": 8289,
      "andon": 8290,
      "toys": 8291,
      "strings": 8292,
      "nobleness": 8293,
      "rein": 8294,
      "rees": 8295,
      "reproof": 8296,
      "revels": 8297,
      "religion": 8298,
      "sepul": 8299,
      "leaf": 8300,
      "beguil": 8301,
      "chop": 8302,
      "chim": 8303,
      "asci": 8304,
      "asking": 8305,
      "asunder": 8306,
      "celes": 8307,
      "ceeded": 8308,
      "hides": 8309,
      "hions": 8310,
      "notorious": 8311,
      "rode": 8312,
      "deth": 8313,
      "lid": 8314,
      "Andrew": 8315,
      "ridi": 8316,
      "ridd": 8317,
      "entire": 8318,
      "adi": 8319,
      "address": 8320,
      "cod": 8321,
      "rab": 8322,
      "rabble": 8323,
      "untimely": 8324,
      "urch": 8325,
      "tip": 8326,
      "tiger": 8327,
      "feeding": 8328,
      "idleness": 8329,
      "neath": 8330,
      "sugar": 8331,
      "convers": 8332,
      "prin": 8333,
      "prate": 8334,
      "pole": 8335,
      "ousins": 8336,
      "ELE": 8337,
      "boon": 8338,
      "qui": 8339,
      "canop": 8340,
      "TIMER": 8341,
      "Forgive": 8342,
      "Fortin": 8343,
      "epi": 8344,
      "mption": 8345,
      "produce": 8346,
      "Got": 8347,
      "dislike": 8348,
      "distill": 8349,
      "cibi": 8350,
      "Becomes": 8351,
      "perse": 8352,
      "excess": 8353,
      "excursions": 8354,
      "offender": 8355,
      "UTE": 8356,
      "accompl": 8357,
      "glow": 8358,
      "merits": 8359,
      "stratage": 8360,
      "scap": 8361,
      "scure": 8362,
      "scars": 8363,
      "scroll": 8364,
      "Orsin": 8365,
      "Remain": 8366,
      "worldly": 8367,
      "landed": 8368,
      "longs": 8369,
      "shirt": 8370,
      "preserv": 8371,
      "trag": 8372,
      "mightily": 8373,
      "AMIEN": 8374,
      "gib": 8375,
      "cury": 8376,
      "curtsy": 8377,
      "rightful": 8378,
      "Alcibi": 8379,
      "Norway": 8380,
      "besie": 8381,
      "readiness": 8382,
      "bringing": 8383,
      "confin": 8384,
      "assion": 8385,
      "presented": 8386,
      "wronged": 8387,
      "smith": 8388,
      "berry": 8389,
      "homely": 8390,
      "happier": 8391,
      "bantio": 8392,
      "buzz": 8393,
      "shameful": 8394,
      "breakfast": 8395,
      "worthier": 8396,
      "highly": 8397,
      "highest": 8398,
      "ventur": 8399,
      "ATHEN": 8400,
      "sung": 8401,
      "obliv": 8402,
      "commandment": 8403,
      "Rivers": 8404,
      "flying": 8405,
      "grove": 8406,
      "Lodo": 8407,
      "richer": 8408,
      "sinane": 8409,
      "fertile": 8410,
      "vantages": 8411,
      "valued": 8412,
      "Leonatus": 8413,
      "awak": 8414,
      "touching": 8415,
      "rises": 8416,
      "dropp": 8417,
      "croo": 8418,
      "reported": 8419,
      "boldly": 8420,
      "wiser": 8421,
      "causes": 8422,
      "gazing": 8423,
      "licity": 8424,
      "culous": 8425,
      "losses": 8426,
      "cowardly": 8427,
      "gladly": 8428,
      "laughing": 8429,
      "scarf": 8430,
      "Mercury": 8431,
      "region": 8432,
      "papers": 8433,
      "harmless": 8434,
      "beginning": 8435,
      "Knowing": 8436,
      "swim": 8437,
      "divin": 8438,
      "MORTIMER": 8439,
      "woods": 8440,
      "driven": 8441,
      "parties": 8442,
      "forgotten": 8443,
      "Messengers": 8444,
      "Titan": 8445,
      "circle": 8446,
      "frowning": 8447,
      "slanders": 8448,
      "usurping": 8449,
      "savour": 8450,
      "approaches": 8451,
      "Pisa": 8452,
      "kinsmen": 8453,
      "figures": 8454,
      "prepared": 8455,
      "captains": 8456,
      "priests": 8457,
      "companions": 8458,
      "Henceforth": 8459,
      "triumphant": 8460,
      "Steward": 8461,
      "winged": 8462,
      "Menenius": 8463,
      "clamour": 8464,
      "corruption": 8465,
      "corrupted": 8466,
      "sauce": 8467,
      "bigger": 8468,
      "stomachs": 8469,
      "disguis": 8470,
      "advised": 8471,
      "finish": 8472,
      "Brabantio": 8473,
      "provoke": 8474,
      "bills": 8475,
      "tokens": 8476,
      "Approach": 8477,
      "Dunsinane": 8478,
      "instinct": 8479,
      "superfluous": 8480,
      "observance": 8481,
      "antique": 8482,
      "Woe": 8483,
      "reckoning": 8484,
      "detested": 8485,
      "heaviness": 8486,
      "nesday": 8487,
      "oppression": 8488,
      "knavery": 8489,
      "Certain": 8490,
      "Eastcheap": 8491,
      "colle": 8492,
      "fantastical": 8493,
      "discipline": 8494,
      "Dorset": 8495,
      "Kisses": 8496,
      "cudgel": 8497,
      "endeavour": 8498,
      "penitent": 8499,
      "churlish": 8500,
      "impediment": 8501,
      "beautiful": 8502,
      "assembly": 8503,
      "Confess": 8504,
      "Wednesday": 8505,
      "ruffian": 8506,
      "Vouchsafe": 8507,
      "annoy": 8508,
      "period": 8509,
      "Enobar": 8510,
      "FLUTE": 8511,
      "MARDIAN": 8512,
      "PYRAMUS": 8513,
      "Rouen": 8514,
      "Rugby": 8515,
      "sepulch": 8516,
      "ascivious": 8517,
      "celestial": 8518,
      "ridiculous": 8519,
      "Fortinbras": 8520,
      "Orsino": 8521,
      "AMIENS": 8522,
      "Alcibiades": 8523,
      "oblivion": 8524,
      "App": 8525,
      "Bu": 8526,
      "Base": 8527,
      "Conce": 8528,
      "DEN": 8529,
      "Dest": 8530,
      "EG": 8531,
      "Ephes": 8532,
      "Foul": 8533,
      "Gone": 8534,
      "GRI": 8535,
      "GOT": 8536,
      "Guten": 8537,
      "Hum": 8538,
      "Illy": 8539,
      "Je": 8540,
      "Len": 8541,
      "Mene": 8542,
      "NO": 8543,
      "Ni": 8544,
      "Ow": 8545,
      "Pind": 8546,
      "REL": 8547,
      "Sy": 8548,
      "South": 8549,
      "Ta": 8550,
      "TYR": 8551,
      "Thir": 8552,
      "Vent": 8553,
      "avouch": 8554,
      "bench": 8555,
      "card": 8556,
      "cities": 8557,
      "dun": 8558,
      "eves": 8559,
      "fence": 8560,
      "gust": 8561,
      "gins": 8562,
      "iable": 8563,
      "lous": 8564,
      "lation": 8565,
      "mates": 8566,
      "mute": 8567,
      "mbel": 8568,
      "nur": 8569,
      "oms": 8570,
      "rants": 8571,
      "rist": 8572,
      "slack": 8573,
      "uish": 8574,
      "vours": 8575,
      "thigh": 8576,
      "antic": 8577,
      "theft": 8578,
      "ision": 8579,
      "enforc": 8580,
      "enix": 8581,
      "enfranch": 8582,
      "arbit": 8583,
      "arras": 8584,
      "array": 8585,
      "llies": 8586,
      "towed": 8587,
      "mew": 8588,
      "mete": 8589,
      "sta": 8590,
      "stare": 8591,
      "stiff": 8592,
      "heath": 8593,
      "nomin": 8594,
      "itiff": 8595,
      "itaph": 8596,
      "recount": 8597,
      "relieve": 8598,
      "secre": 8599,
      "security": 8600,
      "ingrate": 8601,
      "leaving": 8602,
      "beck": 8603,
      "beef": 8604,
      "chances": 8605,
      "assem": 8606,
      "deem": 8607,
      "rive": 8608,
      "ripen": 8609,
      "ridge": 8610,
      "Whis": 8611,
      "adore": 8612,
      "adder": 8613,
      "ussi": 8614,
      "coil": 8615,
      "rable": 8616,
      "thern": 8617,
      "unru": 8618,
      "amn": 8619,
      "amis": 8620,
      "amain": 8621,
      "tify": 8622,
      "feats": 8623,
      "idents": 8624,
      "mang": 8625,
      "mansion": 8626,
      "heres": 8627,
      "laus": 8628,
      "lacke": 8629,
      "shining": 8630,
      "consec": 8631,
      "constrain": 8632,
      "goest": 8633,
      "popul": 8634,
      "mote": 8635,
      "mum": 8636,
      "tak": 8637,
      "Whate": 8638,
      "owner": 8639,
      "blemish": 8640,
      "whatsoever": 8641,
      "Head": 8642,
      "safer": 8643,
      "moreover": 8644,
      "blank": 8645,
      "Forbear": 8646,
      "ulate": 8647,
      "apple": 8648,
      "asted": 8649,
      "epitaph": 8650,
      "agreed": 8651,
      "truce": 8652,
      "truant": 8653,
      "Weep": 8654,
      "spect": 8655,
      "project": 8656,
      "progress": 8657,
      "spa": 8658,
      "aux": 8659,
      "dismay": 8660,
      "discontented": 8661,
      "Bea": 8662,
      "ANDREW": 8663,
      "permit": 8664,
      "extre": 8665,
      "affords": 8666,
      "accursed": 8667,
      "broo": 8668,
      "broach": 8669,
      "MASTER": 8670,
      "mary": 8671,
      "glance": 8672,
      "abject": 8673,
      "ability": 8674,
      "abbey": 8675,
      "gentry": 8676,
      "iction": 8677,
      "ication": 8678,
      "gravity": 8679,
      "bloods": 8680,
      "scant": 8681,
      "miscarry": 8682,
      "Whereon": 8683,
      "assy": 8684,
      "footing": 8685,
      "taint": 8686,
      "cally": 8687,
      "achio": 8688,
      "sweets": 8689,
      "madly": 8690,
      "Marian": 8691,
      "Marshal": 8692,
      "FFITH": 8693,
      "precise": 8694,
      "tracted": 8695,
      "traged": 8696,
      "oppose": 8697,
      "impeach": 8698,
      "resort": 8699,
      "witty": 8700,
      "lighted": 8701,
      "cheese": 8702,
      "club": 8703,
      "restra": 8704,
      "compet": 8705,
      "underneath": 8706,
      "Thank": 8707,
      "BEIANS": 8708,
      "parliament": 8709,
      "bestowed": 8710,
      "placed": 8711,
      "airy": 8712,
      "ffic": 8713,
      "possi": 8714,
      "meanest": 8715,
      "turning": 8716,
      "farthest": 8717,
      "gets": 8718,
      "getting": 8719,
      "praised": 8720,
      "husbandry": 8721,
      "villainous": 8722,
      "buff": 8723,
      "derive": 8724,
      "powerful": 8725,
      "Pole": 8726,
      "BIGOT": 8727,
      "PLEBEIANS": 8728,
      "Arise": 8729,
      "brid": 8730,
      "fitted": 8731,
      "waist": 8732,
      "returns": 8733,
      "crab": 8734,
      "TAILOR": 8735,
      "coldly": 8736,
      "proudest": 8737,
      "bated": 8738,
      "clapp": 8739,
      "crime": 8740,
      "Frenchman": 8741,
      "empt": 8742,
      "pastime": 8743,
      "gging": 8744,
      "payment": 8745,
      "picious": 8746,
      "boldness": 8747,
      "Comfort": 8748,
      "hinder": 8749,
      "caus": 8750,
      "damnation": 8751,
      "Friend": 8752,
      "badge": 8753,
      "fram": 8754,
      "bowl": 8755,
      "embassy": 8756,
      "chiefest": 8757,
      "respected": 8758,
      "instruction": 8759,
      "proofs": 8760,
      "acquit": 8761,
      "Faul": 8762,
      "balm": 8763,
      "steals": 8764,
      "motions": 8765,
      "Venet": 8766,
      "ADRIAN": 8767,
      "Quite": 8768,
      "Vernon": 8769,
      "celle": 8770,
      "drag": 8771,
      "property": 8772,
      "bastards": 8773,
      "requests": 8774,
      "revenges": 8775,
      "knocking": 8776,
      "helps": 8777,
      "Blood": 8778,
      "threats": 8779,
      "threaten": 8780,
      "intends": 8781,
      "Holy": 8782,
      "negligence": 8783,
      "deriv": 8784,
      "Egyp": 8785,
      "dignities": 8786,
      "transgress": 8787,
      "starts": 8788,
      "accidents": 8789,
      "Cymbel": 8790,
      "disguise": 8791,
      "melted": 8792,
      "prosperity": 8793,
      "Cressida": 8794,
      "journ": 8795,
      "stockings": 8796,
      "enforced": 8797,
      "apprehension": 8798,
      "believ": 8799,
      "publish": 8800,
      "shroud": 8801,
      "concern": 8802,
      "FOOL": 8803,
      "admirable": 8804,
      "admitted": 8805,
      "attered": 8806,
      "Falls": 8807,
      "lunatic": 8808,
      "DORCAS": 8809,
      "Honest": 8810,
      "lists": 8811,
      "Gertrude": 8812,
      "assistance": 8813,
      "naughty": 8814,
      "CANIDIUS": 8815,
      "repeal": 8816,
      "complaint": 8817,
      "heavier": 8818,
      "studied": 8819,
      "warrior": 8820,
      "ecst": 8821,
      "philosophy": 8822,
      "Consider": 8823,
      "SNOUT": 8824,
      "napkin": 8825,
      "Small": 8826,
      "parcel": 8827,
      "insolence": 8828,
      "PRIAM": 8829,
      "holiday": 8830,
      "indifferent": 8831,
      "pangs": 8832,
      "tardy": 8833,
      "Reignier": 8834,
      "trifles": 8835,
      "Brief": 8836,
      "fantasy": 8837,
      "shelter": 8838,
      "proverb": 8839,
      "haughty": 8840,
      "infirmity": 8841,
      "universal": 8842,
      "Audrey": 8843,
      "quantity": 8844,
      "Dumain": 8845,
      "Pucelle": 8846,
      "ATHENIAN": 8847,
      "crooked": 8848,
      "Enobarbus": 8849,
      "GRIFFITH": 8850,
      "Gutenberg": 8851,
      "Pindarus": 8852,
      "TYRREL": 8853,
      "secrecy": 8854,
      "unruly": 8855,
      "extremes": 8856,
      "Cymbeline": 8857,
      "14": 8858,
      "Bal": 8859,
      "Burn": 8860,
      "BAG": 8861,
      "Bot": 8862,
      "Bona": 8863,
      "Bastard": 8864,
      "Cre": 8865,
      "Du": 8866,
      "Dare": 8867,
      "DIUS": 8868,
      "DEC": 8869,
      "Eu": 8870,
      "Gad": 8871,
      "Gave": 8872,
      "Hard": 8873,
      "Irish": 8874,
      "Metell": 8875,
      "Pla": 8876,
      "Plain": 8877,
      "Parson": 8878,
      "Row": 8879,
      "Rise": 8880,
      "Spare": 8881,
      "Tre": 8882,
      "VENTI": 8883,
      "Word": 8884,
      "Wert": 8885,
      "ae": 8886,
      "ai": 8887,
      "afore": 8888,
      "avo": 8889,
      "bars": 8890,
      "cow": 8891,
      "curious": 8892,
      "daggers": 8893,
      "emin": 8894,
      "fford": 8895,
      "fowl": 8896,
      "future": 8897,
      "gest": 8898,
      "games": 8899,
      "hart": 8900,
      "iv": 8901,
      "iment": 8902,
      "ivity": 8903,
      "jade": 8904,
      "lull": 8905,
      "nance": 8906,
      "oll": 8907,
      "pir": 8908,
      "pag": 8909,
      "pud": 8910,
      "plots": 8911,
      "rats": 8912,
      "smother": 8913,
      "twould": 8914,
      "tish": 8915,
      "tuous": 8916,
      "uce": 8917,
      "uate": 8918,
      "wny": 8919,
      "thood": 8920,
      "thwart": 8921,
      "eres": 8922,
      "erved": 8923,
      "inus": 8924,
      "insu": 8925,
      "invest": 8926,
      "instead": 8927,
      "orter": 8928,
      "ensu": 8929,
      "ensue": 8930,
      "enlarge": 8931,
      "attire": 8932,
      "aring": 8933,
      "arrows": 8934,
      "escap": 8935,
      "toy": 8936,
      "mel": 8937,
      "members": 8938,
      "string": 8939,
      "stances": 8940,
      "noses": 8941,
      "reform": 8942,
      "relief": 8943,
      "rehearse": 8944,
      "recreant": 8945,
      "seth": 8946,
      "veil": 8947,
      "lebr": 8948,
      "lechery": 8949,
      "levied": 8950,
      "chat": 8951,
      "celebr": 8952,
      "forgiven": 8953,
      "utboys": 8954,
      "notable": 8955,
      "rote": 8956,
      "decease": 8957,
      "lict": 8958,
      "ligent": 8959,
      "alt": 8960,
      "adop": 8961,
      "adverse": 8962,
      "cob": 8963,
      "rap": 8964,
      "rape": 8965,
      "uner": 8966,
      "ANCH": 8967,
      "neur": 8968,
      "faster": 8969,
      "suade": 8970,
      "endur": 8971,
      "prat": 8972,
      "upward": 8973,
      "size": 8974,
      "poll": 8975,
      "model": 8976,
      "comment": 8977,
      "taper": 8978,
      "tables": 8979,
      "tawny": 8980,
      "hog": 8981,
      "quest": 8982,
      "CHILD": 8983,
      "Health": 8984,
      "Hecu": 8985,
      "Exceed": 8986,
      "apper": 8987,
      "approbation": 8988,
      "thered": 8989,
      "RIS": 8990,
      "earl": 8991,
      "earn": 8992,
      "audit": 8993,
      "discharg": 8994,
      "Been": 8995,
      "Bell": 8996,
      "Begin": 8997,
      "somewhat": 8998,
      "dice": 8999,
      "diade": 9000,
      "Inn": 9001,
      "Thought": 9002,
      "acity": 9003,
      "plough": 9004,
      "follies": 9005,
      "IRATOR": 9006,
      "monsieur": 9007,
      "mson": 9008,
      "scatter": 9009,
      "scale": 9010,
      "scald": 9011,
      "fiends": 9012,
      "tley": 9013,
      "calling": 9014,
      "mado": 9015,
      "Marcell": 9016,
      "warn": 9017,
      "privy": 9018,
      "plagues": 9019,
      "tenour": 9020,
      "vocate": 9021,
      "vocation": 9022,
      "Shame": 9023,
      "purses": 9024,
      "Cali": 9025,
      "SERVILIUS": 9026,
      "rests": 9027,
      "compul": 9028,
      "compact": 9029,
      "curb": 9030,
      "brag": 9031,
      "brazen": 9032,
      "nativity": 9033,
      "charges": 9034,
      "parch": 9035,
      "parall": 9036,
      "MARSHAL": 9037,
      "talks": 9038,
      "eyelids": 9039,
      "harlot": 9040,
      "steeds": 9041,
      "clos": 9042,
      "cloy": 9043,
      "enchant": 9044,
      "meaner": 9045,
      "turned": 9046,
      "villan": 9047,
      "LIET": 9048,
      "temples": 9049,
      "thrall": 9050,
      "engag": 9051,
      "suborn": 9052,
      "smil": 9053,
      "berries": 9054,
      "vale": 9055,
      "impart": 9056,
      "impud": 9057,
      "Sometimes": 9058,
      "queath": 9059,
      "ventry": 9060,
      "MENES": 9061,
      "Decius": 9062,
      "captive": 9063,
      "capital": 9064,
      "devilish": 9065,
      "obst": 9066,
      "obscure": 9067,
      "musicians": 9068,
      "lowly": 9069,
      "CLEOMENES": 9070,
      "trod": 9071,
      "interpret": 9072,
      "Theseus": 9073,
      "richly": 9074,
      "iggard": 9075,
      "favor": 9076,
      "crimson": 9077,
      "Seem": 9078,
      "surgeon": 9079,
      "centre": 9080,
      "fasting": 9081,
      "pigeons": 9082,
      "vilely": 9083,
      "wisest": 9084,
      "Coming": 9085,
      "Commit": 9086,
      "personal": 9087,
      "Perhaps": 9088,
      "tenderness": 9089,
      "caitiff": 9090,
      "gav": 9091,
      "appearance": 9092,
      "despis": 9093,
      "casket": 9094,
      "folks": 9095,
      "hurts": 9096,
      "fraught": 9097,
      "CONSP": 9098,
      "mortality": 9099,
      "powder": 9100,
      "dishes": 9101,
      "plucks": 9102,
      "stirr": 9103,
      "judgments": 9104,
      "daring": 9105,
      "directed": 9106,
      "bella": 9107,
      "resolved": 9108,
      "lustre": 9109,
      "simplicity": 9110,
      "basest": 9111,
      "Messina": 9112,
      "briefly": 9113,
      "Gonz": 9114,
      "dragon": 9115,
      "thorough": 9116,
      "opinions": 9117,
      "malicious": 9118,
      "commendations": 9119,
      "girls": 9120,
      "sorts": 9121,
      "temperate": 9122,
      "drunkard": 9123,
      "hypo": 9124,
      "churchyard": 9125,
      "songs": 9126,
      "Dido": 9127,
      "frighted": 9128,
      "mingle": 9129,
      "mingled": 9130,
      "dwelling": 9131,
      "wrathful": 9132,
      "lamentable": 9133,
      "ports": 9134,
      "accusation": 9135,
      "weighty": 9136,
      "executioner": 9137,
      "practices": 9138,
      "perilous": 9139,
      "twelvemonth": 9140,
      "imperious": 9141,
      "square": 9142,
      "volunt": 9143,
      "prophecy": 9144,
      "Deny": 9145,
      "lambs": 9146,
      "eager": 9147,
      "patron": 9148,
      "merriment": 9149,
      "WATCHMAN": 9150,
      "Gracious": 9151,
      "comfortable": 9152,
      "events": 9153,
      "Florentine": 9154,
      "approved": 9155,
      "Strange": 9156,
      "moody": 9157,
      "feathers": 9158,
      "slipp": 9159,
      "ALEXANDER": 9160,
      "protection": 9161,
      "characters": 9162,
      "Singing": 9163,
      "HUME": 9164,
      "Stabs": 9165,
      "ACT_3": 9166,
      "BLANCH": 9167,
      "philosopher": 9168,
      "Courage": 9169,
      "carrion": 9170,
      "applause": 9171,
      "immediately": 9172,
      "Gallia": 9173,
      "bawdy": 9174,
      "Prospero": 9175,
      "doubts": 9176,
      "testimony": 9177,
      "Ambassad": 9178,
      "counsellor": 9179,
      "subscribe": 9180,
      "Surrey": 9181,
      "territ": 9182,
      "grateful": 9183,
      "pestilence": 9184,
      "sanctuary": 9185,
      "Fleance": 9186,
      "Beaufort": 9187,
      "champion": 9188,
      "JULIET": 9189,
      "renew": 9190,
      "anchor": 9191,
      "abundance": 9192,
      "vanquish": 9193,
      "sympa": 9194,
      "patricians": 9195,
      "pattern": 9196,
      "covetous": 9197,
      "Costard": 9198,
      "especially": 9199,
      "peremp": 9200,
      "princi": 9201,
      "accomplish": 9202,
      "Illyria": 9203,
      "Menelaus": 9204,
      "mangled": 9205,
      "restraint": 9206,
      "Faulconbridge": 9207,
      "BAGOT": 9208,
      "Bottom": 9209,
      "Dukes": 9210,
      "DECIUS": 9211,
      "Gadshill": 9212,
      "Metellus": 9213,
      "VENTIDIUS": 9214,
      "Hecuba": 9215,
      "diadem": 9216,
      "Marcellus": 9217,
      "CONSPIRATOR": 9218,
      "Ama": 9219,
      "Again": 9220,
      "Bion": 9221,
      "BUT": 9222,
      "Back": 9223,
      "Cries": 9224,
      "CARL": 9225,
      "CURIO": 9226,
      "Cala": 9227,
      "Dieu": 9228,
      "During": 9229,
      "Ear": 9230,
      "Eve": 9231,
      "EPI": 9232,
      "Elean": 9233,
      "Fer": 9234,
      "Far": 9235,
      "Fight": 9236,
      "Gower": 9237,
      "Grant": 9238,
      "Jer": 9239,
      "Lat": 9240,
      "Led": 9241,
      "Navar": 9242,
      "Op": 9243,
      "Prom": 9244,
      "Past": 9245,
      "Pass": 9246,
      "Pyr": 9247,
      "Ren": 9248,
      "Rat": 9249,
      "Rest": 9250,
      "Russi": 9251,
      "Sor": 9252,
      "Sent": 9253,
      "Sits": 9254,
      "Scar": 9255,
      "Spain": 9256,
      "Scro": 9257,
      "Thither": 9258,
      "TWO": 9259,
      "UGH": 9260,
      "VAU": 9261,
      "Wast": 9262,
      "WILLO": 9263,
      "],": 9264,
      "actor": 9265,
      "bain": 9266,
      "bau": 9267,
      "bbles": 9268,
      "dir": 9269,
      "dart": 9270,
      "dally": 9271,
      "eg": 9272,
      "fen": 9273,
      "fest": 9274,
      "fang": 9275,
      "fren": 9276,
      "gull": 9277,
      "greas": 9278,
      "gloss": 9279,
      "hen": 9280,
      "jades": 9281,
      "link": 9282,
      "mits": 9283,
      "niggard": 9284,
      "oy": 9285,
      "py": 9286,
      "pig": 9287,
      "rout": 9288,
      "rents": 9289,
      "saints": 9290,
      "tween": 9291,
      "ui": 9292,
      "udes": 9293,
      "ually": 9294,
      "vall": 9295,
      "vout": 9296,
      "wave": 9297,
      "ering": 9298,
      "iner": 9299,
      "infa": 9300,
      "inquire": 9301,
      "influ": 9302,
      "ann": 9303,
      "isted": 9304,
      "enna": 9305,
      "attent": 9306,
      "attor": 9307,
      "toss": 9308,
      "tower": 9309,
      "tops": 9310,
      "meal": 9311,
      "melo": 9312,
      "meek": 9313,
      "stabs": 9314,
      "stairs": 9315,
      "heave": 9316,
      "nox": 9317,
      "iting": 9318,
      "sear": 9319,
      "seated": 9320,
      "ingen": 9321,
      "bee": 9322,
      "beest": 9323,
      "chest": 9324,
      "chers": 9325,
      "chie": 9326,
      "chol": 9327,
      "chris": 9328,
      "fors": 9329,
      "demi": 9330,
      "dello": 9331,
      "lick": 9332,
      "ooms": 9333,
      "albain": 9334,
      "ric": 9335,
      "ading": 9336,
      "adise": 9337,
      "usual": 9338,
      "doting": 9339,
      "rapt": 9340,
      "unlike": 9341,
      "los": 9342,
      "loins": 9343,
      "tiest": 9344,
      "tians": 9345,
      "feeds": 9346,
      "ORS": 9347,
      "shaft": 9348,
      "fact": 9349,
      "labor": 9350,
      "rud": 9351,
      "contracted": 9352,
      "sith": 9353,
      "poise": 9354,
      "mole": 9355,
      "motley": 9356,
      "indust": 9357,
      "quill": 9358,
      "ctures": 9359,
      "whate": 9360,
      "sheathe": 9361,
      "sap": 9362,
      "saving": 9363,
      "Forest": 9364,
      "LOGUE": 9365,
      "sayest": 9366,
      "agon": 9367,
      "ague": 9368,
      "ISLE": 9369,
      "wayward": 9370,
      "uellen": 9371,
      "tood": 9372,
      "sphere": 9373,
      "augh": 9374,
      "disorder": 9375,
      "disgrac": 9376,
      "dial": 9377,
      "vizard": 9378,
      "peration": 9379,
      "peradventure": 9380,
      "plebe": 9381,
      "extra": 9382,
      "exquis": 9383,
      "handle": 9384,
      "tions": 9385,
      "eys": 9386,
      "offense": 9387,
      "nighting": 9388,
      "broils": 9389,
      "plants": 9390,
      "brew": 9391,
      "breech": 9392,
      "greatly": 9393,
      "marr": 9394,
      "glories": 9395,
      "abate": 9396,
      "abandon": 9397,
      "monsters": 9398,
      "whereupon": 9399,
      "Anten": 9400,
      "fulness": 9401,
      "gnaw": 9402,
      "ficial": 9403,
      "Prof": 9404,
      "asses": 9405,
      "flames": 9406,
      "SHER": 9407,
      "pricks": 9408,
      "bable": 9409,
      "Yourself": 9410,
      "lively": 9411,
      "foolery": 9412,
      "purchas": 9413,
      "lightly": 9414,
      "betters": 9415,
      "chains": 9416,
      "chambers": 9417,
      "compassion": 9418,
      "insin": 9419,
      "parle": 9420,
      "follower": 9421,
      "Herald": 9422,
      "carp": 9423,
      "meantime": 9424,
      "laying": 9425,
      "tempts": 9426,
      "thron": 9427,
      "lawy": 9428,
      "meets": 9429,
      "childish": 9430,
      "falcon": 9431,
      "happen": 9432,
      "goldsmith": 9433,
      "greets": 9434,
      "worthily": 9435,
      "fights": 9436,
      "beauties": 9437,
      "nearest": 9438,
      "Looks": 9439,
      "Looking": 9440,
      "penalty": 9441,
      "sending": 9442,
      "musician": 9443,
      "Capt": 9444,
      "trot": 9445,
      "throughly": 9446,
      "crafty": 9447,
      "crystal": 9448,
      "exceed": 9449,
      "clap": 9450,
      "BOUR": 9451,
      "certainty": 9452,
      "plainness": 9453,
      "kneels": 9454,
      "linger": 9455,
      "Boyet": 9456,
      "slender": 9457,
      "pasture": 9458,
      "yields": 9459,
      "deeper": 9460,
      "requires": 9461,
      "suffers": 9462,
      "Corporal": 9463,
      "abominable": 9464,
      "lane": 9465,
      "Church": 9466,
      "Christ": 9467,
      "questions": 9468,
      "rumour": 9469,
      "Parth": 9470,
      "Paroll": 9471,
      "cords": 9472,
      "gaunt": 9473,
      "gaoler": 9474,
      "speechless": 9475,
      "culate": 9476,
      "wonted": 9477,
      "entreaty": 9478,
      "cases": 9479,
      "hurl": 9480,
      "wretches": 9481,
      "Friends": 9482,
      "SOLDIERS": 9483,
      "fancies": 9484,
      "regal": 9485,
      "treble": 9486,
      "bells": 9487,
      "springs": 9488,
      "flee": 9489,
      "midst": 9490,
      "seasons": 9491,
      "posts": 9492,
      "labouring": 9493,
[...]
